▁. 147498479
▁, 123041004
▁ 51711846
▁; 45825439
▁& 34087686
; 33679858
amp 33508142
▁? 29156009
▁- 26906813
1 25515292
0 22687755
▁apos 20436191
▁the 19717886
▁_ 19224834
2 19183715
- 18157929
▁и 13511981
. 13505785
▁to 13351425
▁в 12806007
▁) 12797632
▁bir 12320311
▁: 11868793
i 11794674
▁of 11414248
▁( 10988911
▁I 10874464
▁quot 10466090
▁you 10274874
▁a 10242843
3 10018749
▁! 9481089
▁and 9224381
9 8842730
▁« 8479577
▁» 8249998
4 8177749
5 8083886
▁ve 7697901
▁in 7601420
▁amp 7476297
ʻ 7436710
▁... 7319011
, 6636325
▁s 6379342
▁на 6067774
▁не 5890704
6 5583335
▁с 5580467
▁is 5554537
▁— 5489101
▁that 5436492
▁‘ 5280056
7 5250246
8 5044665
▁it 4600784
▁’ 4425082
▁что 4416772
▁bu 4288607
▁по 4223974
▁o 4199348
▁for 4103730
▁için 3943050
▁және 3836083
▁de 3769868
▁t 3658685
▁da 3634708
▁Bu 3491876
▁O 3446241
▁on 3288262
▁va 3193406
▁“ 3141825
▁be 3061136
▁we 3032790
▁” 2959900
▁# 2934797
▁with 2909354
▁я 2868477
▁have 2847151
▁me 2819913
▁was 2786455
▁к 2742379
▁this 2680674
▁not 2573152
▁are 2563039
lar 2529416
▁Я 2515368
▁You 2510337
▁В 2494839
▁от 2488158
s 2465701
▁And 2463541
▁your 2395252
▁var 2386379
▁– 2359693
▁mi 2333406
▁bo 2313274
▁No 2275413
▁The 2263987
▁her 2227143
▁ne 2186314
ing 2158944
у 2099776
▁ki 2087839
▁at 2050228
▁за 2040737
▁he 2036250
▁/ 2033721
▁о 2019659
н 2010845
▁can 1996278
▁çok 1992095
▁my 1976101
▁do 1973000
▁это 1960594
a 1923638
▁daha 1908137
▁һәм 1893718
▁mı 1879325
in 1875738
▁из 1871998
▁Республики 1867132
▁will 1866114
ed 1854774
▁для 1836491
▁şey 1831381
▁as 1830865
▁m 1830031
к 1774081
▁they 1772613
▁Bir 1712896
ы 1696686
▁а 1694771
▁what 1693228
▁Қазақстан 1689687
▁ты 1688968
▁an 1684767
▁from 1648122
▁да 1637387
ка 1633780
an 1631425
ного 1621024
▁мен 1617179
▁all 1612310
▁его 1610912
▁değil 1605180
▁И 1600646
▁Allah 1571840
▁We 1570957
da 1553815
▁А 1548840
▁как 1544967
▁re 1541240
y 1534648
▁know 1534433
▁у 1527723
▁gibi 1508138
ini 1507007
▁və 1506380
▁so 1495851
▁kadar 1485653
▁* 1478312
o 1463348
да 1452040
▁his 1451145
ler 1447186
ной 1440666
▁С 1436754
<0xD2> 1432131
ки 1429042
▁A 1420700
с 1418947
ов 1403406
ных 1403225
▁он 1401712
▁It 1399420
▁бойынша 1398357
▁или 1387563
▁about 1379298
▁ent 1377755
▁out 1372320
▁him 1371557
e 1367973
ları 1366901
dan 1365558
er 1363915
▁them 1360766
и 1360684
е 1355274
_ 1351311
▁But 1341178
м 1340716
▁He 1335777
а 1328445
▁ya 1312504
▁Казахстан 1310645
▁by 1301995
▁iyi 1285191
ды 1278961
▁ko 1278744
▁like 1270530
al 1268945
formula 1266114
▁one 1261243
▁or 1241889
▁who 1241710
▁just 1236147
▁N 1232779
▁zaman 1232400
не 1231102
ға 1207036
▁туралы 1205366
▁up 1205329
▁Ama 1204871
т 1196791
en 1187035
ные 1185339
▁ama 1182488
▁S 1181674
▁мы 1179082
▁there 1178210
г 1177759
▁вы 1176085
▁but 1174655
ын 1173124
es 1165347
▁К 1160624
ен 1158715
ом 1155135
ал 1154506
▁olan 1153130
li 1151627
та 1138088
п 1137871
▁get 1134243
im 1130630
▁What 1129735
▁here 1127949
▁Ve 1124877
<0xE2> 1117207
ga 1114409
g 1110224
le 1106909
▁has 1104571
▁их 1101515
но 1093361
ar 1090316
▁при 1086138
▁Ben 1070294
▁года 1068973
▁О 1066013
▁olarak 1059395
▁olduğunu 1058355
ет 1057829
t 1055995
la 1047172
▁B 1046520
х 1046093
ный 1045594
▁yok 1041274
▁sonra 1039661
▁бар 1031354
▁ben 1030937
▁were 1027894
▁nın 1027428
l 1026394
▁K 1024889
р 1023870
▁меня 1023078
▁Б 1021865
u 1020853
ин 1020752
ʼ 1018207
▁if 1018177
ил 1017555
▁en 1012846
▁us 1012789
ить 1008896
▁% 1008837
о 1007138
л 1003919
ң 998137
m 998051
on 996294
▁their 988313
▁M 985538
leri 984059
і 980167
ге 978689
r 977551
at 976609
▁don 973984
▁no 971809
ан 969871
ке 967744
▁Evet 967251
ат 959986
▁мемлекеттік 959533
di 959383
▁D 954841
▁right 952467
▁У 951554
▁то 950404
▁our 948915
▁Ne 943927
▁T 943902
д 943787
▁же 941598
▁onu 940183
▁так 939810
дан 936956
▁Это 935911
▁Ты 930442
▁d 930367
ın 929060
▁те 928293
ем 926838
▁б 925903
ni 924133
▁Т 920517
▁~ 920261
▁C 916744
z 916624
ар 916400
га 916351
▁go 914109
ына 912584
▁bilan 912312
ли 911313
ам 907721
▁had 907629
ш 905918
я 903430
то 901262
il 896339
▁все 892984
ны 891387
p 887584
ты 884546
n 882459
ю 879976
▁God 878878
▁до 878347
am 877233
б 875305
ит 872519
▁бы 870745
▁uchun 864387
▁ll 864141
са 862141
▁g 859523
▁менен 858532
▁М 858468
ly 857537
▁г 856992
▁G 856238
▁when 853081
lik 852570
▁i 851196
ным 850671
▁H 847357
k 846389
▁мне 844533
з 844470
▁time 842498
▁would 839977
▁ал 837711
▁об 834494
▁ta 834036
▁want 833387
ning 832738
ir 832711
▁но 823033
▁sen 820717
un 819271
ла 818109
▁bana 817234
▁та 814656
c 814480
ma 814478
▁P 811781
ать 810512
▁people 808890
де 805727
▁she 804069
▁nasıl 801889
ының 799293
ine 795073
▁чтобы 794607
▁got 790727
el 781089
▁үшін 780283
ер 780248
ное 779732
▁Он 778711
lari 777362
▁did 775030
мен 772448
▁been 771467
▁F 769961
▁они 769806
▁So 769551
b 767977
ers 766707
▁see 764926
▁önce 764668
▁R 762960
▁qo 762273
ында 762183
▁think 762092
▁деп 761604
▁со 759771
▁now 758499
▁ile 757770
ная 755448
▁Yehova 754341
it 752393
ку 751152
▁said 749750
▁бер 749727
▁L 747177
ами 740156
▁In 739441
▁немесе 739210
▁say 738805
et 738150
ра 737126
ни 736726
ak 735809
▁benim 727888
▁Мы 727325
ского 726941
ия 722857
▁mu 722598
or 721809
▁gün 720923
▁This 720445
ып 720111
на 719668
▁Hayır 718653
um 718306
▁more 717277
alar 715748
ə 715478
ib 707536
is 704039
ей 703596
▁тебя 702176
▁Д 700338
в 700144
ч 699752
ма 698729
лар 698677
ел 697424
▁bunu 696675
▁That 693768
▁Sen 693060
<0xD3> 692752
▁some 692345
▁un 691331
▁если 689676
им 687329
▁beni 687023
d 682331
▁b 680090
▁ın 677590
▁back 677208
▁белән 676177
▁good 675415
as 675340
▁также 672858
ik 672760
ә 669915
ur 667667
▁т 666175
▁был 665737
dir 663857
ı 663264
▁iş 660862
▁Но 660356
▁Республикасының 658283
ların 656768
▁Узбекистан 654158
▁how 652414
▁p 652121
ри 651529
▁man 648157
▁бир 647070
▁biz 646854
▁onun 644777
▁быть 644622
▁Biz 643935
▁Не 643446
▁Do 642314
f 640767
▁e 640123
▁П 639843
тар 639342
▁need 636371
или 634771
▁yer 632192
ic 630225
h 629377
ж 628975
▁Республикасы 628825
ді 628684
ой 628006
ым 626061
▁будет 624405
▁hiç 624335
▁al 624026
те 623608
се 622106
▁Oh 620687
▁было 620415
inin 620336
iga 620050
▁those 619112
▁Tanrı 618951
▁They 618555
▁Г 617737
ай 616414
▁нас 615867
ение 615858
▁büyük 615118
ди 615067
▁then 613578
us 612060
▁без 611890
▁когда 611544
▁son 611396
ını 610643
larını 610608
<0xDB> 610165
ными 609676
▁Respublikasi 608459
▁под 607902
de 607401
▁could 603932
▁Her 602090
▁м 598469
ін 597900
▁seni 592846
ad 591736
▁də 590689
▁sadece 587976
S 587890
▁over 587525
▁How 585817
ном 585732
em 585696
▁области 585448
▁sana 584894
iz 584678
▁жылғы 584537
ның 583412
▁ham 582760
▁өчен 582675
тер 581513
▁come 578695
▁қызмет 578464
▁.. 578087
▁жана 577637
mak 574865
▁ш 574532
iy 572189
lara 570929
▁ona 568155
▁way 566382
▁İsa 563931
▁make 563652
лы 562618
дар 562555
ала 562078
▁bile 561884
▁oldu 560247
▁üçün 560119
▁which 559397
▁take 559304
▁только 557696
▁senin 554001
▁Н 552593
ст 552310
▁k 551274
ish 549015
али 548395
▁biri 547967
▁yo 547813
▁ver 545328
▁should 545190
ти 545109
▁раз 544384
▁All 543730
▁am 543404
▁iki 543202
man 542910
▁Y 542291
ot 541408
▁Как 536321
sa 535164
me 535024
▁тебе 533740
ре 532342
ӗ 532317
ле 531971
ми 531705
os 531412
▁şu 530936
▁Что 530363
▁сәйкес 530305
imiz 530159
ах 529777
▁going 528097
▁она 526838
▁down 526771
▁Да 526425
▁V 525738
дың 525677
ım 524901
ul 524746
ta 523568
I 523242
ay 522229
▁only 521402
▁ж 520866
▁д 519401
▁Well 519111
▁Вы 518564
▁есть 517366
<0xC3> 515457
▁Ал 514210
ası 513100
ida 513025
он 510141
▁үчүн 509433
▁into 508964
ь 507629
ок 505534
▁zbekiston 505070
▁осы 504673
▁E 504641
А 503735
▁than 503688
▁ol 503610
▁п 502467
▁et 502112
ip 501936
▁Çok 501173
▁other 500752
▁c 500731
▁Р 500289
ır 499317
▁может 498234
▁На 497896
▁musun 497007
сем 496232
q 496047
▁бу 495477
ения 494909
▁ч 494666
▁f 494551
A 494455
▁başka 493852
ek 493471
▁misin 493262
інің 493055
▁этом 492233
▁Ж 491570
ada 490859
ining 489794
▁If 489426
▁Jehovah 489028
ақ 488581
ına 488410
▁y 488038
ov 487288
ç 486765
▁r 486728
mek 486687
ation 485995
▁l 485931
ган 485309
▁burada 485029
▁При 484423
ф 483349
іне 483122
lerini 482396
▁ли 482289
▁any 482057
dır 481917
▁bak 481733
▁ул 481302
гә 480598
▁z 480371
E 479170
▁adam 478580
▁yardım 478512
ch 478188
lerin 478143
▁day 478061
▁olur 478028
ную 476969
ti 475525
▁something 474100
ү 474095
ол 473796
▁neden 473622
ек 472709
▁two 472642
▁work 472492
▁вас 471626
ор 471457
ас 471381
▁Х 471290
тан 471214
▁life 469464
▁кто 468958
▁She 467466
ol 466639
▁жұмыс 465918
▁tek 465744
imi 465476
▁Bunu 464533
за 464097
▁государственной 463545
ent 462031
ев 461778
▁Если 461757
ес 459894
esi 459652
▁ее 459077
▁kim 458609
ый 458437
ду 457272
ий 456230
ab 455248
▁U 455219
▁Tom 454934
▁том 453507
дә 453410
▁güzel 453344
D 453320
▁these 453217
▁Ш 452702
▁жүзеге 452077
ate 450373
▁gonna 449968
larni 448346
▁которые 446623
M 446328
▁really 445577
▁дә 444561
▁onlar 444368
▁J 444179
▁n 443393
▁Hey 443327
▁время 442885
ыр 442011
ған 441151
lardan 440768
▁never 440719
▁өз 439716
▁first 439629
▁böyle 439293
▁şeyi 438259
▁нет 438064
aya 436848
▁qilish 436285
▁беру 435939
▁may 435500
<0x80> 434839
▁во 434569
▁чем 433839
▁Л 433051
▁yap 432987
ик 432870
▁Z 432627
lər 431235
<0xAC> 430549
▁doğru 430046
▁hakkında 430011
тың 429787
▁biraz 429688
T 429418
▁fazla 428873
v 428646
▁Yeah 427849
лер 427816
B 427738
larini 427736
lan 427422
дер 427204
▁того 426180
lı 424341
gan 424206
▁geri 424113
▁tell 423463
den 422500
▁olacak 422384
▁Tamam 422356
▁дип 422260
id 421029
ро 420323
▁too 420032
ру 418794
▁Eğer 418546
▁арналған 418302
om 417295
С 416740
▁нам 416471
▁су 416089
▁Ф 415547
! 415345
ден 415078
▁There 414747
? 414554
▁very 414499
▁Onu 414335
▁göre 414334
қа 413867
ü 413077
▁По 412852
▁before 412830
▁ар 412624
ләр 411883
ской 411382
▁help 411321
▁соответствии 411261
K 411180
▁ilk 410942
▁where 410275
▁про 409495
te 409333
se 409037
ının 408890
▁dedi 408732
▁little 407995
▁района 407671
ыл 406697
▁off 406271
▁деген 406163
ства 406152
▁х 405078
ко 404452
▁istiyorum 404394
▁Don 402757
▁let 402111
▁gel 400876
▁diye 400633
▁= 400357
▁As 399914
▁nin 399340
▁tut 399198
▁yeni 399053
▁bütün 398963
ности 398294
ту 398223
▁My 398019
x 397972
▁ни 397893
па 397359
▁kal 396955
▁им 396682
<0x90> 395620
▁Bana 393725
ме 393695
аны 392659
ят 392614
▁сказал 392605
▁onları 392382
▁Bay 391905
▁этого 391471
▁siz 391370
▁well 391364
алар 390651
▁болып 390352
ении 390288
▁even 389829
▁because 389786
▁u 389197
М 388566
▁love 388160
▁size 388125
ция 387817
▁new 387781
▁эле 387652
▁после 387498
<0xD9> 387251
ana 386993
дің 386898
<0x86> 386857
ед 386689
▁years 385752
▁h 385411
асы 385190
▁şekilde 384660
ир 384590
dı 384522
▁öyle 384247
eler 384176
ey 383991
▁деятельности 383684
est 383510
tan 383272
ıyor 382794
st 382773
▁bil 382466
қ 382020
ten 381819
▁жол 381450
▁уже 381430
asi 381314
▁законодатель 381168
P 381068
▁үз 380960
▁вӑл 379459
▁үй 379104
▁Why 378438
▁күн 378173
▁el 377837
▁Çünkü 377455
isi 377443
▁öz 377407
ии 376851
▁also 376688
▁Şimdi 376654
▁tüm 376622
▁şeyler 375476
▁алып 374798
▁W 374259
▁лет 374184
▁государствен 374179
L 374127
larda 374029
▁ay 373507
miş 373259
ist 373205
▁yol 373174
▁söz 372855
mış 372299
▁find 371977
▁ma 371461
▁yıl 370867
sin 370679
ков 370543
ген 370529
idan 370006
j 369810
: 369464
▁Нет 368983
ский 367931
▁қамтамасыз 367796
▁керек 367723
ова 367652
ki 367546
▁hem 367534
ая 366728
ите 366544
▁баш 366272
▁Peki 366229
▁Can 365791
▁made 364958
▁look 364680
▁davlat 364259
▁ҚР 364256
▁Ну 364147
▁things 364062
ri 364029
▁after 363271
▁еще 363214
▁были 363052
▁Ar 362486
▁вам 362457
▁них 361178
▁kötü 361156
▁onlara 361081
inde 361069
▁просто 361022
lere 361020
C 360895
ra 360502
ayı 360393
го 360073
▁give 359719
lık 359676
ность 359282
<0x88> 358494
▁much 358318
▁Ч 358245
▁sh 358065
ному 357528
▁Об 357421
▁оның 357381
larına 357355
▁Так 357339
ans 357077
▁For 356639
▁Seni 356372
▁etmek 356246
лан 355710
▁olduğu 354550
ции 354185
siz 353764
▁здесь 353285
▁Daha 353094
R 352770
▁içinde 352693
▁insan 352140
Т 351763
ah 351663
iyor 351508
ул 351491
▁Sadece 350987
ap 350965
▁Allahın 350869
▁olabilir 349927
maya 349880
▁kız 349860
▁onların 349762
anın 349412
▁Al 349093
ак 349054
Y 348987
▁hiçbir 348920
▁didn 348608
▁thing 348549
▁baş 348113
▁тата 347969
▁ilgili 347741
▁Come 347387
eli 346902
ті 346854
▁karşı 346132
▁ar 345916
<0xD1> 345801
re 344963
▁göz 344960
▁булган 344135
алы 343913
ун 343605
adan 343071
▁ту 342923
up 341811
й 341798
▁Onun 341571
ине 341114
▁Onlar 340864
w 340523
ında 340027
▁Иегова 339391
▁yoki 339110
▁Are 338299
▁З 337611
▁az 337501
▁bırak 337115
▁Is 336414
▁более 335784
ся 335180
ən 334910
▁gerçekten 334481
сы 334352
▁Sana 334307
▁olsun 333958
▁Now 333937
▁göster 333321
ур 333183
▁Kazakhstan 332891
ина 332827
üm 332657
ша 332442
ant 332058
▁world 332029
ut 331999
▁Benim 331952
▁была 331589
▁ему 331459
▁night 331416
az 331329
▁услуги 330669
кой 330583
tı 330458
кан 330424
<0xBA> 330160
▁Е 330118
▁Beni 330114
-- 329837
son 329627
ac 329586
▁bize 329205
▁бір 329176
ча 329036
▁En 328583
ş 328251
▁nə 328053
▁gerek 327345
iler 326867
▁At 326838
larga 326751
▁Neden 326643
▁Dr 326522
К 326471
▁away 326113
▁ст 325526
▁Они 324648
аться 324419
▁• 324067
ün 324033
du 323987
acak 323823
▁geç 323641
▁bizi 323566
▁must 323374
▁Yani 323089
▁tam 323046
th 322724
ран 322637
▁басқа 322615
▁Э 322541
▁men 322362
Б 322116
▁mean 321952
H 321889
▁An 321764
ством 321550
▁why 321422
▁v 321133
ғы 320912
▁ev 320465
eye 320406
▁dan 320303
▁+ 319578
▁очень 319404
<0xD0> 319052
▁şimdi 318622
unu 318523
▁алу 318433
ман 318018
ению 317609
▁artık 317389
▁й 316322
▁РК 316203
▁kendi 316185
<0x82> 316086
▁still 315919
op 315516
▁де 315425
▁Did 315227
▁нужно 314886
▁bilen 314875
adi 314439
ос 313720
O 313441
ӑн 313211
▁gör 313090
▁many 313042
sın 312997
атын 312889
▁Sh 312851
▁пар 312642
▁н 312597
▁порядке 312540
▁does 312205
dik 312143
▁бас 312064
larning 312040
▁Она 311532
▁города 311391
▁amalga 311225
▁last 311181
ыс 310612
▁yicha 310516
▁всех 310160
▁ай 309649
ter 309416
▁Şu 309313
▁top 308609
▁ол 308452
▁алар 308449
ımı 308393
▁olmak 308200
ую 308197
▁жөніндегі 307890
▁When 307629
▁den 307584
iniz 307339
И 307189
ут 307115
из 306766
G 306436
нде 306395
▁Осы 306080
▁себя 305798
ləri 305745
ыш 305341
▁tamam 305340
ав 304989
лары 304415
уы 304409
тары 304263
and 303361
▁жыл 303112
ғ 302909
ından 302858
сен 302472
▁İyi 302410
▁средств 302243
od 302233
▁kimi 302197
▁развития 301991
una 301961
▁ел 301484
ecek 301477
ated 301071
ло 300923
▁должны 300907
ıl 300827
ила 300673
▁там 300661
▁kullan 300281
▁дня 300018
▁Қ 299969
кт 299826
▁gece 299682
▁тем 299440
<0xC2> 299320
▁aynı 298930
<0xB9> 298822
▁dur 298781
dən 298661
▁vardı 297606
ынан 297437
<0xB1> 297099
▁Йәһвә 296814
▁iç 296611
ых 296289
▁çünkü 296195
от 295702
ник 295566
▁работы 294995
▁көрсету 294847
▁Lord 294808
san 294340
▁Ch 293947
▁пол 293791
▁its 293762
▁году 293585
▁менән 293495
▁Let 293000
▁hamda 292517
dim 292118
▁، 292034
ц 291850
▁hazır 291648
▁Jesus 291436
▁Siz 291432
▁birlikte 291367
ва 291314
zbekiston 290589
tir 290212
▁болгон 289838
▁söyledi 289774
▁bar 289765
ӑр 289743
▁devam 289612
▁всё 289585
ель 289408
▁орган 288896
▁biliyor 288761
▁мар 288627
дағы 288197
ion 287995
▁tan 287425
alı 287283
▁Yes 287080
▁place 286938
ют 286909
▁э 286716
▁жылы 286617
П 286439
▁қол 286253
аль 286245
▁izin 286212
▁anything 285835
▁through 285635
▁mü 284943
▁Hotel 284827
Н 284822
▁Бу 284776
▁больше 284660
▁іс 284523
larının 284458
▁küçük 284286
▁çocuk 284210
иться 284064
▁yaz 283884
▁düşün 283827
ce 283816
ag 283749
▁Belki 283627
▁ı 283477
дай 283461
▁getir 283368
▁Ә 283208
▁again 283135
ешь 283098
▁bul 283057
▁har 283052
N 282984
▁being 282876
▁sizin 282727
▁bizim 282703
лек 282651
▁told 282615
▁geldi 282401
▁saat 281940
ется 281508
▁etti 281488
▁сондай 281321
ň 281130
ҫ 280835
▁çalış 280663
▁çık 280607
▁veya 280467
▁ad 280437
uz 280004
▁Мемлекеттік 279842
ого 279827
▁Ул 279724
лық 279419
▁Senin 279365
▁doing 279329
ması 279319
▁который 279216
си 279146
че 278916
О 278862
▁организации 278625
ity 278400
▁boshqa 278248
anı 278035
▁part 277905
▁бул 277539
Д 277536
ете 277488
ением 277345
▁где 277291
▁New 277109
▁q 276855
▁insanlar 276822
▁put 276735
▁мӗн 276422
ара 276316
<0x92> 276254
▁long 276077
▁dön 276076
▁знаю 276033
▁kaç 275995
еп 275992
eyi 275917
... 275673
▁aç 275518
ard 275410
▁çek 275268
able 274488
әр 274322
ап 274261
ary 274228
▁Mr 274168
▁жаңа 274119
▁ilə 273576
▁yüzden 273571
▁Иисус 273434
▁st 273292
ig 273135
▁день 273013
ив 272740
▁ф 272675
▁etish 272530
▁tomonidan 272329
▁ан 272109
ligi 272041
▁ним 271985
ән 271844
▁sev 271260
də 271066
▁j 271021
▁бастап 270595
▁пӗр 270171
▁һ 269975
ис 269919
▁such 269664
dagi 269591
iya 269164
▁жер 269133
▁ye 269129
▁deb 269057
ken 268883
▁вер 268853
▁yet 268814
<0xAA> 268785
ý 268743
▁To 268743
▁uy 268737
▁home 268502
▁call 268218
▁пек 268213
inden 268021
▁thought 268016
iş 267327
▁з 267321
ca 267152
▁между 267018
▁edin 266864
од 266861
uk 266830
▁great 266806
▁год 266527
av 266143
▁Кудайдын 266027
▁Ya 265676
▁ат 265509
һы 265416
▁vardır 265413
ится 265392
▁w 265032
▁Ona 264944
▁Hadi 264902
әт 264796
▁Sonra 264640
▁ed 264614
▁çıkar 264485
sh 264402
ede 264378
▁zor 264342
▁ber 264181
▁shall 264163
пе 264115
▁better 264106
▁sizi 263973
ымен 263908
лен 263761
▁болады 263596
▁үш 263423
F 263141
▁кел 262709
▁Fakat 262337
▁будут 262329
▁Приложение 262281
▁Мне 261504
ана 261240
▁через 261026
▁every 260881
lə 260849
э 260684
сти 260648
anlar 260588
▁orada 260549
▁km 260242
дары 259979
▁şöyle 259954
▁bor 259864
▁found 259850
▁konuş 259780
ık 259749
ev 259593
▁year 259547
▁аны 259441
▁X 259310
lgan 259129
ө 259060
ги 259037
lam 258900
нан 258817
▁жағдайда 258756
сыз 258753
▁случае 258733
аты 258694
▁own 258569
enin 258265
▁государственных 258013
▁Алматы 257263
▁üçin 257230
▁жеке 257110
уға 257097
▁On 256972
▁турында 256815
▁ә 256688
▁вә 256486
▁Q 256419
▁name 256352
▁других 255692
▁gir 255603
▁кандай 255573
▁адам 255567
▁Just 255492
▁человек 255320
аб 255175
▁Your 255043
eleri 254236
▁него 254052
об 253752
ели 253680
▁ç 253497
lerine 253380
V 253366
▁under 253300
ür 252822
▁соң 252531
▁mumkin 252376
▁көп 252376
ӗн 252244
▁дней 251993
▁iman 251672
ya 251668
ama 251568
▁sahip 251523
▁ever 251332
▁gerçek 251140
▁kabul 251098
ство 251078
▁ету 250821
▁ала 250699
▁sor 250599
▁necə 250555
сене 250312
▁Check 250263
▁образования 250231
▁ish 249893
▁kişi 249683
інде 249670
▁most 248751
▁söyle 248402
▁bunun 248303
▁жизни 248225
eni 248091
alari 247428
▁around 247417
▁Изге 247256
▁might 247026
▁believe 247005
▁должен 246921
ился 246732
▁git 246669
▁talk 246505
▁üç 246395
тен 246392
mi 246380
▁car 246289
ҡ 245887
eri 245588
ro 245561
aları 245175
▁перед 245017
▁always 244970
алық 244703
▁Kim 244636
ge 244606
▁облысы 244536
нен 244428
▁another 244251
▁ch 244187
Р 243898
▁görə 243873
▁кем 243872
▁plan 243810
▁bit 243682
eden 243440
▁önemli 243381
▁diğer 242783
▁людей 242620
ok 242604
▁x 242580
чӗ 242437
▁эш 242289
▁прав 242275
▁same 242194
ие 242183
▁Ş 242179
▁тесе 242136
▁biliyorum 242066
▁Ah 241980
ба 241931
щ 241500
▁қызметті 241461
eti 241390
ub 241148
алары 241122
ются 241001
▁ҳәм 240959
кен 240955
нӑ 240788
▁ister 240659
ые 240543
▁Bak 240363
▁көрсетілетін 239932
▁сал 239866
▁кил 239813
дын 239687
▁Астана 239632
лет 239556
yň 239264
▁Because 239083
unun 239002
іп 238972
▁tarafından 238886
▁Bunun 238652
▁uzun 238627
▁ise 238561
▁Ыйык 238546
▁арқылы 238538
muş 238410
▁Then 238310
▁çox 238048
▁came 238030
▁keep 237994
▁Burada 237917
▁El 237840
▁является 237370
▁children 237256
▁yani 237243
meye 236959
су 236607
ком 236418
нең 236359
▁qanday 236294
▁Not 236261
iye 236164
ип 236037
▁İşte 235681
тің 235644
lash 235558
шы 234882
▁old 234007
▁документов 233964
dur 233864
ени 233558
ani 233352
▁Аллаһы 232870
ka 232474
аш 232332
▁дел 232238
▁Когда 231450
ид 231258
▁білім 231003
ление 230989
▁лиц 230852
ӑ 230798
▁Ç 230648
▁реализации 230371
▁arasında 230254
out 230204
ау 229839
▁ediyor 229784
▁eder 229122
▁қайта 228930
ley 228901
▁один 228760
мет 228744
ez 228743
▁тот 228473
▁ҫинчен 228448
▁use 228409
▁buraya 228192
▁бюджет 228181
▁ішінде 228004
▁этот 227992
пен 227929
▁органов 227674
▁сейчас 227559
▁işte 227347
▁е 227295
ina 227229
▁real 227006
сын 226980
ены 226937
<0xA7> 226911
▁аның 226605
<0x96> 226538
▁могут 226421
idir 226342
▁бол 226310
стан 226262
▁могу 226218
ildi 226094
▁барлық 226053
ындағы 225916
ров 225700
▁дейін 225672
▁His 225149
▁end 225075
гі 224903
▁ak 224824
▁between 224810
▁lütfen 224531
aq 223972
▁действие 223793
ış 223536
▁ти 223520
▁хочу 223514
▁эмес 223443
lerden 223341
ления 223275
асын 222729
▁Все 222500
▁verdi 222434
▁eden 222207
oz 222168
asını 221848
▁kur 221814
atlar 221773
▁yil 221636
ara 221565
▁sure 221520
<0xDA> 221338
му 221241
lu 220897
ха 220762
▁please 220447
▁duy 220302
▁left 220271
▁Who 220260
▁family 220236
ста 220090
дән 219847
ары 219725
▁feel 219678
▁Министерства 219377
İ 219323
▁даже 219237
oy 219110
мы 218915
▁açık 218865
ımız 218826
▁today 218784
дық 218440
▁days 218313
ата 218311
▁ре 218185
▁kind 218166
inə 218140
▁nothing 217963
▁lazım 216798
U 216744
▁Or 216703
імен 216529
дин 216491
les 216481
ля 216471
▁настоящего 216455
▁кейін 216414
▁oy 216324
▁kar 216190
▁Бұл 216172
▁эти 216169
▁three 216153
▁Bible 216051
▁ş 216035
▁мой 215946
▁hər 215798
▁Правительства 215507
▁берген 215461
ез 215449
▁сан 215150
▁demek 215072
▁емес 215063
ations 214962
▁кар 214912
▁много 214783
бы 214737
▁ко 214717
▁әлеуметтік 214621
▁il 214608
лик 214606
▁tekrar 214390
ском 214216
▁sür 214177
▁бақылау 214140
ünü 214134
енә 214078
▁тиіс 214076
ларын 213994
▁Ol 213826
ash 213774
әм 213658
ская 213593
▁best 213476
әк 213398
▁karar 213380
▁эмне 213339
▁ishlab 213270
▁yar 213031
iyle 213007
▁тип 212948
▁bol 212886
▁ку 212786
▁yapmak 212657
نى 212490
У 212347
▁koy 212327
<0x8B> 212300
▁yarat 212104
чи 211990
В 211931
<0xA9> 211901
▁yüz 211881
▁düş 211824
▁Okay 211777
▁анын 211765
lariga 211714
gi 211394
▁иш 211356
▁мӗнле 210912
▁lot 210899
mayı 210792
▁la 210488
ət 210421
ры 210377
tır 210223
ating 210092
▁money 210025
▁кал 210015
▁guy 209986
▁тут 209966
ell 209828
ınız 209545
дарды 209491
▁Müqəddəs 209324
▁sp 209100
▁everything 208843
үн 208811
ry 208771
▁sağ 208696
▁St 208644
тік 208598
ob 208469
larla 208405
▁süre 208084
lama 207821
▁итеп 207445
▁ук 207139
▁которых 206847
esini 206843
▁этой 206665
▁От 206657
Л 206603
ime 206467
▁sir 206463
▁тар 206382
▁par 206337
dy 206306
Е 206015
ич 205703
▁used 205625
▁din 205388
▁потому 205321
▁асыру 205319
ili 205298
аз 205108
▁ҫине 205105
▁За 205032
уш 205024
<0x5C> 205006
▁болған 204776
▁hayır 204599
ена 204586
▁dil 204425
▁kon 204396
етін 204392
быз 204347
▁tashkil 204184
▁Для 204157
▁Kutsal 203982
▁кеше 203844
▁работ 203822
ист 203557
arak 203530
ских 203509
ec 203375
▁sorun 203332
▁Мин 203326
ъ 202969
ания 202889
▁всего 202888
▁нәрсә 202842
ishi 202814
ati 202696
▁kes 202585
▁kadın 202438
лӑ 202413
енных 202412
▁итә 202379
▁Вот 202333
▁кол 202313
▁услуг 202278
стер 202075
▁bazı 202068
▁oluyor 201872
уд 201789
▁оп 201715
▁турган 201567
▁su 201537
▁asla 201531
▁kat 201520
▁управления 201452
ıp 201182
mam 201175
▁Son 201156
оз 200977
▁олардың 200688
abilir 200661
▁each 200526
▁өсөн 200455
▁hal 200084
▁kan 199987
▁жалпы 199900
af 199863
ər 199856
ene 199796
▁әрі 199657
▁against 199475
▁pay 199289
larından 199278
ыт 199217
▁geliyor 199071
▁hizmet 199032
▁ничего 199020
<0x99> 199008
▁Mukaddes 198971
▁мин 198965
▁Ey 198960
▁görmek 198927
▁yı 198780
▁Ad 198760
▁boy 198697
▁ask 198620
▁tr 198603
▁можно 198467
▁yerine 198457
▁wanted 198233
<0xD8> 198157
▁durum 198011
▁edir 197794
▁Иса 197502
▁Ayrıca 197333
▁ауданы 197212
▁Tüm 197191
▁show 197050
ız 196948
▁pek 196859
▁свою 196771
дыр 196510
ud 196476
гы 196074
▁problem 196062
▁-- 195919
ус 195693
▁ӑна 195549
ide 195112
ings 194957
▁башка 194550
<0xA0> 194293
▁её 194210
▁anlat 194158
▁nun 194057
Г 194012
нар 193920
▁тех 193899
▁üzerinde 193882
▁Get 193798
ally 193776
▁house 193672
һ 193603
▁отырып 193465
▁қосымша 193207
▁done 193071
yn 193025
▁özel 193012
▁Кудай 192920
▁іске 192918
unda 192815
▁ҡ 192807
ors 192748
tım 192652
▁hemen 192491
▁met 192463
imizi 192297
▁işi 192291
том 192213
▁келген 192187
ников 192186
▁together 192168
▁согласно 192134
arlar 192092
ali 192040
▁Гайсә 191978
▁bad 191899
▁İ 191709
▁маслихата 191653
ё 191634
▁граждан 191457
▁inan 191381
▁сп 191233
▁Про 191226
оп 191223
▁etm 191021
▁okay 190999
▁лица 190655
во 190635
▁Bayan 190617
▁млн 190551
ың 190271
рен 190163
▁системы 190017
▁san 190016
▁күп 189885
▁аудандық 189786
▁leave 189646
▁room 189580
▁қолданысқа 189470
▁sent 189283
▁Президента 189232
▁earth 189191
▁өткен 189178
▁сельского 189147
▁детей 189121
ья 189085
▁number 188942
▁yere 188911
▁olish 188826
▁кешеләр 188803
▁course 188800
▁yaşam 188784
ER 188729
▁isə 188506
men 188248
аның 188136
▁халықаралық 188099
ere 187558
▁кезінде 187424
ў 187362
▁haber 187063
▁anda 186947
▁сақтау 186768
mesi 186647
▁организаций 186561
▁eğer 186492
▁ҫав 186466
▁yalan 186445
▁idi 186429
▁Hiç 186401
▁Жахабанын 186390
би 186319
рах 186296
▁geçir 186200
▁Почему 186125
ebilir 186112
lerinin 186042
▁seç 186020
▁ой 186006
ений 185899
ise 185450
▁yalnız 185397
▁mısın 185238
▁ю 185192
▁father 185158
▁байланысты 185118
вать 185060
▁көр 185040
▁над 184988
ilm 184913
ül 184913
lim 184860
▁қ 184663
lay 184626
▁won 184566
▁insanların 184553
ilgan 184392
ум 184338
lib 184302
▁кызмат 184252
ј 184203
▁De 184185
▁went 184141
▁tak 184039
▁olun 183960
▁yaş 183938
▁farklı 183921
ался 183890
▁Yehovanın 183876
▁Look 183850
▁bulun 183837
▁ауыл 183737
maz 183673
▁says 183600
ыми 183381
▁qonun 183088
▁сегодня 183061
arı 183053
▁görüş 183039
dım 182985
▁istiyor 182973
▁ederim 182863
сты 182820
▁bin 182763
▁тенге 182746
ну 182631
▁жизнь 182612
тов 182535
▁without 182474
▁le 182430
иш 182346
▁ет 181967
▁olmalı 181772
▁иткән 181689
asining 181653
▁бұл 181646
▁вот 181638
▁gelen 181589
▁числе 181576
<0x24> 181444
тық 181397
уу 181388
ять 181283
ющих 181271
ne 181060
ical 181051
▁Бога 181043
▁dakika 181035
▁tur 181035
▁млрд 181022
▁took 180980
oq 180904
▁көз 180858
▁вара 180794
бай 180606
▁sal 180505
▁территории 180422
▁Жахаба 180253
▁someone 180238
lab 180110
ous 180097
нибудь 180017
ника 180014
▁тоже 179983
▁er 179800
кә 179702
▁своей 179694
▁called 179598
▁while 179434
сть 179317
▁кезде 179308
лу 179188
əm 179179
len 179090
▁guys 179061
▁булып 178967
тор 178935
Қ 178819
▁kontrol 178795
<0xAE> 178676
ill 178551
▁пулнӑ 178471
▁birkaç 178452
ыз 178399
ie 178233
▁иде 178101
▁государства 178037
▁One 177997
▁далее 177860
тері 177711
sız 177709
▁Where 177655
▁güven 177578
si 177523
тау 177497
▁связи 177484
▁май 177471
▁buna 177454
iyorum 177339
ық 177257
▁себе 177238
▁para 177191
иль 177171
oc 177133
▁информации 177104
tr 177098
▁kap 176949
▁ү 176927
▁Be 176879
ow 176878
▁nerede 176875
▁мың 176862
▁рамках 176850
▁miyim 176806
▁решения 176802
▁olması 176763
▁бал 176757
▁болуп 176711
жа 176585
ҙ 176554
▁табылады 176550
if 176503
▁ла 176492
▁xizmat 176459
ылған 176398
▁big 176318
▁etmək 176184
▁qil 176108
▁населения 176062
▁Bütün 175976
лык 175946
ег 175938
larining 175916
▁uning 175692
▁бөл 175565
▁Ұлттық 175274
▁хорошо 175241
▁Mar 175090
еш 174979
нине 174971
уч 174920
▁ruh 174898
▁both 174896
▁York 174876
esine 174870
ite 174840
▁сам 174758
▁жардам 174685
▁ئ 174664
▁Our 174616
▁yakın 174494
▁ин 174459
▁Nasıl 174207
▁hep 174207
▁басшысы 174054
еч 174030
▁fark 173924
▁Am 173905
▁vazirligi 173807
ады 173781
ального 173747
▁xo 173741
▁надо 173627
asına 173609
▁р 173566
ess 173559
ğin 173485
og 173350
ники 173283
их 173282
▁öğren 173259
▁течение 173233
▁kez 173180
daki 173175
▁wrong 173006
ью 172827
гө 172699
Ж 172633
ено 172529
ские 172492
лә 172420
▁set 172359
▁ничек 172328
siniz 172310
▁arkadaş 172301
▁либо 172219
▁безопасности 172105
▁тур 171954
<0x9E> 171895
▁gereken 171851
▁қорғау 171505
Ы 171457
▁işe 171441
▁else 171403
lığı 171212
▁ней 171026
▁счет 171004
▁yan 170977
oh 170777
▁savaş 170594
ind 170591
▁far 170446
▁болот 170411
▁yoksa 170160
рам 170124
Х 170121
▁бил 170070
▁olmaz 170044
▁dem 170019
▁next 169959
▁никогда 169927
▁dair 169856
end 169838
▁люди 169780
▁dead 169741
▁буйынса 169589
lem 169570
▁Lütfen 169560
▁Алар 169530
▁doesn 169495
ім 169431
▁ek 169315
▁oshirish 169012
▁вводится 168937
▁тан 168866
▁пока 168837
▁konusunda 168804
▁Президент 168789
▁program 168772
anda 168588
ens 168570
▁ба 168530
▁verir 168473
▁hand 168416
▁Biraz 168259
ies 168215
▁country 168209
иялық 168203
▁mother 168036
▁girl 168016
үү 168012
ıyorum 167992
▁Без 167961
▁Sanırım 167937
▁атап 167818
ness 167739
▁проведения 167691
sel 167607
ций 167586
гер 167558
ент 167550
▁оказания 167485
▁head 167463
▁Yap 167448
▁теперь 167390
▁пен 167373
art 167342
гу 167272
▁салық 167047
▁günü 167015
ions 166992
▁stop 166985
▁кан 166930
▁live 166803
▁qilib 166707
▁saw 166705
▁Бул 166673
ня 166669
ләре 166650
гән 166559
▁пайдалану 166423
idagi 166174
▁heart 166086
уге 166000
▁vur 165954
ше 165947
ishga 165884
▁ата 165879
▁kimse 165799
▁жөн 165739
▁бел 165436
▁кыл 165340
баев 165327
ств 165240
▁Br 165190
ling 164998
▁Ev 164981
▁hafta 164970
▁yerde 164828
yicha 164664
sınız 164648
▁hear 164621
▁gönder 164617
ək 164578
▁жоғары 164542
▁органа 164516
▁bağ 164464
maq 164318
▁der 164318
▁Artık 164219
▁etdi 164210
ках 164135
▁until 164078
▁hoş 163840
▁жет 163768
▁person 163763
▁qabul 163714
цию 163677
ep 163666
▁Казахстана 163655
▁em 163643
lerinde 163483
▁bundan 163382
▁Ýehowa 163343
▁shuningdek 163323
▁осуществляется 163211
▁emin 163070
▁тұрғын 162995
лю 162977
дік 162941
▁point 162795
▁Ancak 162779
eth 162724
стар 162721
▁John 162704
чу 162636
▁gerekiyor 162628
ive 162596
W 162498
▁сатып 162490
тарды 162443
▁date 162429
вал 162423
альной 162379
▁Кар 162318
▁iz 162209
▁ил 162064
▁сказать 162032
▁жакшы 161932
▁ј 161866
інен 161747
▁биз 161732
<0x9D> 161611
ıcı 161583
▁tane 161581
лік 161489
▁different 161369
ались 161368
▁already 161134
▁remember 161043
▁л 161011
ran 160860
лӗ 160829
▁davran 160775
▁Его 160664
▁öldür 160603
▁ro 160589
▁edip 160541
▁тел 160494
▁состав 160476
▁этим 160436
let 160408
▁business 160300
▁care 160065
▁Ю 159972
қосымша 159879
lü 159868
ari 159819
▁mind 159756
ян 159713
елер 159576
▁ун 159493
▁своих 159478
▁Buna 159475
▁per 159471
▁газ 159471
▁мемлекетт 159468
eb 159394
▁помощи 159353
▁Бог 159305
▁ресми 159304
uvchi 159272
▁Baş 159037
▁кылган 158998
▁heç 158982
▁enough 158916
▁sat 158855
▁bildir 158820
▁stay 158726
▁кур 158624
ней 158574
итель 158480
▁срок 158259
▁всегда 158243
▁belki 158213
▁Go 158200
▁декабря 158143
▁President 158142
inizi 158111
asini 158075
▁ещё 157994
▁Бер 157952
▁Павел 157770
▁water 157720
▁жылдың 157698
ились 157669
▁Под 157613
ыла 157538
▁few 157483
▁turn 157478
▁coming 157445
ех 157329
▁city 157183
сан 157162
ад 157150
▁zaten 157116
ци 156949
▁ý 156751
▁By 156714
▁friend 156711
din 156706
оль 156698
ence 156688
иб 156656
▁Ар 156654
▁İş 156627
▁район 156543
▁yat 156529
▁силу 156482
▁алган 156374
дарын 156366
▁times 156303
▁сөз 156303
▁Yol 156257
▁otur 156235
альных 156210
▁boyunca 156137
▁енгізіледі 156086
▁Aslında 156084
▁сделать 156032
ора 156024
аг 155987
▁би 155920
▁қажет 155860
хан 155846
▁sun 155817
▁ب 155808
▁Gerçekten 155300
▁акима 155269
▁lgan 155184
▁статьи 155146
▁school 155110
▁Премьер 154974
улар 154953
led 154946
▁important 154921
▁olsa 154906
▁rivojlantirish 154815
▁Башҡортостан 154800
▁kerak 154789
аларын 154769
оч 154653
▁eski 154643
▁belə 154628
▁truth 154559
▁ular 154547
нов 154529
ileri 154401
дел 154401
▁Бирок 154300
▁yourself 154266
çi 154240
▁From 154165
▁Ни 154102
▁Gel 154089
lərin 153950
▁место 153741
▁период 153724
▁erkek 153676
▁understand 153588
▁ularning 153406
нің 153379
alım 153328
▁пред 153315
▁değilim 153288
all 153221
▁gid 153221
▁üzere 153190
▁woman 153151
▁почему 153113
▁қаласы 153060
▁қатысты 153016
▁misiniz 152987
▁edi 152914
жи 152896
▁Mary 152827
ment 152822
▁Men 152794
лау 152665
▁ҫ 152589
one 152557
▁нинди 152512
▁almak 152505
▁Ay 152481
com 152477
асына 152370
Ш 152367
ание 152344
▁onunla 152308
▁fakat 152224
sen 152109
▁Yeni 152093
als 152031
▁tür 151978
erek 151935
лед 151924
▁zorunda 151799
<0xA5> 151722
▁одного 151711
▁части 151633
▁страны 151513
▁Bar 151475
▁esa 151417
▁hard 151362
ең 151293
▁продукции 151285
ons 151266
ük 151253
ile 151191
▁тә 151169
▁qilgan 151139
ими 151058
▁muvofiq 151001
▁банк 150950
▁жүргізу 150931
tık 150894
ыны 150871
▁кез 150844
▁должна 150811
▁kill 150791
▁шулай 150784
▁хозяйства 150783
iyi 150764
▁Bugün 150699
may 150693
mem 150692
▁времени 150661
▁Adam 150571
▁efendim 150469
▁көрсет 150458
▁сот 150432
▁dost 150429
уп 150351
үп 150309
ое 150307
edi 150243
▁götür 150241
ici 150216
▁Er 150136
▁ак 150054
▁hak 150022
▁бизнес 150014
tin 149967
<0x87> 149943
acağım 149896
ром 149867
же 149778
▁эпир 149685
▁всем 149674
▁means 149606
▁ail 149584
ӗр 149569
▁Кто 149454
▁дамыту 149422
▁заң 149415
▁Tr 149341
▁Аллаһ 149316
mez 149208
▁двух 149208
▁Мен 149188
▁job 149171
ci 149107
▁olib 149074
тарын 149054
AL 149050
▁көрсетілген 148992
▁unut 148933
▁ӗҫ 148919
▁yemek 148895
lərə 148869
▁Turkey 148848
▁ago 148813
▁була 148807
▁қатар 148784
▁bring 148769
▁yine 148563
▁Вӑл 148465
▁план 148448
lerde 148370
▁ab 148314
lerinden 148303
▁күні 148104
▁gitti 148090
мә 148022
▁kömək 147848
▁meeting 147811
ырга 147740
▁Yahova 147729
▁қар 147694
ает 147677
ça 147574
uc 147545
▁bugün 147491
ins 147483
бер 147462
▁harika 147461
▁sol 147443
▁suç 147438
▁whole 147383
▁көмек 147324
▁тысяч 147292
madan 147275
mas 147202
▁happened 147165
▁лучше 147116
tim 147038
аларды 147024
▁death 146748
ize 146610
▁gave 146555
ass 146541
larında 146477
ast 146470
ia 146465
дардың 146349
▁кам 146322
yny 146318
ği 146255
▁Из 146136
▁Başka 146121
meyi 145922
▁бюджета 145900
ственных 145873
▁olmuş 145841
▁yanlış 145814
▁сез 145691
▁тыс 145681
чен 145670
▁түгел 145662
▁olar 145658
▁bank 145653
▁жел 145621
▁ediyorum 145596
iyet 145565
нӗ 145536
▁жар 145512
▁Министров 145499
▁оны 145479
▁Hudaýyň 145462
▁ushbu 145451
▁Pr 145444
▁топ 145375
laş 145311
▁Paul 145195
ang 145152
ию 145118
▁ondan 144969
▁свои 144928
ностью 144899
▁енгізу 144737
ери 144674
Ә 144656
▁others 144640
▁Kar 144612
ates 144608
▁учреждения 144527
терді 144418
▁Аллах 144282
▁wife 144260
З 144228
▁саласындағы 144208
ağı 144201
▁beri 144136
▁бик 144089
▁hayat 144033
ug 144030
▁pr 143912
▁start 143910
<0x27> 143878
ilen 143831
ünün 143829
ıma 143778
ladi 143708
аттар 143633
▁among 143626
лап 143598
ligini 143517
▁true 143468
▁сфере 143468
▁Kitap 143418
ä 143378
▁Иеговы 143375
ір 143363
▁upon 143325
еді 143314
▁become 143281
асының 143220
▁film 143158
▁дело 143154
▁joy 143124
ular 143093
▁эпӗ 143074
тә 143054
▁аз 142965
▁аларга 142878
asiga 142810
▁Pavlus 142733
▁bakalım 142722
ە 142698
ӑм 142661
▁другие 142632
▁ей 142596
▁пирӗн 142483
▁bilm 142447
до 142416
▁белг 142258
▁человека 142211
▁gr 142176
▁слова 142170
▁ұйымдастыру 142152
▁looking 142130
▁саны 142002
ших 141953
▁Öyle 141915
▁этих 141905
▁hala 141854
ест 141839
langan 141820
▁кирәк 141801
▁первого 141769
енные 141767
▁ум 141760
yil 141669
▁бұдан 141639
▁service 141499
▁Турӑ 141492
▁теңге 141487
▁Öz 141362
▁shu 141361
▁ач 141321
iq 141312
lerle 141297
▁dostum 141288
▁думаю 141274
AN 141244
▁getting 141177
alarni 141133
ющие 141099
dum 141054
▁знаешь 141053
▁юл 140972
хи 140904
▁техникалық 140885
дагы 140880
▁Й 140846
▁te 140838
▁делать 140789
iv 140764
▁Ab 140748
▁İki 140532
of 140485
▁çal 140478
▁ancak 140359
цы 140354
▁sık 140354
dun 140318
ğim 140298
aş 140246
▁ist 140156
▁kendini 140129
▁Ол 140116
▁такой 140111
дем 139979
▁birçok 139924
sak 139912
▁üzerine 139892
▁закон 139885
alarini 139867
▁area 139840
▁ит 139840
çe 139744
lərini 139732
ting 139731
▁арасында 139716
▁bilir 139710
▁Ан 139674
abil 139673
eh 139595
▁ega 139505
бу 139475
▁кон 139436
әс 139303
malar 139299
▁since 139298
▁birini 139285
▁регистрации 139172
▁таб 139124
▁order 139117
▁менее 138990
ance 138956
▁state 138942
uv 138900
▁программ 138879
▁уәкілетті 138874
▁eş 138850
to 138833
▁system 138785
▁evet 138724
▁million 138702
▁lim 138668
▁haqida 138617
▁ярдәм 138614
▁try 138574
нее 138541
ве 138537
әй 138529
▁olmayan 138508
▁berish 138496
▁мал 138434
eceğim 138433
илась 138429
▁Wi 138406
ование 138404
ысы 138377
▁knew 138296
<0x9C> 138290
▁information 138265
▁воз 138186
▁fikir 138122
▁Maybe 138080
рат 138076
▁мер 138026
лин 137909
сов 137907
▁case 137822
▁gelir 137788
▁alan 137741
▁sorry 137638
тыр 137613
▁вопросам 137603
▁программы 137598
▁жылға 137596
▁değiştir 137536
▁дом 137520
▁хезмәт 137454
▁sub 137414
▁өзге 137394
▁вместе 137331
▁seen 137311
▁trying 137247
▁Ak 137245
тердің 137186
▁İlk 137139
▁Büyük 137053
▁экономикалық 136994
▁заңды 136939
▁After 136877
ҙе 136771
ala 136748
▁altında 136665
▁право 136546
▁профессион 136525
▁Genel 136404
▁уй 136280
▁ağ 136255
▁power 136250
▁war 136243
▁Good 136186
▁kır 136168
▁обеспечения 136099
▁вӗсем 136053
мат 136050
▁second 136011
undan 135989
▁given 135956
ısı 135915
▁ра 135910
▁можем 135879
▁res 135856
ск 135765
yna 135713
▁хӑйӗн 135524
▁br 135482
▁ведь 135470
▁istiyorsun 135327
она 135325
ade 135315
▁zarar 135284
үл 135256
▁кай 135237
▁чего 135221
▁Может 135219
▁жаз 135193
▁Davlat 135167
▁II 135083
▁bosh 135060
▁kut 135020
▁high 134992
іс 134933
ver 134854
▁жергілікті 134825
ty 134777
iladi 134741
na 134705
▁тобой 134605
▁isn 134602
ству 134553
ши 134549
▁Эй 134483
▁bilər 134428
▁ос 134386
▁шаруашылығы 134377
ало 134368
▁комиссии 134203
▁стран 134171
▁rest 134147
adigan 134064
ләргә 133914
дык 133886
▁holda 133832
ner 133778
▁im 133747
▁bilgi 133550
siy 133529
ayotgan 133524
▁комиссия 133475
▁Үкіметінің 133473
uyor 133445
ләрен 133443
ong 133439
лаш 133415
▁өтті 133414
▁уб 133371
ıyorsun 133322
iyat 133308
elim 133304
▁буду 133286
▁пулсан 133270
▁систем 133177
▁ор 133174
▁mal 133171
▁редакции 133169
▁Böyle 133158
IN 133081
▁культуры 132978
▁ortaya 132963
▁ас 132960
кин 132888
▁vaxt 132793
▁Allaha 132767
ками 132740
ҫҫӗ 132657
▁nor 132657
▁см 132484
aning 132475
▁отыр 132454
▁heard 132441
▁musunuz 132431
▁yolu 132367
▁Sam 132353
▁kork 132293
ayım 132283
▁Дж 132251
▁least 132168
▁actually 132135
кер 132111
▁данных 132014
ph 132011
▁жан 132008
▁play 132004
▁чухне 132002
▁жөнүндө 131958
ела 131955
▁ön 131945
атель 131913
▁қал 131895
▁women 131857
айте 131845
▁sak 131841
▁friends 131821
▁Tam 131797
adı 131694
тардың 131684
▁Mesih 131603
Ф 131600
▁басқару 131548
▁говорит 131501
imin 131436
▁dis 131384
masına 131364
▁стар 131350
manın 131341
▁республикалық 131329
▁Алла 131272
▁herkes 131238
▁аш 131231
cı 131210
▁ҫын 131155
▁талап 131144
▁мог 131116
▁öl 131017
▁belgilangan 131005
▁спорт 130900
▁Tanrım 130898
▁dua 130887
▁brother 130872
▁beraber 130855
eyim 130779
▁Republic 130775
ou 130760
sun 130708
▁потом 130705
▁производ 130698
▁başladı 130696
▁change 130688
▁child 130679
дү 130643
its 130614
альный 130593
▁работу 130591
age 130422
▁нем 130348
ğ 130304
ёт 130218
▁районного 130201
үр 130188
▁şunu 130168
лении 130146
▁проект 130128
▁Par 130081
▁kardeş 130080
▁genç 130075
▁young 130064
▁ди 130053
luk 129950
▁nice 129878
енного 129875
▁uygun 129871
AR 129861
▁Ис 129813
▁hangi 129806
asında 129779
алды 129772
▁объектов 129742
Fi 129710
▁dünya 129704
▁saying 129700
ğini 129644
▁yordam 129640
▁ки 129545
▁bağlı 129499
▁мүмкін 129492
▁idea 129443
▁eve 129404
▁ten 129285
üne 129283
ust 129254
ӗсем 129182
▁есеп 129172
▁мной 129166
лген 129165
кон 129164
▁Мар 129132
▁постановлением 129117
▁негізгі 129017
▁юстиции 128921
▁друг 128837
▁yaptı 128808
▁рас 128808
▁Gr 128797
▁кор 128783
duk 128746
min 128735
▁face 128734
▁финансов 128695
▁вод 128661
▁учреждение 128644
masını 128621
alan 128596
▁silah 128512
acağız 128485
қан 128450
▁бай 128411
modda 128289
▁екі 128201
▁дигән 128119
▁толық 128112
▁нашей 128110
▁жасау 128080
▁güç 128069
▁қаржы 128047
▁dikkat 128015
▁näme 127947
▁своего 127942
▁экономики 127926
▁working 127902
▁алабыз 127882
▁уч 127875
▁деді 127854
▁тиеш 127785
дал 127780
оро 127762
▁ақпарат 127715
umu 127710
ori 127702
атор 127653
ğiniz 127639
▁oyn 127629
▁daki 127621
▁yanında 127610
▁biliyorsun 127489
▁решение 127437
iyorsun 127409
leme 127390
larida 127378
▁anlam 127288
▁risidagi 127241
▁bat 127178
▁деле 127074
iyoruz 127065
ilerin 127021
▁Pekala 126972
chi 126971
▁тогда 126966
<0x40> 126956
дам 126874
овой 126847
ических 126829
zi 126825
ог 126821
▁na 126765
▁Th 126759
▁сын 126725
▁медициналық 126719
▁контроля 126697
▁open 126678
ендә 126634
▁günah 126611
ılmış 126601
▁hansı 126598
▁edən 126581
ince 126533
▁основе 126507
▁halde 126505
▁Ак 126458
▁yi 126434
▁оқу 126432
▁temiz 126388
▁zamanda 126256
▁Har 126253
▁ölüm 126251
amaz 126210
тап 126163
▁test 126148
▁Man 126054
▁дела 126053
▁город 126012
▁ауданының 125933
▁Ýehowanyň 125926
ics 125899
▁değildir 125897
▁производства 125884
▁wait 125819
▁xalq 125818
▁development 125812
▁read 125808
▁beş 125745
▁maybe 125745
ылды 125538
ely 125463
ete 125448
eme 125404
ful 125393
чы 125332
ӗҫ 125292
▁дома 125275
ram 125274
▁органы 125270
ік 125249
▁балалар 125224
▁қабылдау 125222
▁белгіленген 125204
▁tarihi 125149
ушы 125110
▁alın 125106
▁falan 125103
кий 125093
тын 125068
▁пур 125038
tik 125032
▁etme 125021
▁Tek 125020
ost 125019
esinde 124975
ağa 124966
рас 124909
цией 124887
▁free 124851
▁ким 124808
▁ең 124761
▁сай 124749
▁Çocuk 124679
dın 124678
ery 124614
▁олар 124600
▁killed 124446
ларды 124337
▁участие 124337
▁nedir 124274
▁Vazirlar 124261
▁әр 124261
▁акимата 124249
ании 124035
стве 123978
▁Car 123933
▁действия 123909
▁три 123871
dü 123809
▁Өз 123773
emi 123761
Z 123705
▁once 123669
▁kol 123666
▁ауылдық 123629
▁yüksek 123626
▁келісім 123520
▁mas 123490
ца 123469
irdi 123422
▁talking 123394
larım 123390
▁целях 123363
▁yardımcı 123323
вается 123281
▁которая 123204
дов 123201
▁min 123170
▁Christ 123159
▁годы 123133
▁безгә 123124
▁кого 123053
▁ради 122946
▁имени 122854
ское 122834
▁having 122830
▁neler 122777
гыз 122682
індегі 122670
▁Merhaba 122658
▁против 122628
▁ex 122598
▁organ 122574
▁minutes 122508
▁bunlar 122492
▁uzak 122462
▁Türkiye 122425
▁мынадай 122370
▁Have 122364
▁Size 122353
ES 122347
▁sc 122333
▁Of 122283
uş 122281
amı 122279
▁art 122222
бек 122194
▁çocuklar 122174
dık 122147
▁Iso 122077
▁Kız 122077
ык 121904
▁cevap 121880
▁form 121812
ılan 121791
▁ка 121766
ində 121691
мер 121681
▁within 121668
ism 121581
▁работа 121579
▁бо 121572
▁mutlu 121552
▁word 121549
әл 121517
▁установленном 121415
емых 121363
▁пов 121354
▁kitap 121345
▁değildi 121286
<0xBB> 121211
▁шарт 121205
▁күрә 121199
▁human 121122
▁мекемесі 120992
альные 120973
▁söylüyor 120973
▁land 120970
liği 120926
▁um 120921
ини 120858
▁hell 120854
ber 120843
▁emas 120802
▁mən 120794
ндег 120755
▁зап 120688
▁қарсы 120669
▁yaxşı 120612
▁сол 120584
▁уп 120517
▁Ай 120508
▁кө 120498
▁Peter 120494
▁Please 120454
▁wants 120420
▁David 120393
▁тол 120377
▁Əgər 120370
▁ага 120356
▁hope 120351
▁мол 120325
рак 120290
ож 120207
▁орта 120179
▁оларды 120146
▁etmiş 120057
ющий 120047
▁лишь 120009
▁кул 119971
▁Musa 119962
▁һәр 119936
▁ulaş 119935
tın 119891
der 119880
▁Ö 119858
▁knows 119852
▁эту 119852
▁тер 119829
ef 119816
cha 119671
аса 119639
▁арнайы 119620
▁benimle 119574
▁әкімінің 119547
per 119454
▁fr 119445
ى 119432
▁anyone 119311
▁ұлттық 119282
sə 119269
▁Ку 119228
▁tap 119210
▁risida 119172
▁meet 119160
▁example 119140
əy 119088
▁hayal 119078
▁öğret 119034
▁два 118929
тал 118928
▁редакцияда 118928
▁gelecek 118909
dür 118866
▁мест 118862
▁жай 118841
▁проектов 118832
кие 118698
▁берет 118675
▁хотел 118653
▁taş 118511
▁diyor 118461
əsi 118427
▁göstər 118413
▁yak 118375
▁axborot 118324
▁yapıyor 118293
ҙы 118167
▁болай 118165
▁Say 118161
▁адамдар 118126
▁doğ 118101
▁постановления 118101
ğine 118098
▁ман 118097
▁болуы 118073
▁алдында 118055
▁during 117998
ر 117901
▁округа 117893
▁тиісті 117877
land 117866
▁hat 117821
ому 117814
▁предприниматель 117780
ук 117775
▁способ 117683
▁akşam 117668
▁başına 117601
▁control 117593
▁past 117591
aman 117542
▁даму 117525
▁рұқсат 117517
ack 117475
▁барысында 117459
▁uh 117441
▁жок 117422
▁hareket 117381
AT 117352
▁full 117348
кам 117335
▁şeýle 117333
asyon 117316
ишь 117279
▁эч 117269
▁бөлімі 117239
▁aş 117226
▁ҫул 117214
▁yüzünden 117159
▁güçlü 117154
▁имя 117142
▁Onların 117124
▁wasn 117120
▁рух 117100
lashtirish 117096
▁üst 117084
aly 117079
▁ро 117073
▁news 117044
▁Sp 116985
▁сен 116959
▁body 116923
▁fucking 116907
вер 116899
▁хочешь 116875
isini 116874
ğinde 116858
▁свой 116779
▁ер 116778
▁bas 116670
ӗнче 116669
▁вз 116658
▁kaf 116645
▁olduğuna 116634
▁Güzel 116625
▁товаров 116603
tar 116595
ші 116568
▁өзгерістер 116562
▁dir 116555
▁indir 116534
▁Bundan 116499
▁должно 116468
▁olursa 116466
ятся 116446
▁минут 116429
овать 116387
ton 116318
▁номер 116292
ического 116256
▁Tabii 116256
▁сар 116221
▁oyun 116184
ера 116173
▁kazan 116171
▁көн 116160
indeki 116148
рос 116129
▁gətir 116091
▁кийин 116060
▁San 116018
rib 115929
▁tanım 115922
▁TV 115898
▁арасындағы 115888
▁пос 115850
EN 115798
▁ettim 115785
ило 115754
▁matter 115753
▁унӑн 115742
▁alone 115645
▁Ө 115633
▁boş 115569
elik 115481
ars 115477
дей 115464
lish 115454
rin 115448
etler 115427
amiz 115302
▁труда 115269
▁later 115267
▁morning 115182
▁өс 115170
▁av 115118
ure 115100
ылып 115094
ush 115049
▁түрде 114992
▁пул 114954
іл 114935
▁görünüyor 114887
▁вопросы 114690
▁rahat 114652
lıq 114565
▁болса 114527
асында 114447
▁adı 114415
▁making 114410
▁алдын 114393
▁move 114378
▁остав 114376
▁able 114342
▁normal 114332
▁asked 114326
өр 114314
▁gördüm 114304
▁ok 114293
ись 114244
▁маман 114231
▁еңбек 114230
▁яхшы 114212
▁Even 114210
▁though 114109
▁здравоохранения 114108
əl 114087
▁ni 114030
▁makes 113994
▁января 113989
▁çevir 113972
ör 113933
зу 113929
▁bag 113921
▁ис 113919
▁görev 113864
▁км 113850
▁официального 113846
<0x81> 113843
▁мөмкин 113839
▁bog 113831
ственной 113824
▁облыстық 113771
ета 113768
▁ac 113746
▁fine 113704
▁age 113701
▁ateş 113673
гов 113644
sal 113641
▁dey 113604
▁kolay 113535
J 113521
▁бес 113516
asının 113504
семпе 113497
▁ass 113453
▁week 113394
▁herhangi 113368
▁Ин 113348
▁Қазақстанның 113334
▁өзара 113324
лам 113321
▁Him 113310
▁insanları 113300
▁baby 113297
▁тіркеу 113282
▁Bence 113275
▁қызметі 113229
▁Orada 113223
▁kaldır 113209
▁пире 113206
лардың 113150
ax 113149
ach 113115
ственного 113096
▁sabah 113036
вает 113024
▁With 113002
ory 112974
▁Onları 112956
kin 112943
▁рабочих 112937
дегі 112915
▁nefret 112910
met 112908
eceğini 112880
▁шешім 112872
▁public 112796
▁fact 112775
▁тарту 112735
int 112690
▁ру 112653
▁run 112638
▁check 112594
▁Назарбаев 112591
▁talab 112559
▁gəl 112529
ателей 112508
▁Online 112435
▁мақсатында 112427
овых 112386
▁aslında 112375
▁mablag 112374
▁түр 112370
▁айткан 112354
▁тор 112353
▁ходе 112290
▁Егер 112282
▁Astana 112239
нет 112211
▁olmadığını 112073
▁mis 112071
ің 112012
ень 112009
our 112005
X 111975
▁inter 111846
sam 111833
▁алған 111813
▁çağır 111810
▁шул 111771
▁га 111762
▁мемлекет 111601
▁insanlara 111599
ice 111575
рав 111545
▁hisob 111534
üs 111516
там 111402
циялық 111368
▁пункт 111345
▁bitir 111304
▁изменений 111287
▁мүмкүн 111275
ования 111232
▁опубликования 111189
гал 111156
ительных 111153
дө 111112
▁barcha 111060
уын 111029
▁Bel 111023
▁өт 111009
▁го 110994
sanız 110964
▁Аллаха 110893
▁которого 110864
lat 110811
ator 110809
▁ses 110795
▁light 110698
▁seninle 110689
ющего 110667
▁Başlangıç 110656
▁хӑй 110596
▁bur 110579
▁орынбасары 110568
izi 110553
lyk 110552
▁qaror 110533
▁Herkes 110525
▁konuda 110518
үүгө 110515
▁kel 110462
▁ө 110426
ort 110403
deki 110385
▁республики 110362
▁син 110330
▁ýaly 110319
ева 110293
▁words 110200
раз 110103
▁средства 110089
ts 110055
▁االل 109983
сп 109970
бе 109960
▁myself 109923
▁Yine 109888
▁General 109774
ль 109757
лов 109756
▁book 109724
▁comp 109715
▁пер 109682
▁десяти 109656
▁eyes 109574
▁мәслихатының 109543
ilishi 109525
▁отправ 109522
▁ма 109501
▁бірінші 109472
▁форме 109460
▁Отдел 109446
▁lost 109405
рай 109400
▁acı 109394
sem 109381
▁үҙ 109378
▁электр 109340
▁деятельность 109336
▁құжаттар 109231
▁edecek 109208
ingiz 109180
ви 109130
▁görün 109083
ane 109039
▁bizə 109037
lərinə 109018
▁region 108954
▁Dur 108929
▁сер 108896
▁көзделген 108839
▁комитет 108800
▁faith 108764
ылы 108758
▁кү 108757
▁azından 108684
▁иң 108674
ической 108630
▁telefon 108630
▁ik 108626
ууга 108624
▁These 108624
iden 108622
▁Will 108567
▁рет 108553
▁değer 108552
▁Az 108526
сә 108502
▁şeyin 108497
▁службы 108484
▁ҫак 108484
ırlar 108464
▁Show 108453
▁milyon 108449
▁такое 108449
rat 108438
<0x98> 108436
▁anne 108433
atı 108396
ıyorlar 108381
▁асырылады 108381
▁ле 108334
▁поступ 108309
ığın 108304
▁hâlâ 108273
▁құру 108259
▁orqali 108235
чак 108231
рӗ 108205
ура 108202
▁gidiyor 108167
▁мир 108106
еле 108087
▁sar 108083
▁Me 108033
iyordu 108027
ким 107997
ığı 107996
pr 107992
ях 107992
▁проекта 107954
ıyla 107947
▁qədər 107942
ağ 107876
▁которой 107874
▁die 107838
▁dört 107797
▁xidmət 107791
▁food 107730
▁жас 107730
▁құқықтық 107725
▁республикан 107714
▁қаулысымен 107679
▁пайда 107676
lamak 107607
▁имеет 107596
▁кун 107595
▁христиан 107570
▁destek 107544
ирования 107517
▁Day 107503
▁сауда 107498
ink 107461
tu 107424
▁пре 107408
qu 107351
▁ul 107338
less 107325
▁dedim 107311
▁генә 107304
▁мира 107296
▁koş 107281
▁tegishli 107267
▁fear 107257
▁wanna 107221
▁тек 107204
▁можешь 107185
eceğiz 107139
▁inc 107112
▁happy 107071
ünde 107028
▁sit 107014
ğimiz 107002
▁sonunda 106964
▁Em 106963
ger 106962
▁Хорошо 106914
▁list 106894
▁актив 106866
ще 106857
ама 106832
▁sin 106803
▁Ҫ 106796
ких 106767
ladı 106646
▁se 106610
▁әкімдігінің 106598
▁сюда 106593
▁hotel 106584
ishni 106557
ҙар 106550
▁zamanı 106529
▁support 106498
▁brought 106492
▁права 106423
▁Oliy 106419
еб 106395
▁böyük 106331
ларга 106318
▁period 106256
â 106238
▁своим 106223
▁aldı 106222
▁yoktur 106216
▁od 106187
▁кер 106166
▁yeniden 106161
▁вопрос 106086
ire 106085
▁reason 106057
▁мероприятий 106043
▁Muqaddas 106023
ынды 106016
▁Kur 106014
▁развитию 106005
▁хәбәр 106003
▁социальной 105959
▁пор 105874
▁бекіту 105873
▁Анчах 105869
▁сказала 105853
▁pis 105851
▁Here 105763
▁Bizim 105689
▁ones 105666
▁өтініш 105654
▁line 105647
▁ishlar 105638
▁орталық 105630
▁started 105629
шен 105627
▁olay 105625
кого 105590
ew 105589
▁Мемлекет 105542
▁назад 105542
<0x8C> 105530
▁Uh 105523
▁takip 105523
▁экенин 105458
▁Otel 105437
▁del 105432
▁ready 105395
▁Park 105389
▁знать 105373
▁rooms 105364
ika 105307
▁органом 105290
medi 105284
▁моя 105264
əyə 105225
уб 105197
▁tamamen 105193
▁чер 105144
лыҡ 105134
ӳ 105062
үнө 105049
▁ularni 105048
▁tar 105031
лав 104948
ош 104936
терін 104917
▁телефон 104902
ıyordu 104896
▁ответ 104880
ционных 104851
▁adamlar 104826
▁изменения 104800
▁другой 104782
iydi 104761
▁chiqarish 104759
any 104735
▁comes 104673
атты 104672
▁hours 104670
инде 104637
▁Toshkent 104608
▁dolu 104574
▁durumda 104539
▁Тогда 104515
ual 104428
▁taking 104419
▁clear 104414
▁tanış 104325
▁жүрг 104299
▁суд 104286
▁тормыш 104274
iyorlar 104219
▁аңа 104191
▁five 104189
▁etmeye 104155
ona 104086
▁жоқ 104085
шӗн 104075
ателя 104070
ick 104068
емся 104028
▁ait 104024
▁four 104017
▁ele 103999
▁Государствен 103986
magan 103975
▁hepsi 103951
▁Şeytan 103947
▁Odalar 103937
ергә 103911
▁есепке 103883
ӗпе 103876
▁бек 103876
▁ihtiyacım 103854
imize 103851
▁fight 103850
▁blood 103800
▁yangi 103767
▁yig 103724
▁Бас 103724
▁Dünya 103719
▁geçen 103708
▁parents 103695
▁несколько 103666
▁shunday 103662
▁решению 103661
▁Отан 103648
▁Bil 103644
▁held 103636
▁ك 103624
▁выс 103588
ret 103462
▁soon 103425
ل 103418
▁walk 103357
▁kir 103328
els 103293
ýär 103182
▁тап 103163
ırdı 103146
▁Во 103134
ря 103103
леген 103067
▁sanırım 103059
терге 103024
▁қажетті 102945
▁Isa 102921
▁жағдай 102897
▁varsa 102874
▁special 102840
▁зат 102830
▁Jack 102807
▁deal 102764
үм 102752
дарының 102749
▁question 102703
енең 102701
▁безнең 102694
шие 102693
ским 102686
▁sır 102677
▁Hiçbir 102665
▁close 102644
▁сайын 102630
▁алғашқы 102576
▁каршы 102574
▁пункта 102566
▁орын 102491
дәр 102470
نىڭ 102466
▁pretty 102462
▁dünyada 102453
▁өткізу 102442
ümü 102388
ием 102348
алардың 102279
ýar 102277
▁работников 102207
▁аң 102175
▁hiss 102148
▁cause 102140
инг 102134
▁Закона 102091
уда 102068
ита 101996
арт 101950
▁қаласының 101940
▁проблем 101912
▁Buraya 101794
▁bab 101760
▁административ 101740
oli 101714
▁тал 101703
ыв 101670
▁работе 101627
▁Enter 101614
▁qal 101613
лат 101580
alarını 101578
▁ي 101571
mayın 101558
▁календарных 101518
▁çıktı 101504
amam 101496
▁ana 101479
lük 101478
▁benden 101467
▁тума 101465
▁giy 101430
▁pre 101429
ale 101418
ҡа 101407
▁soy 101386
▁dek 101382
ron 101338
ələr 101337
ets 101307
▁vermek 101292
▁onlardan 101281
▁салу 101274
▁принцип 101273
▁қала 101186
aga 101141
mesini 101129
ەت 101067
▁Ц 101054
▁Yer 101017
кән 101007
▁May 100956
▁uni 100949
▁edil 100942
▁сак 100931
▁şeyleri 100909
▁side 100905
▁çöz 100869
mon 100823
Э 100817
▁Alloh 100795
▁Book 100777
▁Ed 100767
▁кет 100763
aj 100753
ren 100747
▁polis 100746
ний 100711
▁моей 100697
ҙың 100661
өн 100659
▁taraf 100650
▁Agar 100635
OR 100615
▁жаткан 100605
▁Бир 100570
▁kun 100526
▁какой 100524
▁qilingan 100500
▁каланӑ 100470
▁карап 100470
▁алады 100456
вая 100445
▁Статья 100408
лӑх 100390
▁Bunlar 100390
▁соглас 100356
▁deyil 100333
▁xalqaro 100309
ore 100283
із 100283
ova 100276
▁nima 100213
▁.... 100179
usu 100172
ЕР 100140
▁whom 100091
▁dol 100077
▁кат 100017
▁нач 100015
юсь 100006
ӗсене 99998
тах 99951
сто 99911
▁chiqish 99867
ilmiş 99864
ему 99863
ımızı 99832
▁Ұ 99826
▁Onlara 99801
уль 99797
▁qayta 99786
▁Git 99762
ue 99731
нем 99677
▁es 99674
<0x22> 99672
ину 99661
кар 99653
ющей 99652
▁атқарушы 99638
▁сделал 99553
▁bakış 99482
mat 99436
▁Bize 99405
▁speak 99393
▁внутренних 99368
▁ир 99327
ET 99316
▁защиты 99287
▁тому 99276
▁Ma 99270
▁Теперь 99254
ционной 99199
▁виде 99193
ilik 99187
иров 99105
енный 99005
lak 98988
акан 98973
лением 98959
indən 98951
yp 98860
eki 98822
▁Аппарат 98812
рет 98793
▁kid 98791
▁çək 98791
▁помощь 98785
▁часов 98748
▁şeye 98744
▁University 98703
▁diy 98702
▁иман 98700
meden 98696
ҙа 98679
▁hands 98654
▁уҡ 98647
▁Просто 98608
unuz 98598
Q 98590
уз 98575
imizin 98561
mək 98553
▁himself 98543
▁spirit 98539
кая 98528
▁болсо 98498
▁hadi 98481
▁yeri 98478
▁fikr 98432
▁istem 98420
ысын 98355
▁law 98332
▁эл 98329
▁Us 98321
▁кантип 98314
▁дан 98294
▁утверждении 98294
▁необходимо 98293
▁истечении 98284
▁door 98241
▁аппараты 98229
▁bed 98182
▁guess 98172
▁шеш 98154
▁То 98146
▁внесении 98094
▁belir 98090
дөн 98085
лас 98082
ich 98058
▁qur 98046
▁ғ 98011
ние 98010
▁company 98005
▁countries 97978
دىن 97950
▁ort 97950
ady 97949
duğu 97842
ıyoruz 97838
▁rec 97830
acaq 97826
▁needs 97821
▁күнтізбелік 97798
▁ап 97797
▁готов 97722
▁береді 97698
▁thinking 97665
▁gotta 97657
▁kaçır 97622
▁Kitab 97618
▁алынған 97606
day 97592
▁kapat 97568
▁ут 97472
▁вид 97470
تى 97460
▁күнінен 97460
▁пулса 97454
inize 97443
▁hold 97439
▁dışında 97405
ON 97374
▁phone 97309
▁құқық 97294
▁сом 97287
▁About 97277
▁көрсетіледі 97270
ред 97267
▁Haydi 97256
▁Göz 97206
▁Ыйса 97159
ynda 97152
илось 97132
▁ayrıl 97112
▁твой 97024
гез 97020
▁eat 96943
▁buz 96924
▁bilmiyorum 96914
▁ayır 96837
cu 96833
lary 96833
▁Like 96791
ted 96783
▁istedi 96776
▁жал 96765
▁gone 96761
▁United 96755
▁кезең 96717
▁Бар 96687
▁oldukça 96684
▁months 96663
▁акт 96662
▁doktor 96660
тәр 96637
▁gidip 96620
mesine 96613
ене 96605
▁dışarı 96591
ai 96585
osh 96576
▁hızlı 96526
▁başqa 96524
▁путем 96510
kz 96464
▁dünyanın 96456
▁Respublik 96452
▁Комитета 96421
▁Mon 96361
▁zarur 96332
gy 96286
▁кылып 96264
▁Шулай 96249
▁living 96234
▁Ver 96230
▁gelip 96227
▁düzen 96168
▁bulunan 96144
нәр 96093
▁inf 96071
▁хатын 96070
▁желтоқсандағы 96055
▁калган 96026
lerim 95966
yr 95949
▁таш 95944
дет 95937
▁sok 95881
тарға 95880
ock 95873
▁tez 95865
▁қор 95863
той 95856
▁құжаттарды 95838
las 95815
lidir 95815
ıya 95804
▁предприятий 95733
▁soru 95722
yon 95713
уі 95709
▁анчах 95692
▁ağır 95687
▁Ко 95668
▁yaptım 95649
▁одно 95643
▁Doktor 95585
▁бири 95583
ark 95572
▁уровня 95496
ğimi 95464
ыу 95452
І 95428
▁ғана 95416
▁İst 95401
рал 95372
asida 95368
▁әскери 95358
ганда 95333
▁üstün 95331
өт 95320
▁small 95269
▁облысының 95267
▁trust 95249
▁эта 95248
▁değiş 95227
▁Потому 95225
ette 95218
▁Кудайга 95213
▁министрлігі 95112
▁danış 95088
▁örnek 95088
▁mümkün 95082
▁Some 95077
▁həyat 95052
ayan 95044
▁yük 95021
енной 94957
▁ت 94950
ıldı 94942
▁everyone 94937
lanan 94918
ғын 94908
▁First 94883
▁меры 94846
▁режим 94819
▁қолдау 94818
▁цен 94763
bir 94744
▁dolar 94732
ged 94728
▁икәнен 94718
▁көшесі 94686
▁girin 94672
▁стро 94656
▁Кор 94644
еж 94586
▁ними 94505
▁істер 94471
ا 94453
ымды 94433
▁одной 94428
▁норм 94422
нуть 94418
oni 94395
▁каждый 94390
▁English 94379
▁Эпӗ 94355
▁получения 94331
дүн 94302
▁Minister 94297
▁Christian 94270
ода 94256
▁снова 94251
▁barada 94229
ческих 94171
▁буенча 94162
▁қоса 94153
mamız 94121
▁Адам 94101
▁muhim 94100
▁dad 94089
tur 94084
▁edə 94084
▁наз 94084
▁күннен 94061
▁park 94052
▁ders 94041
▁ақпараттық 94033
▁According 94026
▁Нам 94015
mağa 93985
▁rağmen 93967
yl 93966
▁degan 93962
▁немного 93962
Казахстанской 93954
▁kurtar 93937
üyor 93929
▁uz 93926
эн 93923
▁istemiyorum 93914
▁төлем 93847
▁istediğim 93828
өк 93816
▁ter 93739
▁Ý 93715
▁Әділет 93707
▁listen 93678
▁cannot 93661
▁future 93647
▁bakın 93644
▁address 93601
рин 93525
▁пекех 93520
АН 93513
▁основании 93498
▁После 93496
▁образ 93457
ata 93448
▁ҫӗр 93446
uq 93444
▁adamı 93393
алан 93361
▁Ладно 93345
lardı 93287
▁шухӑш 93235
gin 93224
▁ortak 93192
▁күш 93177
▁dev 93162
▁Министра 93140
ические 93137
▁негіз 93117
▁бет 93115
▁түс 93112
▁Әмма 93084
▁форм 93066
▁Xudoning 93052
▁sizə 93052
▁ск 93044
▁tonight 93036
▁тең 93029
него 93017
▁помочь 93008
өл 92996
ительно 92986
▁Sal 92977
▁которое 92973
▁Does 92971
елен 92945
▁baba 92933
▁чын 92932
жен 92902
нән 92865
▁party 92838
▁buy 92825
▁Нұр 92822
▁buradan 92789
▁суда 92787
AS 92765
▁Пер 92752
▁themselves 92751
лад 92731
▁taken 92669
▁орындау 92653
▁Children 92652
▁story 92652
▁teşekkür 92635
ух 92596
▁çıx 92552
ت 92520
▁авто 92488
▁нег 92485
lo 92410
▁yoktu 92363
▁эт 92361
▁пере 92341
▁Рәсәй 92339
meli 92329
▁li 92312
▁alır 92279
lad 92272
▁являются 92270
▁панӑ 92269
лись 92268
▁uç 92227
▁Söz 92208
ним 92178
▁знает 92162
▁OK 92122
▁интерес 92119
▁price 92088
▁seviyorum 92088
▁foydalanish 92087
▁shit 92085
чик 92059
▁миллион 92053
esin 92049
▁sistem 92046
ату 92044
▁хат 92034
▁harc 91994
▁қалалық 91994
▁İn 91986
ýän 91976
▁одан 91929
▁новых 91926
▁eng 91897
▁Yahovaning 91884
ele 91883
рем 91865
Ч 91864
▁ком 91863
▁watch 91844
ником 91825
малла 91814
▁Республике 91801
ath 91795
▁Gerçek 91785
▁Қаржы 91728
▁такие 91720
▁gerektiğini 91709
▁along 91698
▁Поэтому 91697
▁трех 91681
▁использования 91678
▁итү 91673
▁бой 91664
▁taqdim 91655
▁Sizi 91601
▁кебек 91591
▁İç 91560
▁дей 91546
ческой 91535
▁Баш 91506
жай 91490
▁oraya 91479
lin 91478
▁бекітілген 91469
iladigan 91425
▁представ 91417
уга 91416
▁kab 91406
▁жарияланған 91375
aklar 91351
▁жүз 91347
▁yaşayan 91324
▁род 91301
жд 91278
ýan 91275
▁бағалау 91271
▁sap 91242
тарының 91240
▁аясында 91214
▁stuff 91207
▁sürü 91204
▁торган 91169
▁Kitabı 91147
▁teşekkürler 91091
▁Rezervasyon 91066
олог 91064
▁pat 91043
ilar 91019
ырға 90971
▁qiladi 90963
▁говорил 90962
без 90956
▁half 90939
malı 90905
ыбыз 90902
ілген 90886
▁заб 90881
uma 90838
имся 90836
əcək 90805
▁shahar 90796
▁порядок 90761
▁Президенті 90727
▁среди 90721
▁развитие 90713
▁ha 90710
емые 90686
АТ 90670
دى 90663
▁кроме 90639
▁өзгер 90635
ht 90621
umuz 90569
▁terk 90550
▁ӗнтӗ 90528
aların 90513
▁будем 90510
▁ciddi 90492
▁öldü 90487
▁ретінде 90477
инин 90468
▁mar 90443
▁часть 90437
▁Пол 90431
abiliriz 90406
дарға 90374
ıy 90346
▁İnsan 90300
инского 90294
sunuz 90284
▁miyiz 90269
▁оң 90255
andı 90238
▁труд 90227
▁follow 90151
▁Av 90144
лом 90133
▁къ 90129
▁стал 90115
ih 90109
▁булыр 90095
▁берілген 90055
▁def 90045
▁wouldn 90010
▁органның 89971
ост 89942
▁Del 89940
ционного 89915
▁места 89903
▁мәселелері 89846
▁Kan 89841
▁биргән 89784
▁пути 89778
▁көш 89762
ланған 89729
▁suv 89709
▁стороны 89707
▁kids 89679
бап 89656
asa 89653
▁органами 89639
▁значения 89610
▁anlaş 89606
▁аудан 89598
▁сый 89568
цев 89531
▁лицо 89523
elerin 89520
ışı 89514
▁adım 89512
▁learn 89481
▁ən 89464
leş 89463
▁оборудования 89454
▁behind 89431
han 89415
elerini 89398
▁образом 89387
▁Mən 89380
▁happen 89370
▁метр 89364
▁organlari 89357
кое 89250
old 89233
▁мектеп 89229
унун 89201
▁olduğumu 89186
▁бала 89164
▁қолдан 89149
▁жасалған 89141
▁yaptığı 89127
▁www 89071
май 89070
▁дин 89052
дик 89019
▁verm 89018
▁Со 89012
▁Anne 88992
dığı 88969
▁вакыт 88958
▁con 88936
ён 88906
▁çalışıyor 88904
▁берушінің 88899
çı 88862
леге 88843
▁olm 88842
▁yeah 88835
▁коммуналдық 88824
лі 88804
▁компания 88800
▁nähili 88787
irler 88780
▁болатын 88771
madı 88770
▁пурнӑҫ 88762
▁düz 88756
рес 88718
red 88704
▁fiyatı 88701
imizni 88692
▁АҚ 88686
▁Thank 88676
▁aldım 88666
▁tab 88653
▁bilim 88629
▁Только 88593
▁атауы 88589
▁üz 88561
ҙә 88550
▁Йәһвәнең 88545
for 88511
▁mo 88508
тк 88501
ym 88483
рой 88429
▁хочет 88418
▁qoy 88414
emin 88406
алась 88391
lərdən 88342
нул 88334
ван 88327
▁качества 88326
▁Hem 88321
▁Directions 88294
▁Kendi 88275
ально 88257
▁совет 88240
▁possible 88182
▁бат 88181
▁туура 88166
рей 88156
▁answer 88148
уст 88134
▁sign 88121
жу 88110
▁ҫук 88107
▁died 88095
▁olup 88086
▁Mark 88034
▁yem 88033
▁main 88020
▁yapıyorsun 87997
▁knowledge 87974
▁katıl 87942
▁оно 87909
▁төрағасы 87865
▁karşılaş 87857
▁works 87841
▁материалов 87815
▁husband 87801
▁найти 87799
аларының 87795
▁қызметтер 87778
тик 87773
▁чист 87763
ındaki 87729
▁шут 87714
med 87701
▁police 87691
▁автомобиль 87662
▁içeri 87660
▁lives 87650
▁hay 87646
▁kömek 87631
теп 87628
▁bunları 87625
▁kısa 87614
▁söylemek 87611
▁йыл 87579
▁слишком 87569
▁Diğer 87562
▁bağış 87530
▁Раз 87530
▁наши 87518
▁Иисуса 87498
▁gaz 87488
ләрне 87480
▁алды 87462
▁дал 87450
▁айтып 87449
▁собой 87429
▁тө 87411
▁тексеру 87404
▁mesaj 87381
▁özür 87352
альным 87330
atsiya 87318
▁строительства 87303
дарына 87282
ents 87278
▁Сегодня 87269
eg 87268
▁патне 87262
елі 87250
▁Сонымен 87231
ığını 87219
▁свое 87195
ınızı 87024
AD 87008
ilish 86971
▁апреля 86948
▁dilerim 86943
▁отдел 86937
▁учета 86930
larımız 86896
▁yık 86857
ünden 86835
laridan 86814
▁yaklaş 86791
▁сақтандыру 86784
menin 86745
əti 86734
EL 86711
▁hayvan 86698
▁аларның 86696
▁кредит 86655
▁Sizin 86615
ющим 86595
▁ihtiyacı 86594
▁қой 86585
▁Ann 86584
▁стоит 86560
емой 86534
lah 86521
▁видел 86500
▁ярат 86468
▁нысан 86464
▁июля 86458
▁pul 86422
▁ishtirok 86421
▁dayan 86419
▁students 86405
ология 86397
لى 86375
▁документы 86362
▁хеҙмәт 86356
▁хак 86354
▁international 86351
▁çift 86325
сіз 86298
▁дейінгі 86289
▁след 86289
▁жаш 86260
▁қос 86242
▁tuz 86203
▁показ 86183
ЕН 86175
▁нақты 86156
▁inside 86154
▁негізінде 86100
▁fuck 86075
▁Тебе 86073
▁wish 86071
▁asosida 86048
▁ah 86039
про 86007
larıyla 86003
▁правда 85999
▁olmadan 85992
▁işler 85991
▁Ushbu 85976
▁Take 85974
▁ғылыми 85970
▁gt 85954
▁Ү 85954
▁created 85926
шим 85925
▁verin 85922
▁нее 85918
▁контроль 85913
▁внимание 85855
▁эми 85852
▁кей 85841
▁зал 85833
еля 85828
iri 85822
▁Рим 85814
▁send 85804
▁sur 85793
▁arab 85744
аж 85738
eceksin 85684
▁Emma 85664
▁пирки 85663
▁hayot 85651
▁ir 85649
▁aniq 85645
by 85637
▁благо 85627
▁model 85622
ӗм 85616
▁senden 85592
▁ау 85580
реп 85565
ларда 85547
▁Baba 85534
▁значит 85522
▁Çocuklar 85507
▁başa 85489
▁köp 85486
▁направ 85486
ve 85467
ba 85462
▁şehir 85451
▁ikki 85438
ments 85423
▁Bizi 85422
▁söyler 85416
▁мак 85381
ش 85343
▁stand 85341
▁unto 85336
▁обще 85316
▁машин 85315
▁yola 85288
них 85284
▁оған 85271
▁sayı 85257
тармақ 85251
▁До 85241
ING 85212
▁иностранных 85171
еге 85158
▁yolunda 85146
▁туп 85135
▁fire 85124
▁ээ 85083
▁etilgan 85041
▁отметил 85040
▁moment 85034
andır 85027
▁bal 85008
▁class 84982
▁говорить 84962
▁Those 84956
▁kalk 84954
лению 84939
▁tashkilot 84938
▁See 84934
▁хабарлады 84928
▁tomorrow 84923
alara 84910
▁Биз 84907
ox 84905
ağın 84902
▁kaldı 84900
anları 84885
my 84871
▁tabii 84854
▁bolsa 84852
ительного 84833
məyə 84827
▁Бай 84816
▁hit 84810
▁случаях 84736
ҙең 84723
▁mol 84720
<0x9A> 84696
ика 84684
▁davranış 84684
ff 84672
▁drink 84672
▁government 84623
ose 84553
▁görür 84526
▁probably 84480
▁айт 84467
▁adamın 84449
▁yanada 84416
▁условий 84416
▁kanıt 84410
▁Aynı 84403
▁deki 84400
ED 84389
ём 84362
lic 84328
▁group 84326
▁алардын 84251
тағы 84247
▁Кон 84230
acağını 84221
ö 84218
▁услугодателя 84217
▁предостав 84189
ОВ 84160
▁işin 84130
ировать 84099
▁кабар 84074
▁электрондық 84069
▁bel 84065
нипе 84051
елгән 84046
▁России 84045
▁bl 84040
▁фонда 84012
sek 83994
▁учетом 83985
▁arada 83978
▁св 83965
moqda 83938
▁хәл 83926
▁Tell 83921
▁using 83875
▁аб 83868
▁Правил 83864
▁yay 83856
▁indeed 83855
▁земле 83846
ake 83843
ement 83829
▁мындай 83826
▁АО 83813
▁чыгар 83794
▁dam 83784
▁nazorat 83765
▁договора 83756
мин 83745
manı 83735
▁около 83683
▁технологий 83676
▁оку 83653
Ө 83633
▁edýär 83629
▁областного 83619
▁вӗсене 83597
ям 83592
ڭلار 83568
▁uğr 83554
▁reach 83536
▁настоящим 83524
гъ 83492
▁өл 83458
▁Ақ 83457
▁joriy 83371
чӗҫ 83367
еде 83306
▁qardaş 83290
▁питӗ 83276
мас 83261
م 83258
▁post 83256
▁town 83250
▁бағыт 83240
▁Кроме 83239
▁sahibi 83231
ымдар 83216
▁мая 83214
ох 83212
ителей 83210
LAR 83208
▁актов 83196
▁свет 83190
ilər 83146
▁kor 83143
eyin 83114
▁Dad 83104
▁ser 83078
▁giz 83061
ğe 83060
▁yes 83036
▁мед 83026
▁onuň 83024
▁қарай 83022
▁жерде 82999
▁Saat 82996
▁Ст 82988
ада 82968
▁haq 82954
izm 82924
» 82914
ots 82902
АР 82872
ədə 82870
вы 82851
▁hast 82845
▁ark 82837
▁шешіміне 82837
ованию 82814
▁Michael 82806
▁Su 82783
uy 82756
ese 82754
▁рухи 82750
▁Йәһвәгә 82732
ld 82727
лей 82726
▁имущества 82724
maları 82715
▁му 82715
▁sağlam 82659
▁edilen 82644
LA 82630
▁наш 82612
▁looks 82580
▁gitmek 82576
арын 82559
▁бағ 82534
тү 82532
▁Библии 82532
▁мөһим 82524
сон 82508
▁Центр 82508
ылады 82477
esinin 82467
скую 82466
▁ен 82466
алось 82460
▁sah 82433
ۇ 82428
▁тора 82372
▁trans 82363
▁Однако 82353
▁kam 82347
гөн 82325
▁olurdu 82303
▁safe 82262
▁geniş 82253
mamış 82243
сез 82225
▁teng 82210
▁whatever 82140
▁мәселелер 82131
▁городе 82103
▁қызметін 82101
▁центр 82065
иг 82046
▁Ыйсанын 82029
▁thank 82026
▁Kon 82023
ӑш 81995
▁Bab 81982
▁отношении 81962
уына 81957
س 81948
▁EUR 81941
▁yapabil 81917
▁cr 81895
▁наход 81880
▁beautiful 81876
▁Gör 81863
▁политики 81846
▁жүр 81837
ща 81833
▁обеспечение 81832
▁merak 81823
isine 81812
▁Ek 81809
▁күр 81803
ылар 81796
▁итеү 81746
▁арт 81743
бо 81734
еди 81716
▁services 81715
ерт 81698
▁приложению 81687
▁мерз 81683
▁общества 81630
alarga 81629
▁wh 81624
ӑх 81595
▁тай 81586
▁yapmış 81525
ыва 81493
▁dav 81472
▁орналасқан 81460
lsa 81431
еть 81393
ping 81380
▁More 81372
сына 81363
▁fun 81357
▁экономика 81352
▁төмен 81335
▁aptal 81329
▁откры 81304
үк 81303
▁video 81269
▁yaşlı 81246
▁office 81240
лем 81232
шылық 81217
▁olacağını 81203
▁Hay 81199
▁ot 81199
▁oluştur 81193
▁астам 81162
▁пу 81128
▁начала 81122
▁hav 81113
ynyň 81112
▁Uzbekistan 81112
▁düşünüyor 81110
▁ag 81109
▁kesinlikle 81108
▁Был 81107
ically 81101
▁куҫ 81088
▁обеспечить 81079
▁әйткән 81058
ствие 81036
▁пат 80992
alarning 80980
▁Sc 80933
▁ережелер 80924
ант 80920
▁Doğru 80903
▁olanlar 80901
▁тұрақты 80899
ывать 80897
▁chance 80891
▁сүз 80835
▁yapacak 80831
way 80825
ace 80816
ped 80798
▁аларны 80775
▁пайдалан 80770
ild 80758
▁chiq 80746
▁hey 80745
emez 80744
ges 80734
улы 80731
idi 80681
ect 80660
▁dik 80649
▁rol 80642
▁реттеу 80624
▁yaptık 80606
▁сотрудничества 80584
▁могли 80548
uya 80533
▁Жалпы 80532
стра 80519
▁прод 80518
▁yön 80517
alarda 80501
▁içine 80493
▁тарт 80487
▁six 80479
ımın 80471
▁bi 80466
▁yapan 80443
▁министрінің 80412
üz 80404
▁яв 80386
ert 80366
▁министр 80342
▁стать 80341
▁ҫапла 80337
▁Re 80318
▁tartibda 80313
sün 80266
ology 80260
▁таких 80260
атов 80244
▁көлік 80237
Я 80218
▁Right 80216
▁біз 80189
▁одна 80181
▁наличии 80177
▁вами 80172
▁объект 80164
▁istedim 80107
▁goes 80104
▁ikinci 80101
▁break 80098
▁Reservation 80077
▁Böylece 80065
mişti 80050
рт 80042
тарына 80035
▁cut 80015
▁килгән 80013
▁Üç 80010
amak 79981
▁қамту 79980
▁занятости 79975
▁Государственное 79970
туу 79949
ris 79929
нер 79908
дері 79905
▁Şey 79903
лять 79876
dığını 79863
ляет 79863
ший 79858
ilir 79842
eş 79811
▁кең 79780
▁итәргә 79767
ско 79754
▁box 79750
▁yana 79746
▁соз 79739
▁арттыру 79727
има 79719
▁ölü 79709
▁sav 79702
▁әкімі 79647
layan 79645
▁қызметкерлер 79645
▁secret 79635
mer 79623
▁енг 79611
▁ике 79604
▁получ 79602
▁worship 79594
▁State 79563
▁ішкі 79559
▁Kingdom 79548
▁İsrail 79548
лай 79539
▁причин 79480
▁Yo 79463
▁yeter 79446
▁приз 79446
▁ұ 79429
овые 79378
ırım 79367
▁hurt 79363
▁Ham 79324
▁ijtimoiy 79313
IT 79307
▁anlay 79292
ясь 79284
▁pass 79283
▁жүк 79277
ıb 79275
▁ед 79271
▁па 79268
ларға 79266
▁вып 79265
▁прос 79265
▁eğitim 79231
шего 79226
▁kas 79221
▁evlen 79208
▁Богу 79205
рек 79183
▁sud 79155
▁настоящей 79155
▁birinin 79154
▁тууралуу 79154
▁known 79141
▁ziyaret 79139
ishda 79128
▁study 79114
вар 79108
▁мана 79070
итесь 79036
ition 79030
▁қазақстандық 79022
müş 79008
анын 78993
▁bet 78939
▁аты 78879
lanmış 78875
▁юк 78869
нд 78862
▁возможно 78850
▁мире 78821
▁except 78819
ительной 78814
▁Hemen 78811
▁vaqt 78799
▁team 78789
▁kay 78783
▁народ 78748
▁save 78703
есі 78657
are 78642
иц 78631
стық 78623
▁Yehovaya 78607
▁дем 78598
▁yuz 78593
maktan 78583
ента 78576
▁Cr 78576
▁Bur 78567
▁Lakin 78554
▁game 78541
▁уж 78539
▁жак 78538
▁gets 78528
▁месте 78517
▁Se 78515
▁стол 78505
▁huh 78497
<0xC4> 78489
циялар 78486
▁Спасибо 78482
ект 78432
▁Там 78406
▁Burası 78400
▁Amerika 78389
▁hour 78377
<0xCC> 78359
▁пӑх 78338
▁yaxshi 78327
▁выполнения 78304
▁ret 78288
▁dolayı 78277
▁Rooms 78262
Ç 78255
▁iy 78231
▁республика 78227
▁alanı 78220
ail 78219
▁dog 78212
▁Муса 78209
arım 78208
aw 78196
ӑра 78195
▁Каз 78192
алған 78172
▁Mer 78164
▁Иерусалим 78159
▁peki 78157
▁Жахабага 78148
▁некоторые 78098
үнүн 78096
▁нес 78072
▁сап 78068
asın 78062
▁которым 78028
▁almış 78013
▁товар 78012
▁марта 78004
inizin 77985
lagan 77953
▁bilərik 77947
терінің 77940
мдер 77925
▁Demek 77909
▁Could 77904
шӑн 77882
▁birşey 77882
▁Um 77857
▁булды 77846
мак 77831
▁yen 77825
▁ем 77814
▁Bazı 77811
▁Küçük 77791
▁жабдық 77789
▁evil 77783
ӑл 77762
▁edilm 77758
▁Давай 77754
чил 77727
ирование 77723
▁Аб 77719
▁saç 77700
ового 77697
ход 77696
▁болды 77666
▁совместно 77664
▁less 77658
▁mad 77652
ebil 77642
▁soliq 77639
▁твор 77612
ғаны 77604
▁совершенств 77603
▁konuşmak 77601
▁Өфө 77594
IS 77577
▁jumladan 77564
▁бюджеттік 77563
▁altı 77520
▁тӑр 77507
▁təbliğ 77505
▁Facilities 77465
▁ularga 77444
раж 77402
▁Most 77400
▁нар 77393
▁kendilerine 77389
▁предприятия 77387
▁ob 77375
▁мүмкіндік 77352
Ü 77347
▁ҫинче 77318
IL 77316
▁возможность 77288
▁air 77239
▁ins 77224
▁Read 77216
▁алуға 77209
▁birinchi 77201
▁отырған 77198
▁бур 77185
ителя 77167
▁қоғамдық 77128
suz 77124
ымыз 77124
▁questions 77124
▁International 77109
▁easy 77094
▁сүй 77042
▁bebek 77038
▁Kal 77034
зы 77019
лаган 76997
▁стан 76987
▁булырга 76962
▁государств 76949
▁басқармасы 76942
▁Hayat 76910
adır 76891
▁Charlie 76865
▁qu 76856
▁gelmiş 76853
▁самом 76853
▁peace 76842
ative 76835
▁oldum 76817
▁Mal 76816
▁җ 76814
▁halk 76802
ял 76778
▁Паул 76772
▁became 76770
▁деньги 76753
▁problems 76751
лес 76731
▁map 76730
larınızı 76727
▁verdiği 76726
▁chora 76715
▁Daniel 76714
▁lanet 76708
▁мә 76705
▁ger 76673
▁kuni 76670
▁Глава 76658
▁kaz 76657
▁улица 76648
▁поб 76644
▁uyar 76636
▁yapmaya 76619
▁Bas 76613
▁сӑмах 76612
▁həm 76608
▁Пункт 76598
▁sleep 76597
дат 76572
ее 76540
▁ilgilen 76539
▁экспорт 76532
rsat 76505
▁Geri 76493
dar 76485
▁отец 76478
▁oil 76463
▁National 76415
ımıza 76409
▁saqlash 76402
▁мои 76389
▁сто 76381
IC 76370
▁faoliyatini 76355
▁Кол 76355
▁yayın 76350
▁gizli 76337
▁daughter 76335
▁тәрт 76334
ями 76311
▁otel 76306
▁министрлігінің 76299
өй 76281
ered 76274
▁качестве 76274
▁сек 76270
▁оценки 76268
уй 76243
tü 76213
▁sim 76182
▁Yet 76174
▁жив 76169
▁стандарт 76159
▁мӗншӗн 76158
ительные 76152
▁couple 76136
▁tried 76132
▁маңызды 76094
▁той 76076
▁sevgi 76073
▁резерв 76051
▁жатқан 76047
▁engel 76035
layın 76003
imizga 75996
▁edebilir 75996
ологиялық 75994
▁міндетті 75987
▁dal 75982
▁мекемесінің 75952
<0x7D> 75928
▁mus 75910
<0xCE> 75906
▁следует 75894
▁са 75881
▁edilmiş 75865
▁Un 75858
miz 75847
дардын 75846
▁Kor 75807
lardır 75806
▁час 75782
▁tarih 75781
▁değilsin 75771
▁mom 75749
▁Банк 75727
▁гана 75714
▁City 75705
айт 75699
▁strong 75667
▁Avrupa 75666
▁муж 75652
▁late 75651
▁İsanın 75645
▁UN 75641
▁постав 75638
▁etməyə 75634
▁ola 75631
▁домой 75611
аларға 75603
▁месяцев 75603
lığa 75586
син 75577
▁alt 75577
▁tel 75556
▁yarar 75547
▁Christians 75534
▁июня 75534
etti 75526
▁распростран 75517
▁allowed 75506
стро 75484
▁minlash 75470
▁Республика 75465
▁kuş 75459
▁field 75451
орт 75433
▁Con 75422
үче 75420
yk 75413
есе 75407
▁маңызы 75406
▁ara 75382
▁производится 75381
▁нумай 75379
▁almost 75378
▁kendine 75362
▁отношения 75359
▁брат 75357
▁постановление 75343
үш 75341
▁Узбекистана 75320
isinin 75317
landır 75309
▁Ter 75305
▁Мәсих 75296
aviy 75289
▁пулать 75283
▁ALLAH 75282
▁Bo 75277
ities 75266
▁Pat 75242
▁share 75239
фи 75215
▁Dan 75201
Ş 75181
EM 75167
▁yılında 75141
▁sefer 75123
<0xAD> 75120
sizlik 75112
ekler 75099
▁geliş 75092
▁булған 75087
▁раст 75080
вают 75077
▁exactly 75060
bi 75054
▁ilişk 75037
▁katta 75032
▁журнал 75021
eceği 75005
чә 74996
ню 74994
▁етеді 74982
▁Miss 74968
мест 74967
▁условия 74961
малар 74952
▁önünde 74938
дир 74929
▁этому 74929
▁buldum 74925
▁күз 74916
▁Qu 74870
▁qorx 74869
ец 74867
▁canlı 74856
▁ҫит 74854
▁fir 74840
ларының 74828
есс 74823
landı 74822
▁sürekli 74810
▁əməl 74807
▁unga 74805
ылган 74800
▁ек 74796
amız 74786
▁нашего 74786
▁первый 74785
▁беріледі 74754
ләнгән 74753
lerdi 74735
▁другим 74731
екен 74725
▁Bul 74720
қимыл 74708
▁которую 74700
▁mavjud 74693
▁хыҫҫӑн 74689
ленген 74684
▁един 74677
▁жүргізіледі 74676
▁ыйык 74666
▁tə 74660
▁transport 74658
▁seyahat 74655
лон 74644
▁действий 74641
алык 74629
▁ق 74622
▁мекен 74582
▁құрылыс 74572
▁исполнения 74547
▁Frank 74544
▁return 74539
▁Shu 74524
▁ад 74496
aki 74481
memiş 74477
▁Every 74471
▁haven 74469
▁yaptın 74469
inc 74467
▁международных 74443
▁buluş 74434
▁olgan 74429
рез 74419
▁бей 74411
▁əl 74390
▁düşündüm 74371
ial 74369
▁Onunla 74365
▁including 74336
ınca 74334
▁жауапты 74332
▁Pekâlâ 74308
▁енгізілді 74296
▁söyledim 74279
aydı 74250
енным 74250
▁Астаны 74230
▁чи 74230
▁TO 74226
endi 74218
▁uch 74210
пол 74205
ham 74186
▁күч 74185
▁уг 74141
▁тариф 74126
оров 74101
▁яр 74080
▁РБ 74070
▁nereden 74055
▁расп 74052
▁sebep 74046
ҙәр 74045
ng 74024
▁imp 73999
▁Yoksa 73998
сте 73963
▁energy 73945
isin 73927
▁Name 73920
▁жеткіз 73885
ain 73876
▁hisset 73874
▁ышан 73867
▁present 73862
▁social 73852
▁kişiler 73827
▁знал 73821
asy 73807
▁құрыл 73789
lov 73786
▁люб 73780
▁ҫавӑн 73762
▁пуҫ 73757
ılır 73749
шей 73710
üp 73703
▁құ 73687
br 73686
▁Dün 73685
ڭ 73683
ledi 73676
▁ga 73661
ивать 73643
▁married 73641
▁qol 73637
гын 73636
▁илсе 73631
▁ұсын 73629
mad 73623
цион 73619
▁талаптар 73584
▁gez 73573
▁peyğəmbər 73550
вет 73542
▁прием 73531
▁ur 73524
ешься 73519
▁Контроль 73519
▁durdur 73509
əni 73482
▁geçti 73471
▁процентов 73397
▁Give 73390
ёр 73358
уют 73355
ms 73350
▁следующей 73346
▁семьи 73334
chilar 73311
▁кое 73311
<0x93> 73303
▁возвращ 73299
▁отказ 73296
▁ақ 73274
▁kesin 73251
▁прямо 73243
▁personal 73236
▁dogan 73225
▁требований 73218
▁Сан 73214
▁тыт 73214
liq 73207
▁shot 73186
▁спорта 73172
▁Yüz 73155
▁Sor 73151
▁nom 73146
ыгыз 73131
▁üzer 73117
▁Pol 73113
чү 73104
lerimiz 73086
▁даяр 73080
▁World 73070
ks 73035
ase 73030
ayla 73030
▁okul 73022
▁dec 73018
edin 73017
▁front 73001
ари 72990
▁grup 72989
▁кап 72985
очных 72970
▁health 72970
▁перес 72968
▁дар 72964
лығы 72952
▁lozim 72950
▁İbrahim 72941
▁организ 72938
imde 72925
яз 72920
▁Сам 72916
▁Тур 72902
ұлы 72894
▁diz 72892
▁порядка 72883
▁шаруашылық 72877
▁Yok 72872
▁birisi 72864
sy 72861
▁ус 72858
▁sister 72841
ian 72833
▁бизге 72831
▁мо 72819
▁fiyat 72817
▁nädip 72813
▁учреждений 72811
ny 72796
шая 72795
▁iste 72791
▁sex 72788
▁kul 72786
ebiliriz 72778
▁George 72751
▁Tan 72737
▁Turkish 72736
▁Kaç 72730
альное 72701
▁Bosh 72681
▁бара 72677
▁Иегове 72669
▁ачык 72661
енное 72643
ədən 72621
ıştır 72615
▁following 72614
ваются 72598
▁др 72594
▁ауылы 72587
▁смерти 72586
▁Башкортостана 72562
ччӗ 72548
▁эм 72546
▁Стороны 72533
mıyor 72528
ики 72516
ship 72512
икалық 72511
▁ноября 72482
ейт 72468
▁insanın 72436
▁тет 72403
айды 72382
▁bölüm 72378
▁стали 72367
▁qarşı 72357
арлар 72325
▁Орталық 72320
▁вице 72318
▁davet 72306
▁Совета 72306
▁аймақ 72279
ımda 72278
▁elde 72278
▁наших 72276
▁Would 72274
лән 72267
▁jalik 72242
▁став 72230
ora 72229
▁project 72227
▁карата 72227
▁ошол 72210
▁Жар 72208
edir 72202
▁press 72174
ӑп 72166
дым 72164
▁Аллаһының 72153
▁near 72149
▁асырады 72141
ering 72136
▁Ha 72127
▁çat 72121
▁рухий 72121
diler 72112
▁думал 72112
▁проведение 72097
ины 72088
alt 72086
▁сб 72084
ынын 72075
acaksın 72060
▁olaraq 72049
▁maqsadida 72036
▁gerekir 72028
дает 72024
▁dönüş 72018
<0xB2> 71998
▁транспорта 71997
leriyle 71994
▁Нұрсұлтан 71993
ank 71992
һында 71986
▁Где 71982
мд 71968
▁seven 71957
▁согласованию 71954
▁Kaf 71941
▁халыҡ 71935
▁материал 71931
▁сағат 71929
▁İnsanlar 71909
▁лайӑх 71899
ағ 71885
▁Ы 71880
ылатын 71877
▁key 71864
▁hedef 71857
kan 71849
▁view 71847
سى 71844
▁моего 71825
▁couldn 71791
▁saldır 71790
▁подготовки 71784
ани 71783
▁Ac 71782
▁verdim 71775
▁цел 71772
chilik 71767
ларына 71766
▁ҫеҫ 71763
▁хал 71745
▁boz 71709
▁tayyorlash 71699
▁milliy 71689
<0x95> 71687
▁положения 71674
▁әрекет 71666
be 71652
▁dokun 71649
▁сат 71594
▁Birkaç 71554
eydi 71552
▁tatlım 71549
▁собственности 71549
ээ 71547
▁dr 71519
▁аша 71519
▁sport 71478
▁Также 71458
▁тү 71420
▁договор 71418
дерді 71412
▁Ana 71412
▁haqqında 71402
▁arkadaşım 71376
▁id 71359
ılı 71349
oth 71331
▁düşünüyorum 71321
▁интернет 71317
▁olmayacak 71302
▁поэтому 71286
▁зур 71275
▁nazarda 71258
ats 71245
▁Yemek 71239
▁Örneğin 71235
▁проб 71212
▁araştır 71197
▁property 71179
емого 71165
▁Yar 71147
▁iler 71139
ilere 71135
▁Сен 71129
▁benzer 71120
▁geldim 71119
▁ilmiy 71106
ists 71077
▁пайдалануға 71069
▁People 71051
UR 71028
елей 71022
ond 70997
▁issues 70993
ging 70988
ز 70974
▁власти 70931
▁стране 70930
▁Кел 70916
▁атқар 70909
uck 70894
▁yosh 70881
дун 70875
▁пӗрле 70854
▁gi 70842
ыг 70838
▁kart 70825
▁кайсы 70814
▁дол 70808
▁yapar 70795
ума 70787
▁co 70773
▁количество 70757
ited 70752
▁maxsus 70752
▁Yaş 70748
<0x7B> 70742
▁yaklaşık 70737
▁hujjatlari 70719
▁paylaş 70706
diği 70685
ee 70674
пер 70668
▁Olanaklar 70655
сӑр 70651
▁округі 70639
▁sınıf 70630
▁surely 70620
ğinden 70612
alik 70589
▁Öyleyse 70581
ители 70577
ydı 70556
▁gun 70550
▁dağ 70542
co 70509
▁geçmiş 70499
ith 70493
тон 70492
▁спас 70463
ann 70462
ләү 70457
▁oğlum 70427
▁қаулысына 70418
▁настоящему 70415
▁toplum 70407
▁денсаулық 70372
ический 70347
ұ 70326
ult 70322
ован 70312
калық 70310
uda 70299
▁прояв 70298
▁temel 70292
▁çoğu 70291
▁чар 70291
IR 70282
▁вся 70279
еме 70260
ised 70253
▁security 70253
ано 70239
▁пункте 70230
▁научно 70186
▁inson 70182
▁thanks 70171
▁belli 70153
▁органдары 70152
▁nji 70137
▁местного 70137
▁пунктом 70132
▁әк 70116
دا 70113
lanish 70106
▁баз 70104
ски 70075
▁yönet 70075
▁реализ 70055
▁sense 70046
▁Или 70033
گە 70010
rik 69999
üt 69998
рик 69995
▁Ok 69982
memiz 69960
▁исключением 69959
▁боль 69955
▁Павлодар 69931
▁risk 69904
▁ann 69901
▁экономи 69893
iç 69879
▁başar 69858
gun 69841
▁fil 69836
▁сентября 69836
▁Alex 69833
▁Ex 69811
▁тың 69808
ларны 69805
▁октября 69796
▁millet 69782
▁Course 69781
лд 69778
▁Arab 69773
ye 69771
▁either 69768
▁sanki 69761
▁Син 69759
▁бюджетных 69759
ӑк 69744
▁знаете 69707
▁нап 69698
▁Сп 69687
alarına 69684
▁mak 69658
▁жылдан 69656
▁Home 69651
▁таң 69633
▁школы 69629
▁supposed 69621
▁aý 69618
ота 69615
ктер 69607
▁полож 69603
бан 69593
▁Анын 69578
▁кош 69576
▁село 69550
▁yanına 69549
acağı 69536
кал 69524
▁Gün 69524
▁обращ 69513
▁band 69505
▁forget 69481
ственные 69459
sən 69449
▁құжат 69447
▁Кабинета 69444
ласа 69440
ünüz 69436
▁Eski 69433
▁гор 69422
гон 69420
▁қаржыландыру 69415
▁mon 69388
miyor 69341
ӑна 69316
ecekler 69297
▁shart 69281
▁қарау 69271
▁worry 69263
▁Harika 69262
▁ынтымақтастық 69259
▁қолдану 69253
▁подпис 69237
▁aile 69212
▁ket 69164
▁kimin 69157
▁mine 69138
ula 69128
▁girls 69123
иң 69095
▁уз 69093
<0xC5> 69092
Name 69090
▁Знаешь 69083
▁ülk 69075
▁Ko 69069
ization 69060
▁Сар 69036
▁маанилүү 69013
▁можете 68995
▁заяв 68976
▁Mil 68971
ji 68959
go 68953
<0x83> 68938
▁терӗ 68936
▁yakal 68922
▁сайлау 68922
▁Bank 68892
▁Any 68882
▁outside 68854
▁turned 68829
яется 68812
▁эки 68790
▁cooperation 68779
▁verdik 68772
▁bilmek 68770
▁никто 68765
▁tem 68744
чит 68726
mit 68725
▁мор 68721
▁нами 68707
▁воды 68697
▁Конечно 68696
siya 68695
роп 68687
▁Father 68686
IM 68683
ческого 68679
кі 68664
▁odam 68634
▁городов 68631
әләр 68622
ілік 68620
▁mat 68605
▁требования 68598
▁Жер 68590
шь 68559
▁often 68535
▁vakit 68520
meni 68518
▁ýaş 68512
lig 68509
▁кардәш 68489
▁провод 68488
▁nedenle 68477
bar 68446
▁Den 68444
▁hatta 68444
▁modern 68444
▁Ön 68441
alardan 68438
уші 68437
▁kabi 68425
▁жить 68419
▁sakin 68398
▁Министерство 68387
▁котором 68387
▁single 68381
ızı 68380
▁банка 68375
▁Ruh 68373
▁көңүл 68340
▁Babam 68331
▁ila 68318
циясы 68309
dular 68300
▁Мак 68296
шу 68291
▁зак 68280
ight 68268
erse 68267
арга 68260
▁account 68236
▁область 68231
▁total 68229
▁өңдеу 68213
▁clean 68209
uyla 68201
▁Ular 68194
▁س 68188
▁birine 68179
▁experience 68175
▁ял 68167
▁ыр 68166
▁словами 68160
Ə 68127
▁кыз 68127
▁bergan 68102
▁пример 68088
▁Ел 68077
▁процессе 68057
▁sıcak 68045
▁срока 68033
za 68025
▁безне 68015
▁edildi 67986
▁noted 67978
ecektir 67973
▁rsat 67970
▁içer 67962
quot 67956
ky 67947
endir 67946
risida 67933
▁орында 67928
▁kere 67912
do 67898
рон 67893
▁екінші 67893
lən 67888
abilirsin 67883
▁инвестициялық 67881
رى 67876
▁ұйым 67868
▁проводится 67865
▁бекем 67860
гін 67850
▁Department 67841
▁шар 67818
▁всю 67804
پ 67790
▁command 67788
▁автомат 67783
▁visit 67778
▁түз 67771
▁сказали 67765
▁Kend 67752
▁level 67701
asından 67696
ilayotgan 67678
альная 67672
▁булса 67671
▁пулин 67654
▁Arkadaş 67634
ӗл 67620
▁çalışan 67617
нш 67613
жан 67602
▁сельскохозяй 67594
aç 67593
▁minute 67587
▁әкімшілік 67583
мар 67556
▁rahatsız 67552
rgan 67550
▁hayatta 67548
▁building 67544
став 67513
▁thousand 67511
miştir 67504
▁сүйүү 67499
▁kitab 67486
own 67480
уну 67475
▁сердце 67453
▁onda 67438
▁жи 67437
▁promise 67430
▁hech 67396
елік 67395
▁mill 67380
▁kəs 67376
ows 67374
▁beradi 67354
▁yapılan 67339
▁However 67336
ung 67335
▁derin 67328
▁crazy 67326
ümüz 67324
▁needed 67320
▁аумағында 67310
▁именно 67306
дір 67294
▁Street 67290
▁І 67287
▁hava 67285
▁Sorun 67270
▁доб 67264
kil 67255
▁facilities 67252
▁Sağ 67235
▁quyidagi 67224
▁ҫынсем 67222
▁parç 67220
▁лар 67219
▁teklif 67209
▁пионер 67204
əd 67201
▁kalan 67189
▁расходов 67183
▁spiritual 67182
▁böylece 67177
▁йөр 67168
lıyor 67167
▁söyley 67153
▁бағдарламасы 67148
▁du 67145
▁ekan 67143
AK 67138
▁Elbette 67133
ized 67120
▁saniye 67116
▁kişinin 67094
ashtirish 67087
Ö 67087
ılıyor 67076
▁онда 67076
aba 67072
▁sa 67062
▁жоспар 67055
ardı 67041
▁чир 67041
▁аял 67033
нос 67026
▁sil 67016
ech 67015
▁Israel 67011
▁шаралар 67008
▁байланыс 67004
AM 66993
▁общего 66993
ound 66991
▁düşman 66985
iyim 66975
▁стоимости 66975
▁Yardım 66971
▁waiting 66971
▁tes 66968
▁yur 66964
▁мұнай 66953
ilmesi 66930
▁İs 66930
▁ок 66929
леп 66928
▁көлемі 66919
▁edəcək 66909
▁Özel 66883
ino 66881
erv 66852
▁tush 66852
тагы 66844
чет 66839
EC 66835
ымы 66830
▁foydalan 66830
▁районе 66827
uvchilar 66809
olar 66808
▁ABD 66803
▁Str 66800
▁ге 66799
▁report 66796
▁bunday 66793
▁мән 66787
эр 66777
▁Kat 66768
▁düny 66766
▁yiy 66763
▁Hal 66757
▁тауар 66755
▁yaptığını 66754
▁gider 66751
▁кажется 66744
org 66729
▁gördün 66727
үй 66723
мәгән 66720
▁шығар 66717
▁аракет 66687
аша 66679
ral 66676
alık 66667
▁result 66666
▁market 66661
▁нравится 66652
гин 66626
▁каждого 66626
▁урын 66620
эй 66613
▁parçası 66608
▁com 66602
▁hüküm 66590
▁сана 66564
▁öyrən 66561
скому 66537
▁назначения 66523
дерге 66521
▁туда 66513
atda 66510
ily 66505
зи 66494
▁Құ 66487
▁mehnat 66482
тык 66478
ılması 66477
биз 66474
▁кәс 66447
▁действительно 66416
laryň 66415
▁chiqar 66415
▁органдар 66415
▁early 66406
▁пӑхса 66405
уна 66397
▁Program 66391
▁ifade 66381
▁шығару 66363
▁Ауыл 66321
IV 66314
ческие 66301
▁kendimi 66300
▁равно 66298
▁iyilik 66278
▁округ 66278
▁допускается 66260
▁King 66230
▁Top 66228
▁Hepsi 66223
iyyət 66210
▁Free 66209
▁short 66209
▁Үкіметі 66189
emiz 66158
▁денег 66139
▁өн 66131
olog 66129
ux 66126
▁Ber 66105
▁quite 66072
▁garip 66055
adın 66040
▁Gu 66031
ылуы 66029
▁народа 66029
▁Қазақстанда 66029
▁Max 66027
▁tkazish 66027
▁дет 66023
▁savdo 66005
тин 66002
▁егер 65997
▁Mrs 65983
▁neredeyse 65952
▁қорытынды 65929
▁зас 65928
▁berilgan 65925
▁Шайтан 65925
еттер 65916
mıştı 65914
▁әй 65890
▁другими 65878
аларына 65862
▁бере 65852
ИН 65823
əndə 65804
webterm 65800
▁Tur 65800
▁veren 65792
▁Hep 65778
▁февраля 65769
▁tip 65761
▁почти 65721
▁Бал 65719
▁win 65717
▁особ 65712
▁Китепте 65710
ива 65706
▁нед 65687
▁условиях 65661
▁asosiy 65660
▁THE 65648
▁düşür 65620
▁anlamına 65619
▁счета 65608
sha 65575
▁asos 65574
▁документа 65564
abr 65561
▁областей 65558
▁alabilir 65551
▁mükemmel 65547
iyordum 65544
likni 65539
▁тесен 65537
▁üzgünüm 65535
gr 65516
▁выход 65513
▁тыш 65492
▁th 65488
▁куда 65484
her 65481
▁sonuç 65476
овал 65462
иясы 65459
▁ayak 65455
мын 65450
▁кешеләргә 65410
gacha 65379
▁yapma 65367
▁банков 65343
▁situation 65337
▁жең 65336
▁Thanks 65328
▁иметь 65328
▁م 65322
enler 65321
улары 65313
▁bulmak 65300
тел 65296
air 65295
gu 65288
ывает 65288
▁ва 65284
▁education 65271
▁Министерством 65257
▁ruhi 65250
▁группы 65246
▁bomb 65236
▁қою 65218
▁университет 65212
▁Wait 65210
▁пост 65210
▁чыккан 65210
▁öd 65195
▁вәгазь 65193
▁babam 65179
▁катары 65176
▁javob 65167
▁uğraş 65162
▁Üniversitesi 65156
▁содержания 65156
▁yedi 65155
▁Есть 65149
▁ayar 65135
бор 65109
▁пресс 65103
▁совсем 65100
▁чит 65091
▁адрес 65089
▁охраны 65084
аров 65082
▁зар 65082
▁ответственность 65064
▁Le 65054
▁bajar 65045
есь 65034
▁haberi 65019
▁подоб 65014
▁ö 64988
▁takım 64987
▁hol 64976
сін 64974
▁Пар 64958
▁Mat 64940
әте 64925
▁Қар 64919
өм 64917
щик 64908
larınız 64904
▁Ах 64902
▁Kaz 64881
▁yas 64869
▁кирлӗ 64859
▁dar 64854
тай 64853
▁мәсихчеләр 64850
▁evde 64846
▁gap 64833
▁etdik 64828
eniz 64827
▁руки 64814
▁размере 64812
▁заместитель 64809
▁Ка 64808
▁Prezidenti 64802
▁däl 64798
амен 64792
▁national 64763
щение 64740
▁kurtul 64738
▁каласа 64732
▁further 64722
▁benz 64714
▁Bob 64713
лады 64696
лый 64691
скер 64680
▁States 64679
▁эсир 64669
▁Seninle 64668
▁женщин 64658
▁Sence 64637
ena 64631
▁IN 64614
▁тил 64602
▁drive 64594
▁дав 64580
▁Мо 64573
▁felt 64569
▁yaşında 64559
чно 64539
▁будешь 64528
дәге 64525
esinden 64524
қар 64513
▁consider 64510
▁Va 64500
▁işaret 64496
▁ырӑ 64495
ıyorsunuz 64490
▁Mom 64490
его 64481
▁message 64476
▁хӗр 64470
▁cinayet 64466
▁ci 64463
▁видов 64456
▁тенӗ 64446
▁deniz 64417
abilirim 64413
▁Всё 64375
▁национальной 64364
ово 64362
əli 64360
▁process 64359
▁твоя 64359
▁olmadı 64357
▁kelib 64330
▁Davud 64325
▁Ер 64325
▁veriyor 64311
▁беруші 64310
etleri 64307
▁European 64301
▁проп 64299
▁делам 64290
<0x91> 64285
▁псих 64283
▁pen 64282
▁мет 64277
▁hatır 64253
лана 64252
ләп 64241
очной 64238
род 64215
▁электро 64215
▁эр 64202
▁asker 64201
сах 64193
▁Ҫак 64188
▁Law 64171
▁предприним 64171
▁уақыт 64166
▁ағымдағы 64164
ыннан 64157
▁dediler 64151
▁кӑна 64146
ection 64141
▁Kral 64134
▁слово 64085
pe 64070
▁edilebilir 64069
▁Сер 64062
ув 64057
▁таким 64057
▁kad 64056
▁Господь 64053
▁mut 64006
▁ruhani 63992
▁дәүләт 63979
▁keyin 63977
▁Здесь 63973
iss 63969
аң 63960
▁Аның 63954
▁Bal 63946
әне 63943
▁dolaş 63939
▁access 63935
▁куп 63933
▁yla 63929
▁black 63924
▁kö 63914
▁step 63893
ayın 63876
▁өтк 63876
▁соверш 63875
▁fast 63868
сиз 63851
АЛ 63848
ayacak 63844
▁людям 63839
▁выб 63830
▁Вер 63802
▁respect 63772
▁sound 63767
▁останов 63741
str 63733
▁kaybet 63720
▁местах 63710
▁çünki 63698
▁Су 63698
▁nereye 63697
likka 63695
▁Mü 63692
aha 63691
▁lan 63682
ear 63678
▁выдел 63675
▁транспорт 63670
чной 63644
diniz 63636
▁data 63631
▁дер 63619
ines 63598
емен 63591
▁крас 63585
▁Di 63574
▁неп 63550
Ю 63545
▁table 63544
▁berdi 63530
▁geliştir 63527
▁günler 63515
lendir 63503
ениями 63501
ys 63498
лама 63495
ي 63494
▁мең 63486
▁реформ 63486
▁Bununla 63485
▁Башкортостан 63485
▁голос 63476
гъа 63469
▁local 63469
▁семей 63457
ern 63453
уг 63453
гел 63439
▁hot 63439
▁уполномоченного 63433
▁kapı 63410
ети 63404
alariga 63391
▁certain 63380
▁включая 63371
▁lar 63345
▁Национального 63334
▁провер 63334
▁иных 63326
▁gec 63325
malıyız 63324
▁ход 63319
▁послед 63313
▁olmam 63312
▁inkar 63290
OL 63278
▁shaxs 63274
▁zamanlar 63265
mekten 63257
oo 63248
▁тӗрӗс 63248
▁certainly 63244
▁əvvəl 63233
▁пал 63199
▁Prof 63198
▁момент 63189
▁путь 63182
▁konu 63181
▁olduğundan 63178
▁şans 63177
leştir 63169
▁ден 63146
▁специалистов 63143
▁августа 63141
▁qar 63124
▁сә 63123
▁Сейчас 63117
▁себеп 63084
▁Ser 63074
▁умер 63073
мо 63058
▁җыелыш 63057
acı 63032
▁исполнением 63025
▁села 63021
▁tahmin 63014
pt 63001
▁Ун 62987
▁чоң 62979
▁Ondan 62978
▁Пабыл 62973
инен 62970
ске 62965
ась 62952
▁пяти 62928
▁peygamber 62922
▁olacaq 62919
Й 62918
Ү 62912
▁точно 62909
▁Kong 62889
▁qat 62889
▁ярҙам 62888
▁мүмк 62875
▁аппарат 62866
▁ref 62849
▁wrote 62830
▁provided 62814
▁hale 62803
▁лицензии 62800
дук 62798
▁takes 62788
▁сдел 62778
▁комитета 62777
▁жөндеу 62776
▁җир 62775
▁duydum 62772
▁Nuh 62768
▁month 62767
▁economic 62766
▁qəbul 62764
▁activities 62746
▁seçim 62745
▁lov 62742
lum 62735
anız 62723
елә 62723
▁araba 62718
▁gal 62710
▁nisbatan 62705
ulan 62688
ied 62681
▁ihtiyacımız 62675
жат 62660
▁изложить 62656
▁Reg 62644
▁Меня 62641
▁Far 62629
ығ 62627
iston 62626
▁инде 62623
▁exp 62618
▁Өзбекстан 62608
▁ребенка 62599
▁Sur 62595
▁Kimse 62585
▁tep 62584
▁среды 62583
▁lead 62582
▁sınır 62581
▁тӑнӑ 62578
▁тонн 62558
яет 62532
▁ways 62529
▁ав 62520
▁нему 62513
atch 62508
▁тӑ 62500
▁көлем 62493
▁дога 62474
▁гына 62461
üş 62451
▁billion 62446
▁rib 62444
ленных 62442
▁iqtisodiy 62442
▁парень 62408
▁bence 62404
▁Думаю 62378
дерін 62377
▁tercih 62375
▁yaşay 62367
▁des 62338
▁обучения 62337
дарда 62307
▁доходов 62306
▁sıra 62297
▁mə 62291
ب 62283
▁dahil 62282
▁предусмотренных 62278
lemek 62266
▁ц 62250
һын 62248
ҙан 62234
▁James 62231
▁cür 62227
▁gündür 62224
▁seems 62222
▁Жан 62204
рады 62203
▁Ministry 62184
▁прежде 62176
▁öner 62166
▁председатель 62133
▁Ошондой 62119
əs 62116
▁Xudo 62113
ulmuş 62110
▁располож 62103
абыз 62090
▁Mike 62087
▁history 62085
▁яки 62084
▁поговорить 62078
▁artır 62075
▁Ас 62075
▁Qonun 62066
▁basit 62059
mektedir 62055
▁ваш 62047
▁тәртібі 62040
▁учет 62039
▁компании 62022
▁görüntü 62019
mayacak 61998
▁информацию 61988
вали 61985
ımızın 61975
ғанда 61954
▁Dem 61922
▁dinle 61918
▁өмір 61913
чных 61911
▁компьютер 61899
▁amal 61896
▁всей 61891
▁Biliyorum 61888
▁продолж 61886
▁əs 61882
ps 61875
▁alive 61874
▁barədə 61866
▁research 61861
▁results 61854
iyati 61847
▁miss 61846
▁шағын 61835
▁yalnızca 61831
▁Этот 61824
ilerini 61816
▁Sar 61809
▁социальных 61808
▁La 61806
▁пулас 61805
▁жою 61791
ғыш 61779
▁зан 61771
▁Mad 61767
▁seem 61760
ть 61759
▁Uning 61754
▁projects 61744
ует 61740
▁долго 61740
duğunu 61733
ілді 61728
сенчен 61711
▁Zaman 61711
тив 61709
▁Ot 61705
▁Скажи 61699
eks 61697
ısını 61691
▁Соглашения 61681
▁Үк 61671
▁сред 61669
▁onlarla 61666
eter 61654
▁merkez 61652
ently 61644
▁Which 61641
▁memnun 61632
▁такого 61632
▁keç 61627
▁аумақтық 61625
▁tayyor 61619
▁worth 61611
▁США 61611
▁айнал 61591
▁важно 61589
▁бед 61582
▁пай 61579
▁пысӑк 61573
▁dersin 61570
▁өк 61568
▁yuzasidan 61558
жение 61541
▁среднего 61538
▁жауап 61533
tif 61523
▁bay 61518
▁düşünüyorsun 61498
▁ettir 61482
▁баб 61473
▁Benimle 61466
▁Air 61458
▁агент 61458
▁çocuğu 61449
▁мероприятия 61447
ают 61445
▁Олий 61434
▁ئى 61416
ıt 61414
▁бак 61414
▁Bırak 61409
▁olmaq 61407
▁doctor 61406
▁говорят 61406
▁членов 61404
▁технология 61402
مى 61392
▁Ос 61369
▁alıp 61364
▁Правилам 61364
▁gulluk 61363
▁perfect 61359
▁qarshi 61354
▁повышения 61345
act 61343
▁лес 61342
дап 61339
▁Ата 61338
▁prices 61324
▁ЭКСПО 61316
▁vermiş 61310
▁конечно 61292
tür 61286
▁өзгеріс 61280
▁кайнӑ 61255
▁хут 61251
тӑр 61238
▁ئا 61236
▁evlat 61233
ительный 61226
▁назна 61226
үндө 61221
▁Кам 61220
▁баспасөз 61215
▁teslim 61212
▁biliyoruz 61210
▁ez 61202
▁according 61194
▁hair 61192
▁ettik 61185
▁red 61180
▁telling 61176
▁вопросов 61176
▁faoliyat 61171
▁ая 61171
▁раньше 61161
▁Kitabın 61137
▁isim 61134
▁целью 61114
▁sw 61111
▁يەنى 61106
▁штат 61102
әб 61098
▁тунӑ 61094
▁ayrı 61082
▁министрл 61081
▁Overview 61079
fa 61076
пы 61069
▁Yarın 61059
eyle 61051
деу 61045
▁жөнінде 61045
▁olmasını 61035
▁pick 61029
▁Məsih 61018
▁пулма 61006
ону 61005
▁Уз 61003
▁требованиям 61000
▁науки 60999
▁сөй 60989
meyecek 60985
▁пӗтӗм 60981
ersin 60969
▁resul 60960
osi 60954
▁bes 60932
▁Witnesses 60912
▁language 60908
▁wagyz 60906
елері 60902
▁dans 60888
▁Ресей 60883
ha 60878
▁ҡар 60870
▁асыратын 60867
▁приход 60865
▁сум 60863
ric 60852
▁quv 60838
▁государственное 60836
айтын 60830
▁сил 60815
▁Управление 60809
▁Eve 60786
▁TR 60784
oss 60777
сат 60776
▁анда 60767
▁Oda 60762
▁di 60752
▁як 60744
▁durumu 60736
▁ха 60736
▁чейин 60736
▁Оның 60735
▁Христос 60728
▁тиклем 60697
ушылар 60692
▁Kap 60692
▁тарат 60688
etin 60686
дарга 60664
▁məhəbbət 60626
▁ýa 60620
никами 60615
ционные 60612
▁Ләкин 60603
▁eg 60602
▁дайындау 60601
▁sad 60598
яться 60595
▁Чтобы 60578
▁yor 60577
▁думаешь 60569
▁non 60560
▁Sorry 60552
▁attention 60552
▁раздел 60548
▁enjoy 60535
▁хотела 60534
▁земель 60528
кы 60520
▁Kötü 60504
▁Word 60497
▁Разве 60497
▁hate 60486
▁заявления 60484
▁любовь 60482
▁бүл 60465
еү 60462
▁istey 60449
▁Hangi 60447
▁аталған 60436
ләренә 60432
▁Агентства 60420
▁филиал 60419
▁Сондай 60384
▁sifatida 60367
▁әзірлеу 60364
▁tax 60360
атӑп 60359
line 60357
маған 60347
▁жат 60342
▁sick 60331
▁Вам 60317
▁мисал 60298
▁kom 60296
▁центра 60294
▁отношений 60284
▁мат 60279
▁heavens 60274
maydi 60252
▁өту 60250
ениях 60247
▁po 60245
▁ibadət 60244
▁орталығы 60228
▁кит 60205
▁азаматтық 60180
▁тӑрӑш 60180
▁Mas 60178
але 60174
abilirsiniz 60173
ирован 60169
▁бардык 60160
yz 60142
▁det 60141
dilər 60136
▁dış 60133
▁говорится 60121
▁thou 60115
▁mısınız 60103
▁etdiyi 60088
ӑв 60084
▁dep 60076
▁тәртібін 60074
сі 60069
▁etmez 60053
анию 60052
еты 60052
▁Qoraqalpog 60032
ığım 60031
▁өнім 60027
атели 60021
▁sonraki 60018
▁sözleri 60017
▁Министерству 60012
▁Ман 59995
▁приказ 59992
▁соответствующих 59984
▁ھ 59983
▁bax 59981
▁әрбір 59978
ализации 59974
<0xA2> 59973
маны 59971
▁self 59945
▁Әгәр 59945
▁Plan 59939
▁işleri 59928
sı 59925
ственный 59910
enden 59886
▁Ger 59884
▁əzab 59883
atlarini 59882
▁Kazakh 59870
▁د 59855
▁soh 59851
lamış 59846
▁Мой 59845
▁Listen 59841
lis 59837
▁второй 59831
oya 59816
▁шеңберінде 59811
▁Ə 59794
газ 59792
▁işlem 59784
▁аса 59781
▁kaynak 59757
▁faoliyati 59754
▁Teşekkürler 59752
bo 59751
▁кеңес 59750
▁istifadə 59746
▁ретте 59741
▁отдела 59739
▁көрсеткіш 59733
▁eşit 59730
▁заменить 59718
тӑм 59710
▁анықтау 59705
▁результате 59703
adagi 59695
мал 59691
▁пров 59687
тора 59686
▁аркылуу 59686
ganda 59675
▁пять 59671
▁olsaydı 59670
▁поддержки 59662
indir 59654
▁составляет 59654
▁brothers 59649
удан 59635
▁tkaz 59631
▁olma 59621
▁тух 59609
▁үст 59589
hour 59567
▁Пред 59565
▁col 59558
дав 59545
▁өзүнүн 59538
▁пурӑн 59535
▁trouble 59514
▁kok 59507
▁ауру 59503
daş 59494
▁Paris 59490
▁provide 59490
▁Тер 59470
рия 59467
җ 59453
▁тау 59452
▁абзац 59446
ият 59434
▁тас 59432
▁Ҫав 59431
бар 59430
▁korkunç 59427
ысқа 59416
▁Res 59414
▁doldur 59408
iyorsunuz 59406
OM 59403
und 59396
▁işini 59386
▁мм 59377
▁караш 59372
▁Domain 59370
▁Sch 59369
▁inv 59366
▁relationship 59355
▁принять 59350
▁bekle 59345
руп 59338
▁Annem 59334
▁энергия 59332
▁lie 59331
ıyı 59330
▁друга 59327
▁Тем 59325
▁available 59318
▁Fr 59312
▁сыртқы 59312
▁социально 59306
كى 59300
▁қау 59299
▁өндіру 59295
әһ 59291
▁düşünc 59287
ствия 59280
▁есебінен 59275
▁miydi 59255
▁төлеу 59250
▁меж 59249
▁бірге 59235
▁органдарының 59235
▁kav 59228
▁чөнки 59223
▁foreign 59221
▁Правительством 59209
▁str 59208
▁large 59198
ilib 59189
▁мистер 59164
▁Moses 59162
▁xorijiy 59160
▁offer 59156
▁тӑрӑх 59145
▁yapmam 59144
▁руководителя 59143
▁қат 59143
gen 59140
▁Башкирии 59133
▁Dav 59128
▁Joe 59119
▁күрсәт 59113
lərinin 59108
▁hamkorlik 59088
▁необходимости 59085
кел 59083
tor 59061
▁fotoğraf 59059
▁кеден 59058
▁карт 59056
дердің 59028
▁herif 59028
▁somebody 59015
▁процент 59011
▁определяется 59004
▁members 59000
▁метод 58987
▁қу 58976
ылыш 58969
усь 58962
▁пожалуйста 58955
▁алаң 58944
▁receive 58922
▁jamoat 58915
▁born 58913
▁вообще 58902
▁жобасы 58890
▁tutuk 58863
▁кир 58839
▁birbir 58833
▁знач 58832
▁весь 58822
bet 58819
кую 58816
▁evidence 58807
▁проблемы 58805
<0x84> 58801
▁Min 58785
▁Rəbb 58759
▁хӑ 58758
ованных 58751
гар 58747
▁yıldır 58743
▁аркасында 58741
▁юридических 58733
▁hoşlan 58728
ҳ 58723
▁строительство 58707
▁уполномоченным 58694
▁Sigara 58688
ителями 58686
▁yours 58685
▁sevg 58677
▁og 58673
▁саласында 58666
▁adını 58664
ырт 58661
▁государственным 58655
▁Uy 58651
▁çyk 58644
▁құрал 58638
▁Geçen 58636
▁Everything 58635
▁kayıt 58630
▁Департамента 58629
▁предложения 58621
▁кадров 58619
кими 58602
▁Ба 58602
▁Ta 58593
керлер 58590
▁fırsat 58583
▁толықтырулар 58579
дығы 58570
▁barış 58569
▁aşağı 58566
▁edib 58552
▁указанных 58546
▁Салық 58529
сер 58521
▁вӑхӑт 58518
▁аткар 58507
▁Правила 58498
lanadi 58496
▁мас 58478
▁tav 58466
лив 58453
▁oğlu 58445
▁квалификации 58443
lap 58439
▁азамат 58438
▁долларов 58433
уң 58430
ole 58423
▁Pre 58417
▁Gar 58409
▁бирә 58405
▁месяца 58402
▁ұйымдар 58386
▁жұмыспен 58381
▁мекемелер 58380
▁будто 58378
▁үзенең 58368
▁чӗр 58351
▁сектор 58338
▁Ту 58333
▁Hudaý 58328
▁встречи 58327
▁sistemi 58323
▁Head 58313
eceğimi 58288
▁zevk 58288
▁Гайсәнең 58284
▁olmaya 58280
▁Sir 58279
adaki 58276
әсәк 58276
▁жағдайлар 58275
▁Порядок 58272
ming 58264
▁Солтүстік 58264
uyu 58254
▁Sev 58251
бас 58245
▁yerinə 58240
▁сүзләр 58236
▁congregation 58220
▁qilishga 58216
▁taklif 58215
▁случилось 58211
▁Since 58205
▁Министр 58198
▁промышленности 58197
orn 58188
▁olamaz 58188
ق 58185
▁расс 58172
дау 58171
▁министрі 58171
ants 58169
▁Com 58156
▁Yahovaga 58151
▁oda 58151
▁данные 58147
▁турат 58147
▁каче 58125
▁alohida 58112
irim 58106
ционный 58090
▁код 58081
▁өмүр 58080
▁тырыш 58068
▁worked 58066
▁жаң 58056
даш 58045
▁возможности 58035
▁Tak 58031
▁отчет 58011
lamaya 57993
▁формы 57988
▁prot 57982
▁Dar 57980
ome 57979
▁anymore 57975
▁бүт 57969
▁III 57954
▁isteyen 57948
▁enter 57943
▁ışık 57943
▁parking 57933
▁инвестиций 57927
▁birgalikda 57924
▁мою 57923
▁тонна 57920
▁sm 57916
▁conf 57911
▁кот 57908
▁starting 57906
▁yarış 57906
▁bolup 57901
▁әсер 57901
ىل 57892
овании 57886
▁longer 57883
▁выступ 57870
▁dün 57859
▁социаль 57858
▁tas 57854
▁тармақ 57854
oke 57849
▁varmış 57846
▁институт 57846
ӗп 57844
раш 57832
▁til 57818
▁довер 57817
▁Hala 57816
иру 57803
▁Lanet 57800
▁dream 57797
▁Per 57746
▁ресурсов 57739
▁субъектов 57737
▁басшысының 57734
arda 57729
▁masal 57728
түү 57721
▁матери 57711
▁Ав 57704
▁мерзімі 57699
ko 57695
ылу 57691
fer 57656
tığı 57652
▁хабар 57649
▁получить 57640
▁kişisel 57634
оны 57632
▁құрылысы 57630
терд 57614
сь 57612
▁науч 57612
qa 57607
atlari 57603
ҡан 57595
▁дополнений 57594
▁эң 57582
ире 57574
▁сбор 57574
▁bölg 57572
لار 57565
▁база 57549
mir 57546
▁сомасы 57540
▁ün 57538
▁Col 57537
▁Казахстане 57531
▁Ü 57529
▁Allahdan 57506
▁rep 57501
▁происходит 57500
▁дөнья 57487
▁ри 57480
▁Шуңа 57474
▁Satan 57467
▁insp 57451
▁umumiy 57448
▁Возможно 57445
▁yağ 57444
eder 57438
▁War 57434
▁etgan 57426
▁common 57425
▁path 57422
▁фак 57422
▁торговли 57416
▁act 57414
seniz 57409
▁Mak 57409
par 57407
▁duyur 57406
▁хӑйне 57406
стью 57404
▁зор 57386
иф 57385
▁OF 57384
EK 57383
ӑнса 57379
▁тураһында 57378
▁mıydı 57376
▁быстро 57374
▁saygı 57364
ләгән 57362
mayan 57359
▁giving 57359
▁Services 57356
▁tah 57348
▁bazen 57344
üb 57335
▁ес 57318
▁тексер 57318
▁шығ 57307
▁Mirziyoyev 57306
ола 57301
▁осуществления 57300
▁yuridik 57297
пар 57291
уры 57288
▁sn 57288
▁sakın 57285
алады 57283
жал 57278
▁yarın 57268
ору 57263
▁бор 57261
▁Тараптар 57247
▁məsəl 57234
▁lose 57225
ığına 57216
▁defa 57207
▁работать 57207
оты 57204
▁түскен 57189
ӗнчен 57169
▁pol 57169
▁private 57169
▁дети 57169
▁хотя 57168
▁действ 57156
til 57155
ave 57154
▁үлкен 57142
▁Tarifi 57129
▁alacak 57106
ости 57105
▁Başkan 57105
▁лицом 57104
▁туры 57104
▁sırasında 57087
▁ship 57084
▁оларға 57081
dek 57068
▁постановлению 57061
ilə 57043
▁лицензия 57036
▁акыл 57028
▁Üzgünüm 57022
▁pres 57019
▁Ray 57015
▁жолу 57015
ктан 56998
▁первой 56980
шар 56978
▁технолог 56971
▁процес 56962
▁Mah 56960
▁Shavkat 56955
▁пределах 56954
room 56940
▁Es 56939
▁төр 56932
▁наименование 56930
чь 56927
ches 56923
▁қойылатын 56921
▁твоей 56917
ье 56906
▁harakat 56906
▁обслуживания 56900
▁баст 56881
дон 56876
▁кара 56864
▁полностью 56860
▁Der 56858
▁altına 56848
▁участников 56813
▁ик 56800
▁yuqori 56798
▁liq 56788
▁вӑй 56780
▁karşılık 56779
▁жұмыстар 56778
▁olingan 56772
▁increase 56766
▁Call 56752
▁Утвердить 56744
▁понимаю 56732
▁стоимость 56726
▁afraid 56723
▁received 56723
▁шот 56721
▁хуш 56706
▁Center 56702
ope 56700
рех 56695
▁байланыштуу 56693
▁çarp 56690
▁вправе 56690
▁haqda 56679
ible 56676
▁yeterli 56661
▁yurt 56660
▁добро 56650
▁сколько 56650
▁задач 56647
ven 56642
▁kutsal 56629
▁ететін 56613
▁бизнеса 56611
AY 56606
so 56606
▁Was 56595
▁qishloq 56590
ıq 56584
▁судов 56580
▁чыг 56578
▁какие 56576
мон 56567
▁кабыл 56555
▁числа 56540
летт 56534
▁игътибар 56505
▁deyə 56502
▁норматив 56502
▁сезгә 56493
▁directions 56481
▁поп 56479
düm 56476
ОР 56463
▁adına 56463
luğu 56451
▁возложить 56450
▁görüyor 56441
▁Central 56436
алла 56427
▁Правительство 56423
▁kalp 56421
▁standart 56411
ishini 56410
▁Mesaj 56410
▁дополн 56410
▁халӑх 56408
▁убакыт 56401
▁органдардың 56396
ımızda 56392
▁Біз 56390
лим 56384
liy 56366
▁material 56354
▁эсӗ 56354
▁running 56348
дут 56344
▁ayrıca 56342
ованы 56338
▁оз 56326
▁sort 56323
▁center 56319
▁Астанада 56309
▁жедел 56301
▁Законом 56300
▁geldin 56295
▁пит 56287
▁должности 56273
▁сақ 56272
▁следующего 56272
▁çabuk 56269
▁above 56251
асындағы 56245
▁Nor 56241
▁kızı 56238
▁Жамбыл 56232
arken 56228
▁келет 56228
▁maksimum 56219
▁ettiği 56217
▁комплекс 56214
imden 56209
лӗх 56192
maktadır 56185
ісі 56161
▁takomill 56158
▁bahset 56152
▁YOU 56145
жол 56133
▁дорог 56130
▁ap 56110
▁жооп 56110
▁ge 56105
▁Та 56102
▁иг 56101
▁заместителя 56094
▁Привет 56092
руш 56090
▁ну 56089
ected 56087
▁gözəl 56082
тек 56070
▁taşın 56064
▁ufak 56062
▁сведения 56061
▁ph 56057
▁выше 56050
onun 56044
▁кому 56038
▁бит 56037
▁hesab 56022
стың 56006
▁глаза 55998
баева 55997
rey 55993
▁местных 55990
▁жазбаша 55983
▁дни 55978
▁финансирования 55971
▁Итак 55969
▁авыр 55944
شى 55938
▁Din 55918
▁көч 55914
ЕТ 55898
▁Part 55879
▁yetir 55873
ord 55871
▁tarz 55865
нам 55862
еке 55858
diy 55848
аются 55845
▁mitasi 55829
гъан 55798
▁исп 55796
ان 55793
larımızı 55790
xt 55768
eng 55763
▁henüz 55759
▁Аллаһыга 55759
▁yavaş 55748
алау 55745
иле 55745
▁çalışıyorum 55742
▁istediğini 55740
mäge 55738
yş 55729
▁осындай 55727
ces 55717
diğini 55713
ıc 55710
▁сына 55710
▁haline 55705
▁legal 55700
▁özellikle 55693
▁көл 55681
ателем 55675
что 55668
▁шат 55665
▁şeyden 55659
▁рынка 55654
▁happens 55643
tılar 55637
▁Web 55631
фер 55630
▁seks 55630
istan 55613
▁капитал 55613
▁servisi 55611
▁gösteriyor 55609
▁continue 55608
ious 55603
ательно 55603
▁документ 55598
çiler 55591
▁тӗл 55586
▁gur 55585
▁rather 55573
▁Ап 55570
дарында 55569
ымда 55562
▁dates 55560
▁болу 55560
▁Господа 55531
▁территори 55530
▁жылдарға 55522
▁deyir 55520
▁оч 55520
▁mazkur 55504
үз 55489
▁кес 55482
▁объяв 55466
▁bunların 55465
fi 55463
▁оқ 55461
щи 55458
юн 55457
▁сессии 55455
▁Эпир 55446
▁беретін 55444
аралық 55433
▁kelgan 55430
▁tash 55424
▁тасымалдау 55420
▁write 55418
▁ран 55401
▁Put 55394
▁нормативтік 55386
orat 55378
▁сумма 55378
▁мере 55371
▁gen 55359
sir 55354
▁бұйрығымен 55352
▁қадағалау 55348
▁ihtiyaç 55345
▁üret 55332
▁saf 55331
▁слу 55326
▁икән 55320
▁Türk 55304
dunuz 55299
▁güvenlik 55295
▁нә 55292
цу 55289
▁суммы 55286
▁burası 55282
▁kendisi 55279
▁zengin 55272
ladım 55258
▁Кай 55252
▁Қаз 55240
▁момента 55238
▁Only 55231
▁Pavel 55223
лери 55221
osu 55213
▁tatlı 55196
▁осуществляет 55181
▁үл 55171
▁koc 55162
▁айтты 55162
▁design 55147
▁сэр 55146
учы 55144
▁Çin 55137
ленные 55134
▁слов 55131
▁Эти 55128
igi 55111
евой 55106
▁int 55096
▁sözü 55094
▁изге 55092
шее 55087
ати 55082
▁Actually 55064
▁групп 55064
▁позднее 55064
іледі 55057
▁комитетінің 55056
▁yox 55053
▁gerçekleş 55035
рать 55031
дыру 55028
▁decision 55027
▁whether 55017
▁Председатель 55011
каз 55009
▁Настоящее 54996
есінің 54965
▁sik 54964
▁извест 54964
▁sayesinde 54959
▁алғанда 54953
ющая 54949
▁табылатын 54949
adım 54942
▁высоко 54935
▁gem 54933
▁әкім 54929
▁туса 54922
mıştır 54905
▁бөлім 54905
▁mark 54902
▁kalacak 54901
техникалық 54887
▁йӗр 54877
▁возмож 54873
▁acc 54858
▁председателя 54855
ушының 54834
▁site 54832
▁hesap 54825
ибиз 54822
▁marriage 54822
▁Uzun 54818
▁keçir 54814
▁zayıf 54810
ligiga 54804
▁Boy 54801
ction 54778
ира 54763
▁орны 54763
▁kech 54755
▁Umarım 54753
▁Комиссия 54750
▁символ 54739
▁кайбер 54738
сының 54735
▁Қостанай 54729
taki 54696
əsinə 54696
вой 54684
▁бөтен 54677
▁çiz 54676
▁Adults 54672
емым 54669
▁olduğum 54668
▁elbette 54656
▁Эгер 54655
▁Қарағанды 54649
ющими 54648
ple 54639
ınıza 54633
улер 54629
▁weeks 54626
ucu 54614
либо 54612
lığın 54592
ләрнең 54588
▁аларды 54569
▁құқығы 54550
▁бирок 54548
▁анық 54545
дуу 54541
аттары 54534
үбүз 54530
▁Тал 54528
▁стра 54525
▁gecelik 54518
▁kov 54509
▁murder 54503
▁Tekrar 54502
імді 54484
▁vazgeç 54476
▁яшь 54457
вед 54455
▁hata 54447
▁ettin 54438
lərlə 54425
жар 54424
▁Kol 54419
▁деңгей 54418
ke 54412
▁Gal 54404
▁kredit 54404
▁serious 54396
ita 54378
▁мать 54378
▁Hol 54372
▁keng 54371
фа 54364
▁бергә 54364
▁boys 54362
uyorsun 54356
▁cho 54356
▁жен 54334
▁земли 54332
▁берип 54329
▁System 54328
▁дос 54322
ences 54316
▁поч 54315
лерге 54310
▁ий 54308
▁soul 54307
▁station 54304
▁налогов 54301
▁ими 54293
▁yoz 54279
▁stupid 54277
▁тұлға 54247
алдық 54246
meler 54245
yor 54237
▁тұлғалар 54222
▁beyaz 54215
▁процесс 54215
▁мөлшер 54209
▁Yan 54207
▁Everyone 54206
▁Qur 54202
лено 54195
▁music 54193
▁завер 54191
▁force 54183
лардан 54178
▁Önce 54176
▁event 54163
▁position 54157
▁удив 54142
uman 54140
лены 54132
▁еш 54127
▁tartış 54117
леу 54108
▁ra 54085
▁Two 54082
▁ijro 54070
це 54066
ындагы 54051
▁усӑ 54051
▁çeşit 54048
tibor 54042
▁proj 54039
гіне 54033
чылар 54033
кат 54030
▁çıkart 54018
▁қағаз 54018
ушка 54003
tığını 53991
▁ahead 53983
▁мәліметтер 53981
▁ӗнен 53981
▁Konuş 53977
▁Geç 53967
рит 53965
oj 53962
овым 53952
▁üstüne 53941
▁hissediyorum 53932
▁hearts 53927
▁Аны 53912
▁кабул 53910
▁приказом 53906
▁Совет 53905
еті 53897
▁Allohning 53894
▁городского 53886
▁лә 53886
▁Isanyň 53870
▁создания 53870
oti 53862
▁ваши 53843
▁düşünür 53841
▁отраж 53828
bat 53827
▁существ 53824
ct 53823
laydi 53805
▁port 53802
▁düzgün 53799
ned 53797
▁kirit 53796
▁новый 53795
▁ئۇ 53785
adir 53784
▁whose 53772
▁Hatta 53767
elere 53760
ute 53755
▁Hak 53753
▁sadiq 53749
ives 53746
▁Et 53745
хана 53743
▁халык 53738
ска 53728
▁ravishda 53726
▁itaat 53702
▁Mo 53699
▁қаб 53686
▁During 53685
▁поз 53684
▁yaqin 53679
ك 53678
▁Ат 53675
▁coffee 53672
▁giriş 53667
▁osh 53661
ze 53655
▁виду 53650
ысына 53649
▁Bazen 53648
▁review 53644
▁everybody 53638
liklar 53626
▁қызметінің 53625
▁şarkı 53622
▁бумаг 53622
▁нужна 53610
▁gives 53604
ısına 53602
▁Jo 53600
alarının 53599
▁тұр 53599
▁Исанын 53597
▁уверен 53593
▁электрон 53587
▁уровне 53582
▁kulak 53580
▁sk 53579
pa 53578
тас 53578
▁ihtiyacın 53578
▁Білім 53565
lishi 53563
▁yemin 53559
▁mer 53550
▁areas 53546
ebilirsin 53535
▁Dinle 53535
▁Республик 53530
тады 53527
▁action 53523
▁satın 53516
üy 53513
▁увелич 53502
▁PR 53501
▁көтер 53499
ıydı 53492
mey 53474
.- 53473
ица 53469
▁участия 53469
▁tuhaf 53467
▁Istanbul 53461
▁үтә 53455
▁бұрын 53454
▁табыс 53437
▁mənə 53434
▁Eş 53428
ica 53427
▁Aman 53420
▁huzur 53420
▁sum 53412
▁ам 53402
▁видеть 53395
▁Үз 53386
▁ýer 53380
ықты 53376
▁хур 53372
Ұ 53368
▁аудар 53352
аҡ 53340
▁прост 53337
▁өмет 53336
▁söý 53334
yndan 53321
▁ettiğini 53320
ИТ 53312
ёл 53312
▁accept 53300
▁disc 53293
▁булмаган 53292
▁sonu 53286
▁began 53285
▁справ 53279
▁тен 53275
▁Ему 53274
emem 53265
▁US 53256
▁spend 53256
чного 53244
▁Location 53243
мах 53240
пӗр 53239
▁muhtemelen 53239
▁American 53233
▁направления 53233
▁pain 53229
▁хөрмәт 53225
mamı 53198
▁самое 53196
<0x94> 53194
▁кӗ 53190
ced 53181
убуз 53180
▁jalb 53180
▁sus 53175
▁Ақмола 53155
▁kurban 53152
▁neyse 53150
еки 53148
▁god 53136
ards 53135
▁Ау 53134
▁заман 53132
▁тұ 53131
▁tuman 53126
▁хис 53124
▁Great 53105
dılar 53104
вод 53101
▁road 53100
▁production 53090
▁Северо 53085
▁serve 53078
mı 53076
▁lay 53067
▁rev 53060
▁позвол 53056
ительное 53052
adık 53050
▁своем 53050
▁qism 53049
▁медицинской 53049
▁жазылсын 53042
▁tomon 53033
▁street 53022
▁general 53019
▁kardeşim 53011
▁yerinde 53002
▁китер 53002
▁өзгерту 53000
ственно 52995
▁гөнаһ 52993
▁табиғи 52988
▁Rom 52986
oloji 52956
▁Today 52955
▁özgür 52934
▁тіл 52934
тең 52930
▁Ведь 52929
ft 52922
▁yash 52922
---------------- 52919
дим 52897
▁Sol 52897
СТ 52896
▁Бел 52889
▁Заң 52883
ame 52879
▁Tim 52874
▁Ор 52862
▁maslahat 52861
▁yıldız 52861
▁South 52851
ier 52847
▁cavab 52840
▁утвержд 52839
▁kept 52838
İN 52819
▁тіркелген 52817
▁Tem 52807
▁запис 52807
▁dürüst 52802
▁gar 52800
▁доступ 52773
▁başlam 52769
▁нов 52764
▁Room 52759
▁Комитет 52759
▁hisobga 52755
▁қаржылық 52753
▁сохран 52750
▁Indeed 52744
▁texnik 52741
▁проф 52740
▁bek 52738
▁жазылган 52734
▁deep 52732
▁training 52727
ыма 52724
▁doğum 52721
▁punishment 52720
▁Bill 52718
▁toplantı 52716
▁sever 52704
ыры 52698
ined 52692
▁allow 52681
▁бағытталған 52675
▁нан 52659
unt 52656
▁қандай 52656
▁arasındaki 52652
▁хә 52634
▁şirket 52617
▁хотите 52611
▁value 52601
▁king 52596
▁Tar 52592
urlar 52585
▁ey 52585
▁dinner 52574
▁ediyorsun 52568
нес 52566
▁Henry 52560
▁hospital 52560
▁gördük 52553
▁gücü 52550
рип 52532
▁вос 52531
▁каб 52521
со 52519
▁doir 52505
▁килә 52502
вого 52493
▁потреб 52491
ook 52487
▁асыруға 52487
▁bolar 52477
▁protect 52477
альном 52475
▁выз 52472
▁мөр 52468
▁нельзя 52460
▁илчӗ 52457
▁ümid 52452
kar 52450
▁тауарлар 52449
▁sıkıntı 52437
▁indi 52436
▁валют 52433
▁feeling 52431
селәр 52424
ford 52404
▁Biri 52395
over 52387
ствовать 52384
ету 52383
▁вещи 52376
▁approach 52375
▁изделий 52375
▁Даже 52373
ступ 52368
▁заказ 52364
▁Həqiqətən 52358
▁Сол 52355
▁West 52354
▁tal 52350
abilecek 52347
▁связ 52345
▁loved 52339
▁БР 52338
мақ 52335
▁House 52329
uyorum 52323
▁Pek 52323
▁qay 52321
▁ئۇلار 52313
▁dear 52310
▁тууган 52307
ID 52306
ij 52299
oda 52296
чные 52295
dem 52286
ardi 52285
▁обла 52278
▁niye 52276
ток 52270
posta 52268
▁yapıl 52262
▁hujjatlar 52259
▁ҫур 52258
▁Ра 52257
▁пайгамбар 52253
▁Mart 52252
▁директор 52249
▁bayan 52247
▁тав 52238
▁төп 52237
▁кру 52230
meleri 52228
▁есепті 52223
таш 52216
ысының 52206
▁kalb 52200
▁Açık 52197
ляется 52194
▁тапсыр 52193
нок 52187
لىرى 52182
▁elektron 52178
▁səbəb 52178
▁getirdi 52175
▁основ 52169
▁имеют 52163
лож 52161
▁sadık 52158
▁Hav 52153
▁ming 52151
▁DNA 52144
үң 52135
▁правила 52130
ira 52126
▁невер 52121
▁adlı 52118
▁entire 52114
▁kanun 52113
▁төз 52112
ying 52111
▁рез 52101
▁tarifi 52097
▁орындалуын 52093
▁обеспечению 52092
▁ancaq 52089
▁размер 52084
▁Contact 52082
▁Red 52077
▁deli 52065
▁өте 52063
▁тұрған 52062
ığında 52057
▁обязанности 52043
▁асырыл 52041
▁cesaret 52035
▁Мемлекетт 52033
▁decided 52029
LE 52021
ender 52020
▁buyur 52020
urs 52015
▁бөлу 52013
чин 52010
▁Ага 52007
▁мам 52007
ула 52000
▁gerekli 51988
▁verecek 51979
▁құрылымдық 51976
▁tehdit 51975
▁приказа 51975
▁мил 51974
▁white 51973
▁предоставления 51973
imizda 51971
▁енгіз 51962
▁poor 51960
▁chet 51921
▁барып 51919
▁Петр 51912
▁кас 51911
▁рав 51906
▁rapor 51904
▁килӗш 51902
ەر 51901
net 51897
▁эшләргә 51891
▁aren 51886
▁onay 51883
▁нужен 51881
▁словам 51870
▁almaya 51864
изм 51863
уж 51860
ьте 51860
▁анализ 51857
▁olduğun 51856
ителям 51847
▁Yaz 51846
▁tashqari 51839
▁объем 51834
▁қаласында 51834
▁birlik 51826
▁Азия 51825
иев 51817
▁cin 51807
▁purpose 51806
rak 51804
экономикалық 51804
▁kral 51799
ğinin 51795
шылар 51788
▁ball 51787
▁указ 51784
▁beden 51779
he 51769
▁View 51766
▁araya 51762
▁месяц 51747
▁вес 51739
▁животных 51737
▁люблю 51736
▁знаем 51729
▁артық 51719
▁партия 51715
▁әуе 51704
▁asking 51700
▁информационных 51690
alarining 51682
▁sona 51678
▁fall 51668
▁başlay 51661
▁приобрет 51652
▁районов 51642
▁каз 51636
▁olacağım 51619
▁başlat 51611
▁faithful 51596
лері 51591
▁Ba 51575
▁посвящ 51567
▁Şeýle 51562
▁mahalliy 51556
▁signs 51552
▁hizmeti 51551
▁скоро 51550
lərindən 51547
▁создание 51540
пай 51538
▁собствен 51529
▁Boş 51525
▁Beş 51512
▁Cam 51512
▁söyl 51507
▁белем 51507
▁узнать 51506
▁жазган 51500
▁предприятие 51497
▁bolan 51488
▁tapın 51478
быҙ 51474
енно 51473
▁указанием 51469
▁faqat 51465
▁teach 51459
▁вӗҫ 51459
tkaz 51447
▁Значит 51428
▁көргөн 51417
▁low 51410
▁необходимых 51404
▁ekanini 51403
▁жағдайларда 51384
▁отсюда 51375
▁қалыптастыру 51373
ается 51371
лығын 51366
▁раза 51362
▁налога 51359
lacak 51357
▁школа 51345
кур 51344
▁кешен 51343
▁kem 51339
▁mod 51336
▁уның 51322
▁бесп 51307
▁dök 51288
нику 51281
▁тул 51278
acy 51277
▁тытса 51268
▁hang 51263
▁бизди 51262
▁booked 51258
▁oshir 51253
▁Haritayı 51250
▁студент 51248
▁тәртіппен 51244
▁İk 51237
▁yoldan 51235
▁последние 51232
▁Captain 51229
kor 51222
▁doirasida 51212
ителем 51211
uh 51194
зд 51193
ере 51192
▁подразделений 51192
▁gidelim 51191
▁указывается 51183
▁aram 51181
▁büy 51174
ilishini 51152
▁page 51150
▁Sən 51148
eci 51140
▁gösterir 51129
▁Ошондуктан 51126
есіне 51119
▁Слушай 51112
▁News 51094
▁дагы 51089
oning 51081
<0xA1> 51055
▁Çalış 51050
▁capital 51047
▁Konum 51044
▁ғылым 51038
▁тӑван 51036
▁artıq 51035
імдер 51032
▁alıyor 51030
іш 51018
▁басты 51010
▁халық 51010
▁ночь 51000
▁настоящее 50998
▁пом 50995
▁sog 50993
▁Bat 50992
maga 50978
▁принятия 50976
▁совета 50968
▁oshiriladi 50955
larımı 50945
▁kend 50943
▁і 50938
дии 50926
▁част 50925
غا 50920
▁итогам 50916
Ц 50914
▁Бір 50909
▁cell 50900
onu 50899
▁Рас 50897
унда 50892
▁қара 50875
▁қай 50860
▁конкурс 50859
ulu 50853
get 50850
▁interest 50849
▁Wh 50838
▁güc 50833
▁Кан 50816
ار 50815
▁руководитель 50814
isinde 50804
▁Туррӑн 50804
▁землю 50803
▁kendisine 50800
стр 50794
ственным 50793
▁разв 50793
▁бирге 50779
▁hastalık 50771
▁име 50770
▁katil 50769
▁third 50769
▁court 50767
▁Noel 50762
▁elə 50758
▁кір 50741
ending 50738
▁реш 50735
▁Stop 50729
▁директоры 50727
▁cost 50723
▁своими 50712
ница 50711
▁nəyə 50710
▁партии 50710
▁роль 50693
▁проведении 50676
эт 50674
▁tug 50674
▁Cal 50670
▁дөрес 50659
▁таасир 50657
ентов 50655
▁конкурса 50651
▁Keep 50638
lanır 50637
▁ruhy 50635
▁Вӗсем 50633
▁беренче 50633
▁forth 50613
üc 50602
▁Денсаулық 50597
▁IV 50596
▁Халықаралық 50588
teki 50581
tgan 50567
▁cool 50562
▁Mor 50560
еф 50559
▁konuşuyor 50557
▁Олар 50557
üsü 50552
ғына 50550
▁İnan 50533
▁елдер 50533
▁Сал 50527
▁система 50526
риб 50518
▁ерекше 50517
▁Жол 50509
▁tik 50504
ST 50495
▁Söyle 50492
▁Önemli 50471
▁Сез 50468
▁nazar 50466
▁сөздөр 50461
тарында 50459
▁create 50458
▁Public 50456
▁қойылған 50455
▁эксплуатации 50451
анов 50450
▁изменениями 50447
▁muhofaza 50445
чан 50442
▁gelin 50426
▁культур 50426
asıyla 50424
етті 50422
чив 50410
▁gas 50409
▁oradan 50406
▁edebil 50398
▁looked 50394
▁говорю 50391
▁Давайте 50386
ОН 50385
▁text 50385
▁нос 50380
▁changed 50368
чат 50359
▁Kay 50355
▁space 50351
▁eye 50350
▁foiz 50349
тармағында 50348
▁Haber 50310
▁feet 50308
▁куб 50303
▁percent 50298
▁ü 50296
уды 50293
asidan 50290
▁straight 50285
▁разрешения 50282
▁сети 50279
▁hayatım 50275
▁nde 50267
▁былай 50249
▁ain 50248
▁duruyor 50248
▁Турра 50245
▁ремонт 50240
▁favor 50239
▁өнд 50233
▁идти 50231
▁Мажлиса 50230
▁департаменті 50226
ело 50209
▁gift 50208
▁Ros 50207
▁Май 50206
ru 50205
енты 50204
▁жүйесі 50201
▁проверки 50191
▁hom 50185
▁gowy 50172
ЕК 50168
▁trip 50158
▁эк 50158
res 50154
▁attack 50131
▁Зап 50131
▁такая 50126
▁Сот 50115
▁gösterdi 50111
▁mil 50111
сак 50098
ingizni 50094
▁bitti 50088
▁diýdi 50085
▁edýän 50081
▁xoş 50078
нары 50077
▁based 50070
▁облыс 50065
▁etmem 50062
▁bilg 50061
▁Dev 50056
▁karış 50054
▁hayatını 50051
▁etsin 50049
▁Europe 50048
маг 50036
form 50027
▁окружающей 50023
▁Niye 50008
▁sab 50008
▁етуге 49991
▁dönem 49988
▁жаман 49985
усылар 49984
▁train 49983
▁birinci 49982
▁рядом 49973
▁обязан 49971
liyor 49967
imizning 49965
бат 49951
▁близ 49950
▁расчет 49937
▁öğüt 49928
▁определен 49928
▁ответственности 49925
ove 49922
▁меншік 49917
eck 49916
▁Çocukların 49915
ланды 49893
▁есеб 49892
▁yapabilir 49891
▁ederek 49889
amay 49886
лений 49884
▁Dubai 49883
gün 49882
▁большой 49876
▁сразу 49864
▁Воз 49861
сек 49856
▁вход 49853
▁kural 49850
▁перспектив 49846
▁ие 49843
mail 49841
meyen 49834
▁системе 49831
▁сни 49828
əb 49808
▁olduğumuz 49801
▁огранич 49797
▁geldik 49790
ites 49788
▁основных 49787
▁кеткен 49778
▁shaxslar 49774
ebilirsiniz 49767
▁across 49762
аний 49752
▁Ph 49751
▁абдан 49741
edik 49740
әү 49735
▁таможенного 49735
▁организациями 49730
▁mah 49719
▁oluş 49718
aka 49715
▁келеді 49711
▁нового 49701
allar 49699
▁elektr 49694
ланы 49684
cing 49675
▁треб 49672
▁sabab 49668
▁кеп 49667
▁Fiyatları 49661
иләр 49646
▁ылайык 49642
ardım 49638
madım 49630
▁thee 49628
▁kıs 49624
▁af 49621
▁sanıyordum 49617
▁cemaat 49616
▁торгов 49592
ири 49577
▁mor 49573
▁пап 49552
ющихся 49549
▁Petrus 49545
roq 49535
▁Те 49534
ote 49533
вин 49532
ЕЛ 49522
▁мақсаты 49507
▁mos 49505
▁две 49499
You 49496
▁EN 49495
▁jamg 49495
oş 49490
▁Transport 49485
▁log 49480
▁часто 49479
▁тарату 49471
▁Duy 49470
gar 49464
▁lady 49457
əq 49453
▁necessary 49452
▁Шар 49437
udur 49428
▁одним 49424
▁asıl 49423
▁алыр 49413
▁Savaş 49407
malısın 49406
▁Nothing 49406
▁mission 49397
▁sən 49394
▁müqəddəs 49393
▁Bəs 49390
▁pool 49389
▁Non 49383
▁Астане 49381
▁фото 49376
енными 49372
ительным 49371
itor 49359
▁erken 49359
▁помощью 49358
▁Find 49342
olu 49339
овали 49339
▁ақпаратты 49338
▁представителей 49337
▁организация 49336
▁believers 49328
▁gö 49325
▁ҡала 49320
ücü 49319
dük 49311
layacak 49311
▁башкаларга 49309
тем 49307
ывается 49281
▁си 49279
▁ip 49274
▁Уфе 49274
▁апостол 49273
aydi 49267
еден 49267
нь 49263
▁floor 49263
▁глав 49259
▁diş 49258
▁ағ 49258
▁addition 49257
▁китерә 49257
▁bilin 49252
▁Язмалар 49252
▁gü 49250
▁башкар 49250
ries 49249
енном 49239
▁tra 49237
▁final 49235
▁размещ 49232
▁қауіпсіздік 49227
▁даты 49213
▁зейнетақы 49212
▁touch 49204
▁кешеләрне 49197
aý 49174
▁xeyir 49157
▁кен 49154
ster 49146
elen 49145
▁мө 49143
ələri 49124
▁регион 49115
▁muassas 49106
▁орналастыру 49104
irlər 49103
▁eminim 49096
▁пӗл 49094
▁теп 49085
▁olanı 49083
que 49082
▁Maximum 49082
▁ismi 49082
▁внутри 49078
▁ikna 49074
dınız 49073
ляются 49072
▁аумақ 49071
тандыру 49069
▁нык 49059
▁pe 49057
▁Халық 49056
▁государственном 49055
▁бөтә 49054
▁заседания 49054
ущ 49049
▁защите 49048
▁охран 49045
▁перевоз 49041
▁davom 49036
adilar 49034
▁hissed 49020
sat 49019
▁olmay 49008
▁girdi 49006
▁калаҫ 48998
oid 48997
▁аппарата 48981
▁отца 48979
▁Банка 48967
▁choice 48965
▁balık 48958
ович 48951
чка 48950
▁алма 48948
▁технического 48945
▁edirdi 48940
▁хәтта 48937
▁жерге 48934
▁involved 48931
▁tanrı 48929
▁жүйесін 48929
▁бухгалтер 48921
▁жоспарлау 48919
▁Пос 48914
▁бірі 48910
▁şunları 48908
▁взаимодействия 48897
▁киши 48887
▁Open 48886
▁практи 48882
▁сур 48876
▁увидеть 48874
▁AB 48872
▁достаточно 48871
▁истории 48870
▁etadi 48865
▁пой 48859
▁güneş 48856
▁услугополуч 48851
▁birden 48846
▁движения 48846
▁заключения 48839
▁құны 48830
нил 48827
▁Alan 48825
▁күңел 48818
▁olmasına 48813
▁rad 48804
▁мүлік 48792
▁China 48788
ести 48787
ually 48775
ующего 48774
▁olmadığı 48766
ığa 48763
▁духов 48739
▁твоего 48739
▁кәрәк 48738
▁hasta 48731
өс 48730
▁доп 48727
тарса 48724
тегі 48721
▁Evcil 48721
▁kelish 48705
iki 48699
▁представля 48699
▁хуп 48688
▁adama 48686
ҙән 48669
▁Çık 48664
▁gelince 48655
▁saylov 48653
аларында 48637
▁Hong 48632
▁финансовых 48629
▁yaxın 48618
medim 48616
▁инфраструктуры 48616
▁таза 48615
▁metre 48610
▁Hoş 48596
▁ду 48587
▁Back 48583
▁önceden 48582
▁гран 48573
▁заключ 48571
lilik 48568
▁sometimes 48568
▁құрам 48565
▁тиімді 48560
▁Qo 48556
торов 48541
▁отрасли 48539
▁улам 48538
▁стало 48515
▁picture 48512
▁терең 48511
▁одну 48506
ğimizi 48496
ӑннӑ 48493
ДА 48490
▁arkadaşı 48490
атпӑр 48483
▁дополнить 48483
AP 48478
талған 48477
▁пух 48470
▁Язмаларда 48468
▁aşk 48466
▁Каракалпакстан 48446
▁doğrul 48440
▁Dir 48433
▁arz 48431
▁maqsad 48428
▁drop 48424
▁сел 48420
іміз 48409
▁осуществля 48408
▁ilaç 48399
▁yili 48395
ended 48379
▁Mus 48379
▁Dersin 48375
▁Nick 48373
▁Закон 48360
memi 48359
▁obyekt 48353
▁класс 48351
▁söyledin 48350
▁köpek 48347
▁bah 48334
▁apartment 48329
▁каждой 48328
▁Çek 48321
▁dünyaya 48319
▁içki 48319
▁Mac 48318
▁айыр 48312
▁xəbər 48309
▁лауазымды 48307
▁язган 48306
ray 48305
▁басқар 48301
▁türlü 48279
▁göndər 48276
manız 48270
▁Гал 48263
тат 48257
▁уровень 48254
▁жин 48253
▁сир 48247
▁forever 48245
▁bulunmaktadır 48236
▁products 48233
▁җавап 48233
▁китап 48230
▁тура 48227
▁construction 48226
irish 48225
دۇ 48218
▁вӑхӑтра 48217
▁настоящих 48213
ekt 48208
▁определения 48205
lashtirilgan 48204
▁Giriş 48203
دۇر 48201
▁производство 48200
▁Danny 48198
▁табыл 48197
▁саясат 48195
енная 48180
▁Merkezi 48178
ланып 48176
▁cover 48172
▁ескер 48172
▁новые 48169
▁ишеним 48166
теу 48165
▁bekliyor 48163
ылық 48158
▁технологиялық 48146
▁America 48145
▁leaving 48142
د 48140
ғының 48132
▁Telefon 48127
▁değerli 48122
ətli 48120
ılık 48119
▁майланган 48118
▁altın 48116
▁paid 48112
atlarni 48110
ологии 48105
▁kitob 48095
▁айтуынша 48090
▁кире 48087
erler 48086
чный 48073
▁дев 48072
▁sırada 48069
▁keltir 48060
▁daxil 48058
gini 48049
▁political 48047
ənin 48037
▁вӗсен 48021
▁соб 48018
ателю 48017
▁Nazarbayev 48017
▁кедендік 48013
анием 48010
▁истин 48008
рок 48001
▁Hello 48000
▁уақытта 48000
яются 47996
▁установ 47991
▁ур 47986
tive 47977
ibi 47974
▁қатысу 47968
▁yilda 47964
▁выда 47964
▁объекта 47960
▁құрайды 47956
▁ша 47953
itch 47939
▁dedik 47936
пи 47933
алу 47919
▁tabi 47917
▁выраж 47916
▁IT 47915
▁измен 47908
▁ответствен 47899
▁boshqar 47898
▁Yüksek 47897
edim 47892
▁пок 47891
▁önceki 47889
▁базы 47883
▁рассмотрения 47882
▁rej 47880
сӗр 47874
▁цвет 47869
ece 47868
▁due 47868
ano 47866
ага 47866
атив 47846
ниң 47828
▁cl 47824
▁sağlık 47824
▁kısmı 47822
▁wagt 47819
▁улар 47819
бей 47817
işi 47815
▁ост 47811
▁honor 47803
ляют 47798
▁Fer 47797
▁Excuse 47793
▁рус 47787
▁Машаяк 47782
▁орман 47773
▁jaligi 47764
▁adamım 47755
▁сирӗн 47753
▁постоянно 47743
▁алушы 47741
лаў 47737
ственное 47732
▁difficult 47732
▁яктан 47729
емый 47727
ls 47721
айся 47714
▁данного 47709
сү 47708
▁cap 47699
аттарды 47698
▁кірістер 47694
▁следующие 47691
▁figure 47690
▁konum 47687
lashga 47686
▁tartibi 47683
▁Мұ 47669
tain 47668
zo 47663
үнөн 47662
▁trade 47661
▁soni 47658
▁көрсөт 47657
▁баары 47655
▁derler 47649
▁бұ 47640
▁function 47635
▁bağlantı 47629
▁ayt 47628
imizde 47621
ида 47621
▁etkil 47617
▁adv 47610
ury 47608
лена 47601
▁ирт 47595
itt 47594
▁resim 47581
▁итте 47580
▁Китепти 47579
üme 47572
▁Rezerve 47570
▁мыс 47570
ığınız 47563
▁берилген 47559
▁olanları 47549
▁знаком 47549
▁өй 47528
▁кеч 47523
▁түшүн 47520
скими 47517
никам 47516
ствует 47512
▁reported 47508
▁рублей 47507
▁yapacağım 47506
▁Kesinlikle 47505
▁идет 47504
▁бағдарламалар 47485
▁понять 47467
имых 47465
▁лицам 47451
ects 47441
▁Ад 47440
▁sənə 47423
▁уча 47417
lanishi 47408
▁разреш 47407
▁sözler 47401
▁бағдарлам 47397
▁Комиссии 47394
сия 47393
▁ірі 47393
▁pan 47387
▁опыт 47384
▁Cor 47379
▁beklem 47376
▁bok 47374
▁йәш 47360
▁Val 47358
esh 47357
▁сроки 47346
ood 47345
▁Polis 47333
▁қаулы 47333
▁твои 47330
▁verici 47309
amıyorum 47299
▁квалифика 47294
▁Hudaýa 47293
▁пунктов 47290
▁Var 47281
▁giden 47281
▁natij 47281
▁своему 47281
ال 47278
сенче 47276
езда 47264
▁электронной 47264
къ 47263
▁най 47248
руге 47240
ring 47232
▁internet 47231
▁сире 47229
▁жария 47228
▁ӑ 47228
▁himoya 47225
▁Albatta 47218
егез 47211
▁алыш 47208
▁Sanki 47205
▁bununla 47205
nom 47204
▁bilgisayar 47192
▁дейт 47182
ree 47172
ули 47168
▁leg 47159
▁expect 47156
▁haklı 47150
▁вӗрент 47147
ресс 47139
▁құрады 47131
▁bizga 47124
▁Message 47122
▁Ücretsiz 47121
▁руковод 47120
▁экспертизы 47114
▁преступ 47109
▁пула 47104
▁Has 47102
ebilirim 47098
▁tat 47096
malıyım 47091
▁heaven 47090
▁Benden 47082
▁Mag 47079
▁şüphe 47075
▁молодежи 47074
▁okum 47073
▁многие 47073
▁уст 47073
▁физ 47066
▁Давид 47062
▁социального 47053
иков 47050
▁булачак 47045
сең 47044
▁ettiler 47044
▁өрт 47033
au 47015
▁üstünde 47011
▁хран 47005
▁ishlari 47004
pan 47000
▁сообщил 46994
▁shoot 46988
▁очередь 46986
лич 46984
дж 46982
▁импорт 46972
▁derece 46965
▁huquq 46964
▁кеш 46962
▁идея 46958
▁yerini 46947
▁turli 46942
▁hatırlıyor 46939
▁Государственной 46928
▁адамдардын 46922
▁completely 46921
▁плат 46919
▁ə 46894
▁sug 46893
▁эффективности 46887
дыктан 46884
erson 46883
▁bulduk 46882
▁Жұмыс 46882
▁Сторон 46880
▁якын 46880
▁ху 46877
▁ground 46872
▁app 46868
eceğine 46867
▁Hall 46867
▁contact 46860
maly 46846
евич 46843
▁sayf 46834
нут 46833
▁комитеті 46831
▁уақыты 46828
▁специальных 46820
▁бюджетной 46819
mur 46813
▁другом 46811
▁лег 46811
▁fair 46810
▁делает 46806
▁новой 46803
▁использовать 46784
▁спор 46784
▁reward 46783
▁Выдача 46782
▁İstanbul 46777
ось 46769
▁kafir 46765
▁Konu 46762
ындай 46754
▁finally 46753
▁sing 46742
▁техники 46737
▁aldık 46736
meliyiz 46732
▁East 46728
езд 46727
▁нер 46726
▁gül 46721
лот 46718
▁Ağ 46714
liyi 46711
▁Tel 46711
amış 46708
▁Before 46705
▁қатысушылар 46696
▁құбыр 46696
lini 46694
▁dastur 46689
▁қан 46672
▁Big 46664
▁yanı 46661
▁shakl 46658
▁Перечень 46649
▁элек 46646
▁bojxona 46645
▁playing 46644
abi 46635
otlar 46635
▁till 46634
▁кешеләрнең 46633
▁Rus 46631
▁Ish 46630
▁seviyor 46618
▁повтор 46606
▁Uz 46597
▁Sun 46587
▁адамдарды 46587
▁yeterince 46586
▁deney 46583
irik 46581
ңар 46569
▁вырӑн 46566
▁архив 46565
▁sert 46561
▁языке 46549
▁dər 46544
▁Kadın 46543
▁muddatda 46538
▁seeing 46528
▁даа 46525
▁Fir 46518
▁yüzde 46517
▁решением 46502
▁решений 46499
өз 46496
▁ұсыну 46496
▁ba 46495
▁жа 46492
▁зем 46488
▁mamlakat 46486
▁müzik 46481
▁suçlu 46474
▁есептеу 46472
▁Dis 46471
▁собрания 46471
▁karşıl 46469
▁ئۈ 46467
oph 46465
▁grand 46463
bil 46460
aca 46455
▁aldın 46453
▁Боже 46446
▁Эм 46446
▁witness 46435
▁helped 46432
қыш 46425
▁pop 46421
▁medical 46419
▁build 46418
щика 46403
▁басқармасының 46396
▁әйтә 46396
▁процесса 46391
▁Израиль 46389
▁полит 46389
bol 46385
▁televizyon 46385
▁hisoblanadi 46362
▁çalışma 46362
▁низ 46362
ved 46353
ческий 46348
чки 46343
UN 46341
▁sene 46339
▁gurur 46332
▁aydın 46325
▁сумму 46309
оды 46297
▁üzerinden 46296
▁бос 46290
▁отказе 46284
mes 46279
▁ӗҫе 46276
▁yorum 46275
ney 46265
▁berbat 46265
▁будете 46259
▁обязательств 46256
▁həmin 46255
▁jismoniy 46254
▁Olar 46251
▁асп 46247
істі 46241
▁әзер 46240
▁ded 46232
▁ifad 46231
▁uc 46230
▁жеткізу 46229
▁viloyati 46226
▁платы 46224
▁kamp 46219
▁тугры 46217
▁орташа 46213
▁Анда 46211
чал 46209
▁gerçekleştir 46202
масы 46195
mal 46190
▁çar 46190
▁мама 46179
▁bey 46172
елле 46171
тарда 46171
▁digər 46164
iyy 46154
▁общ 46151
▁Vay 46146
▁ошондой 46146
▁кой 46141
▁управление 46140
▁Хотя 46139
▁жатады 46139
غ 46133
nal 46129
▁Aç 46111
беков 46107
eyen 46101
▁Yorum 46098
▁Amma 46097
▁bende 46086
ото 46078
▁babası 46071
▁башҡорт 46071
▁companies 46069
▁görmüş 46068
▁произошло 46068
▁ilginç 46062
▁жойылды 46061
мәс 46051
miyorum 46050
▁moved 46050
рали 46047
▁learned 46047
▁güvenli 46036
▁Inter 46033
▁sizinle 46027
оне 46026
▁жашо 46017
▁операций 46011
lumot 46008
▁инженер 46004
▁тру 46003
мәт 45996
▁кеңеш 45989
▁таңда 45989
▁заңнамасына 45986
▁тӑрать 45976
иза 45973
▁ян 45972
тө 45962
▁сообщили 45957
▁değ 45956
▁hap 45955
▁айтылган 45955
lığını 45954
▁uydur 45954
▁сы 45953
▁qolgan 45950
▁Оку 45950
▁partner 45948
▁yatak 45940
▁çay 45933
мый 45928
▁reg 45925
▁prayer 45924
▁yaşıyor 45918
▁вели 45918
▁hakk 45913
▁jamiyat 45912
▁keyingi 45911
изации 45904
elerine 45897
▁өзү 45888
▁ardından 45874
▁Ölüm 45872
▁встреча 45863
xon 45862
сында 45861
▁tushun 45860
▁zamonaviy 45860
▁станет 45859
▁kıl 45851
▁yuk 45841
▁uşaq 45830
▁біздің 45829
▁canım 45814
▁kalmak 45801
▁команд 45799
▁Тар 45798
дек 45792
asınız 45790
▁Еңбек 45785
▁herkesin 45784
▁здания 45780
▁rights 45763
▁шетелдік 45759
кын 45756
▁none 45756
▁Тим 45755
▁пултарать 45754
▁gördü 45752
▁hökm 45752
▁Özür 45751
▁Мә 45749
▁өңір 45746
دە 45744
▁sonsuza 45744
▁тағы 45736
▁слож 45735
▁butun 45726
лӑн 45725
▁завтра 45699
▁ileri 45693
ывают 45692
aro 45691
▁named 45678
▁пултар 45675
▁olacaktır 45672
▁Kendini 45671
▁стен 45656
▁şart 45654
▁oliy 45653
▁Вас 45642
ическая 45639
▁цар 45639
инов 45633
▁ourselves 45628
▁teşvik 45627
▁foot 45622
▁yolunu 45621
▁Kam 45620
▁портал 45604
▁mag 45588
▁yaptır 45586
▁қаражат 45583
ətə 45576
▁сон 45573
▁жыйналыш 45567
▁korxon 45557
▁Te 45556
▁tenge 45556
▁Yusuf 45549
▁затем 45543
▁Spa 45541
кес 45538
van 45537
▁kr 45537
▁сиз 45536
▁discussed 45531
▁cons 45530
▁merkezi 45530
ларында 45527
▁Mahkamasi 45523
▁Государственная 45522
▁берілетін 45515
▁Пока 45513
▁kurul 45507
▁oper 45507
образ 45502
▁diýip 45498
▁появ 45494
▁Жаңа 45490
▁жүй 45483
▁ikisi 45482
▁ладно 45482
üyle 45476
▁sayısı 45473
we 45468
▁тұратын 45453
▁komik 45448
▁биле 45428
▁күй 45421
▁оказ 45418
▁балан 45416
▁nedeni 45412
minlash 45411
рыл 45410
▁қолы 45409
ider 45401
руз 45401
▁yetiştir 45392
▁пулнине 45388
▁Last 45386
▁ölç 45384
▁привед 45380
▁maktab 45371
ıyordum 45369
▁bozor 45362
шем 45353
▁kendilerini 45353
▁Senden 45335
▁juda 45334
▁широ 45330
▁процедур 45328
▁bizimle 45325
▁повер 45311
▁боюнча 45308
▁сезнең 45307
ıntı 45305
▁oğul 45304
▁фикер 45299
▁hepsini 45298
▁хирӗҫ 45295
▁Turk 45292
▁здоровья 45286
шілік 45285
▁yerin 45259
ланган 45257
▁ücretsiz 45257
▁переда 45257
▁ый 45257
▁применения 45256
▁состояния 45255
▁оор 45251
▁sebebi 45249
▁edenler 45248
▁Президентінің 45248
▁специализирован 45247
ипе 45246
▁ST 45243
▁дальше 45232
▁нөмірі 45231
▁ota 45230
▁уақытша 45230
▁пулӗ 45204
деп 45200
▁ранее 45195
▁Башҡортостанда 45193
ышы 45190
▁талаптарына 45188
▁olmayı 45186
▁возник 45185
әһе 45178
▁хыпар 45167
▁яз 45158
▁xil 45157
▁görkez 45156
огу 45152
▁dakik 45141
▁tık 45139
▁рәсім 45136
▁бәйле 45131
ishiga 45125
▁extra 45124
▁трав 45118
▁annem 45099
▁милли 45099
▁taqdirda 45094
diyi 45086
▁рәс 45079
▁Silah 45078
вен 45074
▁қоспағанда 45074
▁EU 45073
▁пӑрах 45073
masi 45072
▁sizden 45067
топ 45064
mar 45063
▁дам 45052
lantir 45050
▁ушын 45044
ified 45040
▁Jim 45039
аларда 45025
▁sinir 45025
▁Эл 45023
▁kaybol 45018
▁Dil 45014
▁veriyorum 45014
▁боло 45007
ӑпа 45003
дать 45001
гом 44999
▁Pawlus 44988
liğini 44980
няя 44976
▁Bey 44973
▁хранения 44973
▁повышение 44970
ностей 44968
▁Зачем 44957
▁дата 44954
▁tehlikeli 44944
▁əsas 44943
▁ча 44942
▁заседании 44936
▁catch 44933
▁Biliyor 44932
▁offers 44932
▁Hi 44931
▁цели 44919
val 44917
мәк 44915
▁комплекса 44906
▁өзінің 44904
▁Ир 44902
▁FBI 44893
▁достав 44886
▁öldürmek 44881
▁Ма 44879
▁кәсіпкерлік 44874
ators 44869
▁acaba 44869
итов 44861
▁йывӑр 44853
ическое 44852
▁Оңтүстік 44852
ldi 44849
▁юрат 44849
▁shartnom 44845
▁Пӗр 44844
▁mercy 44840
уларын 44838
▁Шығыс 44836
lanma 44831
▁büyü 44831
əsini 44830
асаҡ 44830
воз 44825
▁ӑнлан 44824
▁ох 44813
eyiz 44806
мыш 44804
▁olunmuş 44799
▁tələb 44799
ional 44795
▁pislik 44795
▁төрле 44794
▁әз 44792
▁century 44790
евых 44778
▁okuy 44778
ational 44772
▁Efendim 44769
▁diyorsun 44766
▁med 44766
▁dist 44764
▁завод 44761
лаған 44760
▁uyum 44757
▁сонымен 44755
▁Ail 44749
▁explain 44749
▁тӗп 44737
ыч 44736
▁Ken 44735
▁doubt 44732
ambar 44730
▁Kr 44728
бин 44725
▁amount 44724
▁karanlık 44724
▁بۇ 44724
▁Sarah 44720
▁участок 44716
▁бө 44704
▁çıkan 44701
▁регламент 44699
тесь 44697
уть 44696
▁amaç 44685
AC 44678
▁oňa 44677
дүү 44672
▁moving 44672
▁prov 44671
▁должность 44670
▁Got 44667
▁tutilgan 44664
▁Kardeş 44662
▁соның 44655
▁сама 44650
▁zar 44640
ілуі 44638
▁унта 44623
▁пан 44621
çisi 44612
▁Договарива 44600
▁hatırlat 44598
▁iston 44595
▁ведомств 44595
▁работает 44595
▁Рух 44591
▁бюджеттен 44591
▁коммуникаций 44588
▁Мал 44585
анды 44584
ımdan 44581
onlar 44579
▁haqidagi 44576
▁поможет 44574
▁Sa 44567
▁samarali 44567
▁yönetim 44558
madın 44554
▁yoxdur 44552
▁kiritish 44550
▁record 44548
▁mahsulot 44547
▁akıl 44545
▁tarihlerinizi 44539
▁могла 44532
▁etmeyi 44526
▁IS 44517
маган 44516
ediğini 44514
▁nation 44514
ебез 44510
▁öğrenmek 44510
▁наша 44507
▁мәдениет 44506
▁ведом 44504
прав 44486
▁доллар 44484
▁ör 44483
▁метров 44483
▁başarılı 44477
▁Kom 44475
melisin 44470
▁мониторинг 44468
▁статьей 44467
▁geldiğini 44457
▁шешімімен 44454
▁oz 44452
orr 44445
▁yukarı 44445
▁жаб 44443
▁instead 44441
▁зв 44437
▁лич 44434
▁қабылданған 44433
▁беҙ 44419
ble 44418
▁итәр 44409
▁үзе 44409
lerimi 44400
▁көрсөткөн 44398
қы 44393
▁tanı 44388
▁münasibət 44383
ыңар 44373
▁weak 44371
▁servants 44370
▁piece 44367
▁brain 44365
▁хӑйсен 44363
▁тӑракан 44356
▁döv 44351
anların 44350
▁ər 44349
illi 44339
▁döndü 44335
▁anyway 44328
lac 44321
▁күшіне 44311
тарга 44310
ғыҙ 44310
meyin 44307
▁ителгән 44306
имов 44297
▁haqq 44295
▁соңғы 44281
▁type 44277
▁gök 44266
▁исем 44247
▁сор 44241
дают 44240
▁vers 44238
әргә 44234
dakı 44229
▁birga 44229
▁Ap 44224
▁yerleştir 44219
сті 44213
▁bitch 44203
▁öň 44201
▁İz 44201
▁yabancı 44200
▁Rabb 44199
▁ن 44196
▁жүргіз 44195
ілетін 44189
▁Sah 44185
ждения 44184
▁Ақтөбе 44181
ediği 44179
atsiy 44173
▁Türkçe 44171
▁aj 44160
▁shows 44157
ops 44156
ishimiz 44154
▁значение 44153
▁yemeği 44146
▁hududiy 44143
▁экономического 44142
бүз 44139
▁verilen 44137
шин 44131
▁Ders 44128
▁Kork 44127
гыла 44121
▁population 44117
▁илнӗ 44113
har 44109
▁masalalari 44107
▁жоба 44100
ima 44095
▁энергии 44095
gina 44093
▁Библи 44092
▁ibadet 44090
▁sanat 44090
▁opportunity 44088
▁High 44086
лауға 44083
▁юр 44082
mana 44077
еси 44063
▁включ 44062
▁деректер 44060
▁лицами 44053
▁Öl 44051
▁mouth 44050
▁свобод 44049
▁Иеговӑна 44043
▁istəyir 44042
▁Нур 44037
▁Prezidentining 44032
cy 44030
▁соответств 44028
▁переп 44023
▁жұмыстары 44022
▁əmin 44020
▁ran 44018
▁conditions 44014
layıp 44012
▁voice 44010
▁rich 44006
жет 43992
▁match 43992
▁отп 43988
▁ме 43987
калар 43980
▁җит 43977
AB 43972
▁Sonunda 43965
▁Джон 43964
▁korumak 43960
▁Программы 43958
▁тысячи 43958
leyen 43956
▁ilg 43955
ərək 43948
▁net 43946
▁Never 43944
▁sahib 43939
▁mektup 43936
meniz 43934
һының 43915
▁партнер 43910
▁Ком 43908
▁sea 43896
▁сов 43895
▁İkinci 43889
US 43873
▁zamandır 43872
▁вести 43872
▁людьми 43871
▁аг 43869
▁takdir 43861
▁Cl 43860
▁участков 43854
▁связанных 43853
▁benziyor 43852
▁veril 43851
▁звон 43846
▁секрет 43844
lerinizi 43842
алов 43841
yla 43840
▁ning 43837
▁пәйгамбәр 43835
▁Times 43824
▁басым 43800
▁machine 43791
▁Стар 43789
▁araç 43786
яж 43784
▁draw 43784
▁представления 43783
▁Андан 43779
▁kör 43772
вое 43769
▁sohasida 43766
ууда 43760
▁машина 43758
▁правил 43757
▁hepimiz 43755
анда 43751
▁Prime 43749
▁яс 43747
▁toprak 43743
▁Исраил 43743
▁gerçeği 43740
▁Gö 43736
▁Eric 43724
▁Кал 43722
▁страх 43720
▁Один 43706
оры 43702
челәр 43694
▁кино 43689
▁үлем 43687
ğinizi 43685
▁Otele 43679
▁яш 43679
▁devlet 43678
▁AND 43675
тех 43674
▁поро 43669
▁shut 43662
ующих 43656
▁bilmiyor 43648
▁Эта 43648
urt 43647
▁ваҡыт 43647
▁информация 43645
▁faaliyet 43627
▁бүләк 43624
▁Selam 43603
▁complete 43602
▁кубаныч 43598
▁Council 43588
laştır 43563
▁Od 43562
▁UNICEF 43559
▁div 43543
▁kitabı 43543
▁застав 43542
▁şeytan 43535
▁super 43533
▁яшәгән 43533
▁Sil 43532
▁ценных 43527
▁Коръән 43525
▁хамӑр 43521
▁sigara 43520
▁kadınlar 43507
▁aşırı 43496
▁sanıyorsun 43494
▁жатыр 43492
▁протокол 43479
▁davomida 43476
ейді 43472
▁Ag 43472
анных 43469
▁шт 43466
инче 43462
уля 43459
▁hosil 43457
ever 43455
bed 43449
ja 43447
▁актілер 43438
ıs 43434
▁жекелеген 43433
▁участка 43424
▁замеч 43421
asız 43411
asiz 43407
▁Bekle 43407
▁etib 43399
▁жанындағы 43398
▁Many 43397
▁goý 43382
▁lt 43380
▁прив 43379
▁qadın 43370
▁evi 43368
қын 43367
acaktır 43364
▁Департамент 43364
▁войны 43364
▁оқыту 43354
▁equal 43352
▁удар 43343
▁becer 43331
ИЛ 43330
▁кли 43325
▁другого 43322
▁star 43316
<0xB0> 43306
▁Abraham 43305
▁yu 43304
▁inşa 43294
▁талдау 43290
▁ortadan 43280
▁bekley 43266
▁сыз 43253
▁өкілдері 43249
▁голову 43242
▁issue 43237
▁cop 43235
тый 43229
▁forward 43212
▁edilir 43206
OS 43205
▁kiss 43202
▁националь 43201
▁эп 43201
▁Парламент 43178
ality 43176
▁миллиард 43172
▁оператор 43171
▁клуб 43169
▁Қызмет 43169
▁дать 43165
▁тізбесі 43165
▁өр 43159
▁сами 43156
▁Пожалуйста 43154
▁стала 43141
erk 43137
▁рассказ 43127
▁использ 43120
▁kalır 43115
▁serbest 43112
▁понял 43110
▁зон 43107
▁member 43104
▁olası 43099
▁nokt 43093
мелле 43092
▁пис 43088
▁өндіріс 43087
▁Ішкі 43086
▁подпись 43085
рев 43079
▁temsil 43079
тән 43074
bilir 43069
ison 43069
шер 43065
▁Mir 43065
▁қорытындысы 43059
▁Job 43056
▁edər 43045
ылары 43044
▁Фонда 43040
▁находится 43036
▁Məsihin 43035
▁doğal 43031
▁алтын 43024
▁йорт 43023
▁сыр 43022
▁evine 43015
▁виды 43011
▁calling 42995
▁постро 42993
▁tartib 42984
ӑсем 42983
▁olaryň 42981
▁yapıyorum 42980
▁azap 42979
илген 42975
▁ишенимдүү 42973
▁önem 42967
▁kaybed 42964
▁колдон 42962
▁результатов 42957
dilar 42953
atni 42951
ۈ 42951
▁lider 42950
▁mulk 42941
▁состоянии 42941
▁Gallery 42940
▁АҚШ 42939
▁cold 42926
▁zamanlarda 42925
▁шын 42925
▁Charles 42922
▁çevr 42922
▁sebäpli 42915
тым 42914
▁отдельных 42914
▁хӑш 42908
▁Devam 42905
▁Roma 42898
▁konuşma 42894
eless 42891
▁конце 42886
▁кӑлар 42885
▁крови 42882
▁parti 42881
▁Йәһүә 42867
▁покуп 42863
ыра 42862
▁уполномоченный 42857
▁öý 42855
▁Бей 42851
▁Эмне 42850
ىر 42848
▁кест 42848
ват 42845
▁kayıp 42842
▁bear 42833
▁ust 42828
ılmaz 42819
▁болчу 42818
▁yakında 42815
▁guruh 42808
есін 42803
тыру 42790
ікті 42787
▁Robert 42787
▁Mur 42781
▁search 42779
▁уни 42776
▁микро 42775
▁Çünki 42771
▁патш 42759
иниң 42756
▁viloyatlar 42751
▁наруш 42749
▁tashkilotlar 42748
▁apostle 42747
▁богат 42747
▁Earth 42745
▁Үкімет 42745
ланса 42735
▁внесенными 42731
▁миңа 42728
dyr 42726
▁demand 42724
бес 42713
pi 42709
▁teki 42708
▁başladım 42694
▁Another 42693
▁вуласа 42692
▁thr 42691
▁Кабинет 42687
▁daş 42681
ola 42668
▁anybody 42668
baş 42667
▁пришел 42661
▁rock 42658
mel 42656
▁Facebook 42648
деги 42642
▁атындағы 42639
▁представители 42637
▁республике 42634
▁счит 42631
ila 42627
▁бағалы 42625
▁French 42617
▁кач 42613
▁Ник 42612
▁بىلەن 42609
▁parmak 42599
овано 42597
▁Им 42596
▁eight 42587
▁ox 42586
▁Birleşik 42585
▁add 42579
▁Мәсәлән 42579
▁gerekiyordu 42573
▁similar 42565
▁сделали 42564
anan 42562
▁implementation 42554
▁жалға 42553
▁bekl 42552
дах 42551
▁Хан 42549
▁введ 42548
▁конца 42547
▁язылган 42547
▁жылдық 42545
лся 42537
▁neither 42534
▁isterim 42531
▁yazı 42524
ام 42520
ends 42517
илә 42507
гай 42506
сың 42497
ччен 42497
▁кейбір 42497
меген 42495
▁Ro 42494
▁особенно 42479
▁dəfə 42476
▁ant 42473
▁Alman 42467
▁sosyal 42466
▁призна 42465
▁Masih 42459
▁Isoning 42442
▁İletişim 42434
rim 42417
▁убить 42414
ическим 42412
▁Ваш 42412
▁кг 42412
uğ 42407
ишься 42406
llab 42403
▁tag 42400
rel 42399
smoking 42390
▁обвин 42384
сом 42383
▁подготовке 42375
emiş 42368
▁нрав 42367
▁qurilish 42365
▁провед 42364
▁Neyse 42358
▁holy 42358
▁Lo 42356
овая 42352
▁Hazır 42351
▁обнаруж 42346
▁нашли 42344
▁погиб 42340
▁ы 42339
▁операциялар 42336
▁қолданылады 42335
ıkları 42330
▁April 42330
▁гал 42330
▁сугыш 42329
▁hall 42321
▁muhteşem 42310
▁ауыр 42302
▁Gök 42301
▁Мат 42299
іні 42296
▁demişti 42290
▁обо 42287
▁ruhu 42285
▁келип 42283
▁Zaten 42278
▁yapmayı 42277
▁berýär 42270
غان 42269
usunu 42267
үг 42264
▁свыше 42257
▁Их 42255
▁дайын 42254
▁началь 42248
▁юридического 42238
▁states 42236
▁коп 42232
▁сильно 42227
▁konusu 42226
▁ах 42219
▁тіркел 42212
idd 42210
▁Road 42210
▁бирелгән 42210
▁borç 42207
▁especially 42207
▁Cause 42206
lif 42198
өө 42191
▁damn 42189
▁ib 42189
▁участием 42187
▁тир 42184
▁процедуры 42183
▁жаңы 42182
▁дух 42179
альными 42177
▁imkanları 42176
mə 42175
▁computer 42167
▁сем 42164
ЕМ 42162
▁андан 42161
▁Есеп 42160
erken 42147
iyyəti 42147
▁кандайча 42125
inlik 42122
▁жактан 42115
▁мүл 42115
▁Sat 42114
▁состава 42107
▁икӗ 42106
▁тӑма 42105
▁думала 42101
▁месту 42094
▁вашей 42088
▁ağaç 42085
▁берәр 42080
строй 42074
▁әйтелә 42071
▁recent 42068
▁дәр 42068
▁Write 42058
▁Üst 42057
▁Nerede 42056
асынан 42055
inizde 42051
▁веб 42041
▁Hər 42037
▁побед 42026
▁insanı 42025
ura 42023
iter 42020
▁Ничего 42013
▁пору 42012
▁belirt 42010
▁letter 42010
▁кәсіпорын 42007
▁agar 42000
мей 41999
уден 41998
▁global 41997
▁һуң 41994
▁istediğin 41993
▁turgan 41990
▁Everybody 41989
▁вед 41988
▁gor 41982
▁progress 41981
▁төрт 41981
вел 41980
▁üzərində 41978
▁ночью 41975
▁spor 41974
▁жұмыстарды 41967
▁Business 41965
▁барган 41962
лесе 41960
ателями 41949
▁App 41947
▁кайрӗ 41943
▁xizmatlar 41941
▁Rab 41939
OT 41933
▁сыйын 41930
▁жүйес 41924
▁rate 41920
▁актами 41917
lərində 41908
▁өтеді 41905
▁беруге 41904
▁жұмыстарын 41901
▁моих 41895
▁какое 41892
<0xBE> 41889
еннән 41887
▁ве 41887
▁lmagan 41883
▁Düşün 41881
ИР 41879
илер 41877
▁укреп 41876
▁сумм 41868
alash 41866
▁ayr 41864
▁parça 41858
▁built 41851
▁мондый 41847
еры 41834
▁sürdür 41830
гына 41829
▁ашық 41825
ising 41823
ladık 41819
▁использование 41815
▁Би 41813
▁Bl 41809
▁cinsel 41807
▁материалы 41807
bek 41806
▁diyorum 41806
malarını 41802
▁күрсәтә 41787
гіш 41786
кому 41784
rom 41783
▁тикшер 41782
▁daraj 41766
▁several 41763
▁simple 41752
▁current 41751
▁шығыстар 41747
lendi 41736
▁Information 41729
amayacak 41726
rar 41723
▁минем 41712
ғай 41707
тип 41692
▁department 41692
▁yürüt 41690
арға 41678
▁Bek 41678
▁etdir 41671
▁кӑмӑл 41668
▁чак 41667
▁gold 41640
▁пуҫне 41638
▁öldürdü 41625
udi 41624
▁Можно 41624
▁доме 41618
▁demiş 41616
▁заттар 41610
▁чём 41610
▁reception 41609
чер 41604
▁документации 41599
цияның 41596
▁мастер 41593
yg 41592
▁mankind 41584
▁педагог 41569
▁ұйымдардың 41564
▁функ 41560
ığının 41559
айтесь 41548
▁məsləhət 41542
ически 41524
▁Bin 41522
▁kadının 41521
ҙары 41512
▁Патшалык 41501
▁Үй 41501
▁услуга 41495
ýa 41492
вест 41476
▁программа 41475
үүдө 41472
▁һум 41470
▁необходимые 41462
▁шан 41454
▁Mc 41452
▁правиль 41450
lerdir 41443
▁ony 41437
mada 41434
ылык 41431
». 41429
▁РФ 41429
▁Агент 41428
▁sand 41423
▁ләкин 41423
▁жиын 41414
▁пама 41414
усу 41413
▁Республикалық 41412
▁sensin 41411
▁результаты 41409
▁төл 41409
▁kalmış 41408
▁Ted 41399
nie 41397
▁тепӗр 41396
bs 41395
▁Şol 41389
▁uyuşturucu 41385
▁article 41384
▁женщина 41379
▁sokak 41378
▁köy 41376
▁зам 41375
ığından 41369
▁палат 41369
ues 41367
▁fellow 41367
▁Co 41354
▁жүргөн 41351
▁мине 41351
▁soğuk 41348
», 41342
▁fish 41338
▁форум 41338
▁обороны 41336
ыңыз 41330
▁meşgul 41326
▁worse 41326
ұл 41324
▁данной 41324
▁kötülük 41322
▁neydi 41322
▁spent 41322
▁kunda 41317
▁хлоп 41308
▁Tabi 41301
▁glad 41301
tib 41295
▁түрлі 41294
▁towards 41287
▁Side 41285
▁hikay 41283
▁принимает 41278
▁миллионов 41273
ека 41267
▁Са 41267
▁бекітілсін 41263
ture 41262
iləri 41256
▁sürece 41255
▁Ҫавӑн 41252
▁şek 41246
▁ic 41240
▁дай 41231
▁sek 41225
▁willing 41224
▁тұлғалардың 41223
▁günün 41219
әх 41201
▁расходы 41199
▁paper 41198
lygy 41197
▁пайыз 41197
▁siyah 41193
▁различных 41193
▁тікелей 41193
▁places 41191
▁vak 41187
▁beginning 41181
▁promised 41172
▁халықтың 41172
▁demektir 41165
▁укы 41164
▁Hâlâ 41163
▁хоть 41162
ami 41161
araq 41160
▁бро 41159
▁китеп 41151
▁Моя 41146
амб 41142
▁вакытта 41142
аза 41134
▁Richard 41134
▁çocukları 41131
zu 41127
▁Moliya 41125
▁День 41125
▁вижу 41125
үшү 41123
oyu 41121
▁құжаттардың 41121
irt 41114
▁мерах 41111
iyasi 41103
гах 41102
▁қазақ 41099
▁кодекс 41081
▁наступ 41078
▁яҡшы 41071
▁структур 41070
▁kahve 41068
▁window 41067
▁некоторых 41067
▁Христа 41065
▁последователь 41064
▁яңы 41064
яр 41062
▁İngilizce 41060
▁maç 41050
dün 41048
▁budur 41038
▁неё 41038
▁медицинских 41027
▁пурте 41023
▁типа 41019
▁istiyoruz 41018
▁seviy 41016
▁дерек 41010
▁opened 41007
▁points 40996
▁adamlara 40993
▁thy 40993
цами 40992
▁remain 40989
▁lash 40988
▁Ces 40986
▁Му 40986
тр 40984
اي 40980
▁грузов 40976
▁çalışır 40974
▁лу 40972
▁written 40971
▁массовой 40968
▁мод 40967
əh 40964
▁хатӗр 40954
ector 40951
▁истор 40946
off 40940
гында 40933
▁тұлғаның 40931
▁economy 40929
▁кый 40929
▁ия 40927
▁пару 40927
▁сыяктуу 40924
▁qayd 40919
уется 40918
анные 40916
▁travel 40910
▁Уағдаласушы 40903
▁Bakın 40896
▁stick 40894
▁заслу 40892
▁Saç 40890
▁disp 40890
ырып 40888
▁проро 40887
▁savol 40877
▁righteous 40868
ülü 40859
▁edirlər 40855
▁mutlaka 40853
ілер 40852
alarida 40849
▁инвести 40848
▁кыла 40832
▁yüksel 40830
▁korkut 40829
▁ҡал 40819
▁bağır 40818
▁Russia 40813
▁Мӗншӗн 40813
тергә 40812
▁екен 40811
▁подготов 40811
ющиеся 40806
▁events 40803
▁күрсәткән 40802
▁каҫ 40788
▁fl 40787
▁бастығы 40782
того 40778
АС 40773
ures 40770
▁huzuridagi 40767
▁motor 40758
жив 40757
▁привле 40756
▁Сергей 40752
▁harbiy 40749
elerinin 40742
▁oid 40737
▁Adı 40735
▁региона 40734
TS 40726
▁результат 40724
точ 40723
isinden 40719
▁sənin 40716
гать 40713
▁yiyecek 40712
▁Джей 40712
▁выдачи 40711
▁istersen 40709
▁жақсы 40707
var 40706
▁Phil 40706
▁istediği 40698
▁qarori 40698
▁charge 40697
▁болмаған 40696
▁мәғлүмәт 40689
▁Jane 40688
▁явля 40686
реш 40684
▁yurit 40684
оде 40678
▁силы 40677
In 40674
▁зарегистрирован 40673
▁хатшысы 40671
▁nəs 40670
▁сыв 40670
▁eğlen 40669
▁lived 40669
▁зло 40663
▁board 40655
▁qildi 40655
▁tizimini 40646
▁geldiğinde 40643
▁yoğun 40642
▁dini 40639
сун 40637
▁шы 40637
ability 40636
▁улу 40636
▁лож 40635
дается 40632
▁Ий 40632
▁Thus 40630
▁категории 40629
▁AN 40624
▁değerlendir 40624
▁lütf 40623
▁Кен 40614
▁bizden 40609
▁muhokama 40605
▁елді 40603
▁слуш 40601
▁patron 40585
▁Onlardan 40582
tiği 40581
▁экономической 40579
än 40575
uel 40573
▁мерзім 40573
▁başlangıç 40566
▁iletişim 40562
▁interested 40562
▁произвед 40562
▁Eli 40559
▁медицинского 40558
▁hayatı 40556
mama 40555
▁dosy 40553
▁вру 40550
▁учебных 40550
▁saldırı 40548
▁спасибо 40548
▁андый 40547
▁пот 40547
▁Development 40544
▁missing 40541
▁Pan 40536
министра 40535
мек 40529
igini 40522
▁Нью 40520
тук 40519
reat 40518
▁Нас 40518
▁улы 40516
ayıp 40498
ӑрса 40498
масть 40497
▁gay 40496
▁treat 40495
▁акты 40495
sil 40490
▁ear 40488
▁Mazkur 40486
luq 40478
▁зерттеу 40474
▁Еще 40473
▁Указ 40473
▁patient 40472
üğü 40464
▁öğretmen 40460
▁бюджете 40459
▁Өфөлә 40459
esiyle 40457
liğe 40457
▁екенін 40455
▁role 40453
гра 40440
▁baz 40437
алып 40435
▁органах 40430
▁приоритет 40430
lenmiş 40426
▁web 40426
▁эшләгән 40425
ener 40424
▁fell 40424
▁послан 40421
циялау 40420
▁district 40420
▁жататын 40417
▁йй 40415
▁öldürül 40406
әз 40404
▁odamlar 40404
▁финансового 40404
ön 40391
▁опас 40391
▁әл 40378
▁жағ 40371
▁Düz 40368
▁Robb 40368
ishlari 40367
▁sende 40360
▁aff 40354
▁qiymat 40354
▁кітап 40351
пт 40348
▁жителей 40347
▁yetiş 40346
▁ыс 40342
▁dışı 40336
▁общей 40333
▁cur 40332
▁хозяй 40330
▁прин 40327
▁term 40324
elli 40315
▁финансовой 40310
▁changes 40297
iti 40289
▁genel 40289
▁прис 40288
▁Il 40284
▁qilayotgan 40283
istic 40282
▁чеч 40281
▁çözüm 40278
▁мисс 40278
▁Род 40277
▁adresi 40273
▁gitmiş 40273
▁göstermek 40262
▁тән 40261
UT 40256
rain 40254
▁guests 40253
уларды 40252
▁ıs 40252
▁round 40246
▁жерг 40241
мш 40240
▁savun 40238
▁кылууга 40238
▁переж 40237
▁cross 40235
▁airport 40234
▁обрат 40229
▁наше 40224
▁Markaziy 40217
umda 40213
▁родителей 40212
mıyorum 40209
▁biriyle 40204
▁Jimmy 40203
▁Какой 40200
▁green 40196
▁tir 40196
▁тыйым 40193
ләнә 40190
▁calls 40180
▁Ammo 40177
▁resmi 40174
▁Anyway 40170
▁eğ 40170
▁точ 40169
▁eğit 40162
eceğin 40160
▁makin 40154
▁öt 40150
▁mücadele 40146
▁kuch 40142
▁however 40138
▁сүр 40135
▁Yalnız 40126
▁Office 40123
елем 40117
▁dile 40113
аман 40111
▁Аз 40111
▁приняли 40111
▁любви 40098
унан 40097
▁сату 40095
▁государственный 40089
▁cam 40080
ığımız 40079
bin 40074
▁жобасын 40073
▁ше 40069
▁Internet 40068
▁Nursultan 40068
▁revealed 40064
▁газа 40057
бабының 40055
▁göy 40048
шаралар 40046
▁ähli 40043
uly 40032
▁хөкем 40032
▁Общие 40030
шает 40027
▁quality 40026
▁текущего 40024
▁dark 40023
▁gunoh 40023
add 40014
нике 40013
▁eriş 40013
▁закры 40013
▁yolda 40010
▁празд 40009
▁жастар 40008
кол 40006
▁тес 40004
эл 40002
▁yöntem 40001
граф 40000
рил 39996
▁Kitob 39996
▁ры 39996
▁rast 39991
lüğü 39990
▁елдің 39983
▁böy 39977
▁обязатель 39977
▁develop 39972
▁Том 39969
▁осуществление 39968
▁предусмотрен 39964
▁Russian 39961
▁орай 39957
▁текст 39954
▁ықпал 39948
▁қолданыстағы 39947
▁Hold 39939
▁честь 39935
чем 39934
▁киңәш 39931
▁ölmüş 39927
альную 39925
▁ishlash 39922
▁reading 39913
▁beg 39912
▁Make 39910
▁адамның 39909
▁акту 39908
▁дайыма 39906
▁belirtin 39904
▁davr 39904
леме 39901
▁активов 39900
▁рост 39898
▁somewhere 39896
▁дис 39885
▁представляет 39884
ende 39880
▁bebeğim 39879
▁tayin 39878
▁патша 39877
▁деди 39875
▁lsa 39870
▁мәслихаттың 39866
▁окру 39866
▁Although 39861
▁meant 39860
alarından 39859
▁предмет 39859
▁İngiliz 39858
▁sessiz 39856
▁означает 39856
▁Sin 39853
▁yeryüzünde 39847
▁açıklam 39844
▁Башҡортостандың 39842
amazsın 39839
<0x97> 39837
▁chor 39837
İM 39827
▁дүйнө 39827
ilerinin 39822
▁yaptığım 39819
кө 39814
▁rain 39812
▁йылда 39810
▁өндірістік 39809
▁шик 39804
▁Art 39800
▁помещ 39799
▁ustidan 39792
▁Email 39788
▁Ask 39787
▁Out 39786
noma 39785
▁file 39784
әлә 39783
▁karıştır 39781
▁success 39781
ۈن 39771
▁предложений 39765
ately 39763
▁доктор 39763
▁Ancaq 39762
ۇن 39759
▁использованием 39759
▁лиш 39753
ork 39752
▁Afrika 39752
▁үткәр 39749
▁Tut 39748
nan 39744
itions 39742
▁жоб 39741
▁destroy 39740
▁bileris 39734
▁ill 39728
▁RAB 39725
▁qiling 39720
etini 39718
▁community 39716
▁avukat 39715
▁ведения 39708
▁дости 39708
▁Ошол 39703
▁пара 39696
▁Bor 39694
tiv 39693
▁grow 39690
▁Shuningdek 39689
дег 39688
▁boshlab 39688
кту 39687
▁öv 39687
▁Атырау 39686
▁parayı 39681
▁файда 39679
ЫН 39678
▁таны 39677
▁Durumu 39675
дырып 39668
ters 39663
▁келіп 39654
▁Язмаларны 39651
▁материалдар 39650
▁nümun 39649
▁болууга 39649
▁исправ 39645
ologiya 39627
▁төш 39624
▁мәдени 39622
▁функцион 39622
ılacak 39621
уск 39619
аю 39609
▁Muhtemelen 39606
▁число 39605
▁Ort 39601
▁Узбек 39601
▁һөй 39600
▁жерлер 39596
▁yaxud 39595
ibe 39593
▁сторон 39593
▁oldin 39589
▁Ой 39585
▁комп 39575
▁North 39568
▁dress 39568
нал 39567
▁müəyyən 39564
▁Рөстәм 39564
atör 39555
▁uzman 39550
▁School 39548
ilmoqda 39545
чәк 39543
▁Amerikan 39539
▁Kas 39539
▁verebilir 39539
▁өст 39539
▁ajrat 39535
▁физических 39533
▁driving 39528
▁мел 39528
▁incel 39524
▁нек 39522
▁общественных 39522
▁привлек 39519
▁Ам 39515
lanıyor 39514
▁Genç 39503
▁uygul 39501
▁Teşekkür 39500
▁встреч 39495
▁вступ 39495
▁Muhammad 39492
▁hor 39492
oğ 39491
▁берді 39489
▁Ил 39486
▁Dom 39485
▁учурда 39473
▁степени 39465
▁театр 39465
▁bodies 39450
▁conduct 39443
▁жакын 39442
▁кемінде 39442
▁целом 39440
ілігі 39434
▁сведений 39432
▁даярлау 39428
▁формирования 39428
▁Tal 39423
▁оформ 39420
дом 39414
▁Похоже 39413
əz 39408
▁wonder 39408
ион 39404
▁перев 39403
▁янӑ 39403
▁deeds 39398
▁чему 39398
▁niyet 39397
UM 39396
iving 39395
▁industry 39394
ющее 39393
▁təşviq 39381
▁четыре 39379
atish 39376
▁қылмыстық 39375
▁Қытай 39374
▁жылу 39373
дор 39372
abb 39369
▁üy 39365
▁нәтижесі 39363
▁kimsenin 39361
тәре 39360
ләй 39356
▁camp 39352
ақта 39349
▁Lekin 39349
▁wonderful 39349
▁генер 39348
рий 39341
▁жөнүндөгү 39330
▁Mes 39329
▁вне 39329
▁benefit 39328
▁yapacağız 39320
▁неправ 39301
▁qaz 39300
▁нормативных 39298
▁қалған 39297
low 39288
▁bilirsin 39287
▁регулирования 39287
▁идем 39283
▁biler 39278
▁ediyoruz 39278
▁ҳ 39276
▁yağmur 39275
▁desire 39271
The 39268
bor 39253
▁сообщает 39253
yo 39247
ӑпӑр 39245
▁belong 39245
▁tasar 39245
▁Kaptan 39243
gın 39238
▁Da 39238
▁болушу 39237
▁prison 39232
▁Hide 39230
▁Bah 39227
▁mur 39217
фик 39214
▁наслед 39214
▁сооружений 39209
▁crime 39208
▁kishi 39198
▁Güney 39195
▁sınav 39195
▁ПР 39192
▁моны 39186
▁investment 39182
▁пр 39178
▁koruy 39175
▁ndan 39169
uğu 39158
▁edeceğim 39153
▁katı 39149
▁evlilik 39137
ендәге 39136
ниц 39131
rop 39121
▁mass 39120
▁honey 39117
үүнү 39116
▁ирӗк 39113
▁Қазақ 39106
▁эс 39104
▁плот 39099
▁tarmoq 39098
ns 39097
▁dollars 39090
▁considered 39088
eç 39085
▁funny 39082
▁вечер 39079
▁белә 39071
▁Аль 39065
▁Пирӗн 39062
▁Specify 39061
▁ism 39061
▁Joseph 39059
▁kims 39059
oul 39057
▁emir 39054
циясының 39043
▁inst 39037
ылығы 39036
▁ситуации 39035
▁качан 39034
▁qan 39029
▁сообщ 39025
▁Also 39014
زى 39010
▁жашаган 39009
▁департаментінің 39006
▁башкалар 39002
▁сияқты 39000
fe 38999
▁gl 38999
▁bulmuş 38997
▁Мас 38997
▁German 38993
▁Прин 38992
▁материалдық 38992
enti 38991
▁insanlarla 38990
▁воспит 38990
▁fan 38986
▁кӗл 38983
inal 38982
▁әкел 38979
▁Rec 38974
▁Сво 38973
▁etmeli 38968
▁сердца 38968
▁қоры 38967
▁sharoit 38952
▁major 38950
ony 38940
əsində 38939
▁мемлекеттің 38939
üyü 38934
▁believed 38932
▁yapı 38931
істер 38926
▁Заңының 38916
▁үн 38915
▁Nereye 38914
▁vositalari 38914
▁qadar 38907
emek 38903
▁пӗ 38895
اپ 38894
▁наказ 38890
▁уәк 38885
▁mik 38880
▁благодаря 38877
сам 38875
▁занима 38872
елерін 38868
▁времен 38867
▁hukm 38865
▁aut 38863
орм 38859
▁водо 38856
▁bulur 38851
ительная 38842
▁создан 38839
ix 38833
ental 38828
Sh 38825
tal 38817
anlara 38814
стыру 38814
▁алат 38808
imizə 38807
▁moddiy 38798
▁өндір 38794
▁kichik 38793
▁Ескерту 38793
▁эксперт 38787
▁содерж 38786
лах 38783
рис 38779
دىغان 38778
▁посредством 38769
▁İl 38763
▁military 38759
дөй 38758
▁choose 38756
▁pazar 38755
▁әмма 38753
▁Yak 38748
ories 38745
▁hakim 38743
▁natural 38743
meme 38742
▁реализацию 38739
▁olmasın 38722
▁исследований 38721
лось 38714
▁sağlar 38714
▁showed 38704
▁fa 38703
▁üzündə 38700
▁yaşamak 38689
▁вол 38688
▁financial 38685
▁sell 38684
▁шәһәр 38682
▁исследования 38680
▁произ 38680
▁yerden 38676
һе 38674
rem 38672
▁тӑв 38670
▁info 38669
▁прода 38668
яли 38666
▁Birçok 38662
▁location 38661
▁креп 38660
▁порт 38658
ицы 38640
лась 38639
▁твою 38639
шую 38638
▁уход 38638
▁показателей 38635
elerden 38631
▁Chris 38630
фика 38622
era 38618
▁жүктелсін 38615
▁Doctor 38613
▁elinde 38606
▁говорили 38606
▁subject 38599
alarında 38596
uydu 38592
▁avoid 38584
▁Fred 38578
▁примен 38577
имиз 38575
▁киң 38570
▁нысаналы 38567
▁ниже 38563
▁prop 38559
tun 38555
▁saved 38553
▁проход 38553
▁Очень 38540
▁келе 38540
екте 38529
▁çeşitli 38523
▁Dam 38516
▁perhaps 38516
▁policy 38515
▁ескере 38513
▁numar 38512
eds 38510
▁Göster 38502
lərdə 38501
üyorum 38499
▁related 38499
лт 38497
▁общественного 38493
АК 38492
▁görmeye 38484
▁humans 38471
▁техник 38468
▁своевремен 38455
зин 38452
геҙ 38451
▁веществ 38451
▁давай 38447
LER 38446
▁бірыңғай 38443
▁öğrenc 38440
▁peş 38437
tirish 38433
куп 38429
▁қоғам 38425
▁ortiq 38422
▁делаешь 38419
▁Петер 38414
▁таба 38409
теген 38400
▁passed 38399
әмә 38390
▁печ 38388
▁сора 38386
▁başlar 38383
▁ӑш 38383
▁мыйзам 38379
▁Sır 38372
▁söylen 38369
▁жақ 38369
▁қыз 38368
omat 38364
▁вспом 38364
▁нерсе 38364
▁Şüphesiz 38357
▁correct 38354
siyalar 38349
▁чет 38346
▁yazdı 38341
▁club 38338
▁транспортных 38335
иты 38334
ished 38333
пис 38327
▁prinsip 38326
▁многих 38323
▁sevinc 38320
▁nim 38316
▁нуж 38308
▁makinesi 38300
▁meters 38300
▁gidiyorum 38298
▁gürrüň 38298
▁проекты 38298
әп 38287
▁рассмотрение 38285
con 38283
gü 38275
lenen 38274
▁Very 38273
▁koca 38273
▁anlamı 38272
etik 38269
▁өнер 38269
▁perform 38264
ӑҫ 38258
ased 38253
▁rules 38251
▁hisobot 38250
▁рек 38247
▁che 38243
▁oku 38243
ency 38242
▁систему 38241
▁перечень 38232
ن 38231
▁Жеке 38231
▁Председателя 38231
▁isle 38225
elerde 38220
▁холод 38220
▁Dikkat 38219
▁mesel 38213
▁sanoat 38213
tiniz 38208
▁hakkındaki 38208
▁Министерстве 38207
▁idoralar 38203
ивал 38197
imler 38185
▁Наш 38181
▁вӗрен 38174
▁еди 38171
▁ребята 38169
очные 38167
▁приема 38166
▁қаланың 38162
▁сапасын 38160
▁qul 38155
▁evening 38152
▁алты 38148
▁потер 38148
▁нат 38141
ırken 38140
▁целей 38137
тарнӑ 38133
▁Мер 38133
▁Ур 38133
ӑт 38132
▁заг 38132
▁тухнӑ 38131
▁verme 38130
▁келесі 38130
▁алушының 38127
▁Med 38122
▁лекар 38122
▁likely 38120
tığım 38118
▁Ajan 38118
▁Надо 38117
cə 38116
▁yüre 38105
▁tovar 38103
гам 38102
inci 38101
▁seek 38101
▁нәтижелері 38099
▁undan 38098
▁Spor 38096
▁Bit 38089
▁налогоплатель 38084
▁конец 38083
ланӑ 38082
▁тат 38082
قا 38081
▁жилья 38081
▁Black 38080
▁единиц 38078
▁биринчи 38074
ленной 38072
▁Бол 38066
▁görüyorum 38064
▁совершен 38062
▁terms 38060
бызга 38059
▁gidecek 38058
▁erk 38056
atga 38055
kü 38051
уру 38046
▁взаим 38044
▁случай 38044
ышкан 38037
nik 38036
ожу 38030
шысы 38028
▁закона 38026
uyordu 38023
▁жібер 38019
lus 38018
▁düzelt 38018
▁частности 38018
▁килеп 38015
▁books 38014
▁qarat 38009
▁школ 38000
▁Print 37997
▁Ибраһим 37995
ндетт 37994
тардын 37976
ınızın 37971
лыгы 37971
▁ясно 37970
üstü 37968
▁гыйбадәт 37960
▁команда 37957
▁правед 37952
АЙ 37951
▁bilsin 37951
▁бірлік 37945
abiliyor 37943
әли 37943
▁начар 37940
тори 37939
▁например 37939
▁Şunu 37936
▁technology 37935
щей 37934
▁мое 37929
▁Remember 37926
▁руку 37926
▁аҙ 37922
▁ayrim 37920
▁бөлімінің 37920
▁қазіргі 37919
▁mid 37917
▁иные 37914
▁заинтересован 37910
lığına 37905
ones 37890
▁breakfast 37889
▁squ 37878
▁Bol 37876
ater 37875
▁иди 37873
▁электронного 37871
▁мени 37870
▁hath 37867
asyonu 37864
▁Дай 37862
▁zalim 37860
ором 37857
▁kelim 37856
▁transfer 37853
іңіз 37850
▁нашу 37844
▁одном 37836
▁Comp 37833
▁миров 37830
▁eh 37819
вести 37818
leyin 37817
аһ 37815
▁işit 37814
▁farkında 37809
▁ҫынсене 37806
▁itself 37802
▁связанные 37798
▁relations 37793
▁мәсихче 37788
▁Grand 37786
▁diqqət 37785
▁Представ 37781
məz 37774
▁Han 37773
▁qatnash 37771
▁доход 37771
▁эффектив 37763
▁полиции 37761
исем 37760
▁бөлек 37758
IZ 37757
КО 37748
▁yerə 37746
▁ýol 37741
ves 37728
▁gösteren 37719
▁күбрәк 37719
▁başga 37718
▁speech 37716
▁акта 37715
▁киткән 37714
ушілер 37712
АЗ 37708
▁самого 37707
▁ұстау 37706
▁әйтелгән 37698
▁турар 37697
фор 37695
ýäris 37691
▁Никто 37688
әре 37687
▁nda 37687
▁пӗлтер 37684
▁Говор 37683
▁ton 37676
▁инспек 37675
▁Anna 37674
▁источников 37671
▁отлич 37669
ils 37667
▁бә 37667
▁Ташкент 37657
▁мерзімді 37657
▁appointed 37654
▁всеми 37652
▁sevin 37650
ерин 37639
▁оба 37637
▁статье 37634
duğum 37628
▁Sw 37625
▁hotels 37623
▁düşünün 37622
▁ог 37622
▁безопас 37620
ност 37604
▁signed 37602
▁Manchester 37595
▁Пет 37591
olojik 37583
▁тартып 37583
щего 37580
▁Федерации 37580
▁вашего 37579
sc 37578
▁Шул 37573
▁өткіз 37569
▁olayı 37567
▁язык 37565
▁эз 37564
erim 37563
▁Конститу 37562
▁gelmek 37561
▁Kitabda 37560
▁aniqlash 37555
▁avval 37550
ывал 37549
▁нужны 37548
▁Безнең 37541
▁туй 37541
▁fe 37538
rish 37537
▁exchange 37537
▁kiş 37535
ination 37533
▁join 37524
dığım 37522
әге 37513
▁эмнени 37510
onda 37508
▁sounds 37504
▁сө 37498
▁Од 37491
асыз 37487
muyor 37483
ett 37480
▁обучение 37479
▁накоп 37475
▁хорош 37474
▁правильно 37473
▁малень 37467
lon 37466
▁iborat 37466
▁raisi 37463
▁tizim 37463
▁верно 37463
▁съ 37454
▁служ 37448
нг 37447
▁Eger 37446
▁зад 37444
▁ытти 37440
liğin 37431
▁bayram 37431
еләр 37423
ысты 37422
▁iddia 37417
▁опять 37413
▁card 37412
▁иҫ 37408
iyə 37407
▁condition 37403
▁Тө 37403
▁durmuş 37401
▁паль 37401
▁донъя 37395
▁данным 37392
time 37389
▁кәсіпкерлер 37385
теріне 37383
▁saq 37383
▁ata 37381
▁аст 37378
раҡ 37377
▁имущество 37374
▁Keşke 37373
▁belg 37367
▁bazıları 37363
▁меш 37358
ительства 37352
▁транзит 37352
ocks 37348
▁plans 37347
▁Harry 37338
▁açıkça 37336
▁соответствующие 37334
▁выбор 37331
▁Sağlık 37330
bur 37325
▁olduğumuzu 37325
цен 37320
▁finish 37320
II 37319
▁груз 37315
▁Ark 37312
▁Trans 37312
▁шағым 37312
liğ 37301
▁случаев 37301
▁att 37299
▁Кат 37296
▁tort 37294
▁международного 37291
▁нарық 37291
▁Мистер 37289
▁Off 37285
▁конкур 37283
▁taught 37272
▁көрүп 37269
▁участ 37266
оо 37254
▁государственные 37248
▁поддерж 37244
▁зарыл 37243
▁yerda 37236
▁ұйымда 37236
▁biliyordum 37232
торы 37229
ides 37227
▁обращения 37224
▁нав 37223
▁Yetişkin 37215
▁harm 37215
нев 37214
▁zi 37210
▁объедин 37209
▁миним 37208
▁sekiz 37205
▁planned 37203
▁дамытуға 37202
алим 37200
▁испыт 37197
▁broke 37190
▁медицина 37187
▁Эсӗ 37184
▁Mahkamasining 37183
дең 37182
ивает 37181
rup 37180
▁boğ 37176
▁boss 37173
ӗк 37168
▁işine 37167
▁başında 37165
▁заполн 37165
▁tanıyor 37163
▁Allahı 37162
жыл 37159
▁Tony 37157
▁Батыс 37156
▁olduğunda 37155
▁Over 37152
raw 37142
▁zlari 37141
▁механизм 37141
ýärdi 37139
▁student 37139
ИС 37133
▁host 37133
▁теләгән 37133
▁кӗт 37128
малли 37123
▁değiliz 37120
▁проблема 37117
ığımı 37111
▁qaç 37110
▁уш 37107
uch 37105
бой 37105
▁рынке 37097
▁тейеш 37097
cer 37096
▁бан 37094
▁religion 37093
▁предлага 37092
▁чык 37092
▁Mel 37091
▁imagine 37083
нулся 37081
atan 37079
▁опис 37075
▁ministry 37072
▁технологиялар 37072
▁исслед 37069
▁ECTS 37068
▁nedeniyle 37068
▁расшир 37068
▁pas 37066
▁жылына 37066
▁mem 37064
▁verən 37063
▁сала 37059
▁fat 37056
va 37055
▁tedavi 37047
▁кенә 37039
▁alış 37036
▁dance 37035
▁Their 37034
рыв 37030
учу 37029
▁İçeri 37026
ulation 37021
▁yaratish 37020
ләрдән 37018
▁вернуться 37017
▁ov 37011
▁sığın 37008
▁взять 37001
▁master 36999
▁определ 36991
ылан 36987
▁қосымш 36986
▁olub 36983
▁tibbiy 36975
▁Акмолинской 36975
▁хаким 36973
▁коллектив 36972
▁палаты 36969
isiniz 36967
▁heyecan 36965
▁sağlamak 36962
▁Нух 36961
emey 36957
▁kullanarak 36957
▁realize 36955
▁bulundu 36952
▁түш 36949
▁enerji 36943
▁provides 36941
▁lies 36939
▁vazif 36936
▁Koc 36931
▁билдә 36929
▁radio 36928
▁istiyorsan 36925
▁тағайындау 36919
▁uygulam 36915
▁kurum 36911
▁құқылы 36908
▁Sim 36907
▁ува 36906
uf 36905
▁Antalya 36899
▁оплаты 36899
▁ildə 36891
▁bus 36888
ҫҫ 36886
▁discuss 36883
▁various 36883
ises 36882
▁arkadaşın 36882
▁статисти 36881
▁частью 36880
▁автор 36879
▁ҙур 36876
▁Gidin 36875
▁составе 36874
lıdır 36873
▁razı 36870
▁protection 36868
iting 36865
▁Жаз 36864
▁strength 36861
▁direct 36855
▁June 36853
▁годов 36852
<0xBC> 36840
▁politik 36838
стардың 36834
▁Rob 36833
▁Özellikle 36830
▁тоқсан 36828
діру 36826
▁жұмысқа 36825
▁cehennem 36817
▁Ооба 36817
▁ұзақ 36815
azi 36811
▁қызметкер 36810
▁тӗслӗх 36809
▁халӗ 36809
▁çök 36807
▁семья 36807
дырыл 36805
▁vacib 36804
▁Мил 36802
аторы 36799
▁ibodat 36794
хран 36790
▁населенных 36784
▁expected 36783
▁Ali 36782
▁ekran 36779
▁ishon 36778
▁Давыт 36778
имости 36776
▁toward 36772
▁həqiqət 36770
year 36766
▁планируется 36766
▁қызметке 36765
▁дерев 36761
▁arkaly 36760
▁хим 36756
оғ 36750
▁Şahit 36750
▁плохо 36749
▁небес 36748
ейтін 36747
▁kamer 36742
▁kendisini 36742
▁Peyğəmbər 36739
бол 36735
▁carry 36733
▁olman 36731
ою 36727
▁Sakin 36727
▁aldat 36725
аттарын 36722
▁вокруг 36721
▁қаңтардағы 36720
▁научных 36717
▁çocuğun 36716
▁boshqaruvi 36715
▁قىلى 36715
▁görül 36713
etli 36709
▁Under 36709
чать 36707
▁fer 36700
▁айрым 36691
▁столицы 36689
▁инвестиция 36687
▁track 36683
▁адамдардың 36679
▁Fin 36675
▁miras 36674
▁щ 36672
üğ 36671
▁Ұйым 36670
▁выполнение 36669
ілі 36667
▁Bunları 36667
нә 36655
▁көб 36653
▁Ateş 36652
▁padşah 36652
azı 36650
▁Had 36644
▁Def 36640
▁January 36639
▁Sand 36632
▁talep 36627
▁accident 36626
▁feelings 36621
▁exc 36620
▁ichki 36620
▁tree 36620
▁toplam 36619
▁tərəf 36616
▁anlayış 36614
▁iyisi 36612
edeki 36610
▁кич 36609
side 36608
▁ош 36608
шка 36607
tiler 36605
орган 36604
▁sweet 36604
▁davam 36603
▁Иоанн 36601
▁зачем 36601
ladın 36598
▁nobody 36597
▁particular 36596
▁Пусть 36596
▁яһ 36595
raf 36593
▁olduklarını 36593
lie 36588
▁creation 36587
▁üçüncü 36584
▁joint 36580
▁тегі 36575
▁şanslı 36571
▁қатысушы 36570
▁Film 36569
ләш 36568
▁баарын 36563
стыр 36562
▁операция 36558
▁bulunuyor 36557
▁ялган 36555
▁tərəfindən 36551
▁Sav 36545
▁ми 36544
▁вет 36543
▁барысы 36536
раб 36533
▁камил 36529
▁сферы 36525
▁Star 36524
anyň 36518
дия 36517
ливо 36516
dr 36514
▁пришли 36513
malari 36507
ткан 36503
▁March 36499
▁айтуу 36491
▁мүгедек 36488
ological 36483
ünə 36482
▁rioya 36473
▁таможенных 36472
▁positive 36469
▁Martin 36467
▁Luke 36461
цент 36454
▁ытларах 36453
ck 36450
▁ilham 36450
ress 36443
▁renk 36442
▁коммер 36440
▁Потом 36438
▁кәсіби 36432
▁толықтырылсын 36426
▁ilet 36425
▁Child 36424
▁practice 36418
уются 36417
яв 36405
▁include 36405
▁sanmıyorum 36399
Bu 36394
udu 36392
▁Görünüşe 36390
▁gu 36388
СК 36386
▁marry 36386
üre 36381
▁imkoniyat 36380
▁Messenger 36378
▁жена 36377
▁Оп 36376
▁жолы 36374
▁Galeri 36372
▁bacı 36367
най 36365
iness 36364
ҙәре 36362
▁сотрудников 36361
udy 36360
▁ягъни 36358
▁ederler 36354
▁нысаны 36354
▁иннова 36352
▁тон 36350
▁Board 36349
▁скажу 36346
▁радио 36342
▁demişdi 36338
▁держ 36338
▁BM 36333
▁bahç 36333
иро 36332
▁movie 36321
▁ужас 36315
masının 36308
▁professional 36308
ваем 36303
▁кейінгі 36303
▁agree 36302
▁hum 36302
joy 36294
▁Сем 36292
▁очеред 36289
▁любит 36286
▁посел 36286
▁Besides 36284
star 36280
▁парать 36278
▁рождения 36278
▁пойти 36277
▁жум 36275
▁bos 36273
▁growth 36272
▁loving 36272
▁яҡ 36270
▁Дом 36266
▁подчеркнул 36259
▁вәгъдә 36256
▁капит 36253
▁rsatish 36251
▁markazi 36246
▁мон 36246
▁өсу 36246
▁organization 36245
▁fak 36237
▁вар 36237
▁подлежат 36237
▁açıq 36236
▁prof 36235
▁очраш 36235
ву 36223
▁турист 36223
▁пусть 36221
▁rule 36209
▁міндет 36203
▁araştırma 36202
▁пи 36195
▁buldu 36192
mayacağım 36190
▁quick 36187
эм 36186
är 36182
▁получил 36182
▁alm 36181
▁direction 36179
▁mö 36176
▁پ 36176
mıştım 36173
▁nefes 36173
▁кы 36173
▁AM 36165
▁bunda 36165
ываются 36160
▁vasitəsilə 36160
▁Bring 36159
▁күк 36157
▁защит 36156
etim 36154
▁кӗр 36150
alary 36148
▁media 36148
▁bulaş 36144
▁вс 36144
▁Güvenlik 36140
▁yazık 36140
inizden 36139
çy 36136
eral 36134
Министр 36124
▁kasb 36124
▁günde 36120
ательных 36115
▁vaziri 36115
▁разб 36112
▁XX 36111
▁Zh 36107
▁çant 36105
▁məsihçilər 36103
zaro 36102
alet 36099
▁выпуска 36093
еше 36089
министр 36088
тиру 36086
▁talked 36086
▁физической 36079
▁Güneş 36078
▁lik 36075
▁Jeff 36073
▁Sayfa 36071
▁staff 36071
▁слышал 36068
▁loyih 36067
▁Süleyman 36060
▁хозяйств 36058
сө 36054
айса 36053
umb 36046
щий 36046
▁пурне 36042
бит 36041
▁adlandır 36040
lav 36034
▁выстав 36032
▁отчетности 36032
▁Should 36031
▁последний 36029
▁пла 36028
iyatini 36026
▁Аллаһуга 36026
pp 36021
▁илме 36020
▁naf 36019
madık 36018
ody 36012
▁kızlar 36007
▁зависимости 36007
▁Гол 36004
▁қарым 35999
▁getirir 35993
ремен 35990
дерінің 35988
▁dəyiş 35987
кус 35986
əş 35981
ott 35975
▁правовых 35972
▁Tor 35969
▁Rah 35964
▁ulaşım 35959
▁хӑвар 35955
ored 35952
▁قىل 35952
держ 35945
ушылардың 35943
▁bilməz 35943
▁Centre 35937
etic 35935
▁forgive 35935
▁wepaly 35934
ымдық 35932
▁Sür 35929
dor 35926
ӗш 35922
▁dava 35922
тим 35918
▁рассказал 35915
avi 35909
▁вел 35909
чается 35904
işim 35901
дий 35900
▁ödül 35900
ayev 35894
өп 35894
evi 35890
руг 35889
▁тухса 35889
▁Ислам 35887
▁Библия 35884
▁бис 35882
▁online 35881
▁biziň 35880
▁inanılmaz 35871
▁aşık 35870
▁mustahkam 35869
коль 35865
▁endiş 35865
▁London 35859
▁профилакти 35849
▁сторону 35842
▁miqdor 35838
▁установленных 35836
▁stat 35834
▁ақша 35834
▁measures 35827
▁məni 35824
▁Тау 35814
▁İnsanların 35811
dam 35803
▁достиг 35800
кс 35796
▁angels 35796
▁выполня 35786
amın 35784
▁aid 35779
▁olacaksın 35779
▁какая 35777
▁йылдан 35774
izmi 35772
medik 35769
▁Və 35766
▁тасымал 35765
һеҙ 35764
ured 35763
dıq 35759
▁прошлом 35754
▁измени 35749
▁дает 35748
▁яңа 35747
▁Subject 35744
▁gayet 35744
▁дальнейшего 35741
ИК 35738
je 35733
▁yasak 35731
▁sevinç 35717
▁Time 35716
گ 35708
бен 35706
▁ring 35705
▁жу 35705
ladığı 35702
amadı 35697
▁şol 35697
jek 35696
▁science 35696
▁Жыл 35690
▁образовательных 35687
деген 35683
ИЯ 35675
▁сұрау 35675
eceğimizi 35673
чить 35670
ткен 35668
▁выл 35667
юр 35666
▁fix 35663
▁сипаттамасы 35662
ait 35659
▁hikmet 35657
АМ 35649
▁Matthew 35649
▁инвестициялар 35649
дания 35646
▁домов 35643
▁Sayın 35638
▁воскрес 35637
оре 35635
urdu 35628
таган 35628
▁бұзушылық 35627
İK 35624
▁жетілдіру 35617
▁Muh 35615
▁acqu 35607
▁смогу 35606
▁thinks 35602
▁өлүм 35599
▁complex 35598
▁led 35598
▁пог 35592
▁kelime 35590
▁бұйрығына 35585
▁Something 35583
▁ش 35583
▁watching 35579
ағын 35578
▁Sure 35578
▁ishga 35578
▁платежей 35577
▁мамиле 35575
▁мәлім 35570
▁сарап 35565
▁әле 35562
гаш 35561
▁пир 35561
▁kahraman 35560
▁wedding 35560
▁полу 35558
▁işim 35557
▁Cap 35555
тама 35553
unlar 35552
uff 35551
▁манӑн 35550
▁Ra 35547
▁зыян 35547
▁mev 35545
▁зовут 35545
▁нимӗн 35542
▁Health 35541
рот 35537
▁тез 35537
▁Bud 35530
▁образователь 35530
▁Бан 35526
▁қатыс 35523
▁түрлер 35520
▁mistake 35517
▁результатам 35516
▁mutaxassis 35514
▁предвар 35512
▁iştirak 35507
▁greater 35503
▁söylüyorum 35503
ird 35494
iling 35491
яют 35491
sının 35489
▁Sub 35489
оло 35488
▁зав 35481
имо 35476
▁AT 35475
▁Hat 35474
▁anı 35471
▁İman 35470
▁қатысуымен 35470
імі 35467
▁Бүгін 35465
фф 35464
▁justice 35464
▁благодар 35463
▁женщины 35462
▁Watch 35456
▁получен 35456
ebilecek 35454
▁Lounge 35454
▁tashqi 35453
گەن 35437
▁подразделения 35436
▁фонд 35435
megi 35434
ентом 35434
▁apart 35433
▁swe 35432
▁Иеговӑн 35431
acağına 35430
рине 35428
алын 35426
▁məsihçi 35424
▁обмен 35424
▁Steve 35422
▁نىڭ 35418
ость 35414
▁Nik 35412
▁информационно 35409
▁мониторинга 35408
▁meaning 35406
▁пултаратпӑр 35405
▁ýaz 35403
▁шесть 35403
рук 35401
▁cal 35396
▁рын 35396
▁получили 35394
▁sot 35385
▁приказу 35381
▁зоны 35378
▁самый 35373
▁Yetişkinler 35369
▁транс 35369
▁Бож 35368
беҙ 35364
▁əmr 35363
▁Guests 35362
yapti 35356
▁облысында 35346
▁akl 35341
▁sayəsində 35341
▁мөмкинлек 35336
▁Тараптардың 35335
▁Хәмитов 35333
ilmagan 35330
▁родители 35330
▁Erkek 35329
▁сет 35329
makta 35327
▁narx 35327
▁санитар 35327
aret 35326
рами 35320
▁middle 35320
▁istemiyor 35316
▁силер 35313
▁tw 35305
▁Cur 35294
▁Республикасында 35293
илет 35284
▁паспорт 35283
▁geçer 35279
▁guidance 35279
▁албай 35279
▁kızın 35277
▁yourselves 35276
▁therefore 35266
▁мамил 35265
ket 35257
▁Ҫавӑнпа 35255
▁ұсыныстар 35255
ovich 35253
дум 35251
ilsin 35248
▁малого 35248
ӑва 35245
▁əh 35245
lıkla 35244
▁August 35243
▁билдир 35242
үнү 35241
▁ordu 35241
аттардың 35240
манов 35240
ПО 35239
ничес 35239
▁жек 35239
mini 35236
арына 35234
▁blind 35233
▁görüşürüz 35233
▁ветеринар 35232
▁гидро 35232
▁tanık 35225
▁депутат 35225
▁Богом 35218
▁басшылары 35213
▁давно 35213
yer 35212
▁эскер 35210
▁пож 35206
▁дау 35203
▁baban 35200
▁Faculty 35192
▁Sit 35192
▁edərək 35192
▁өң 35190
▁cry 35188
▁koşul 35187
вол 35185
ınızda 35183
▁melek 35182
▁гер 35181
жения 35180
▁сих 35168
▁aholi 35164
екс 35160
ящих 35160
▁etiladi 35157
▁болуу 35155
▁Oraya 35153
▁Организация 35148
layıcı 35147
▁smart 35146
ros 35144
▁negative 35143
▁начал 35137
▁Such 35135
▁etmesi 35135
IY 35131
che 35127
▁мүше 35125
▁beyin 35124
▁ў 35124
▁dedin 35122
▁nitelik 35122
шк 35119
▁инфек 35117
▁okuyun 35116
▁шатлык 35116
▁ziy 35115
▁below 35114
▁ви 35111
esp 35108
▁Therefore 35106
▁weird 35101
▁тест 35098
▁өтеу 35093
▁Buradan 35089
▁boyun 35086
▁sohasidagi 35085
▁Интернет 35083
құқықтық 35079
стоя 35077
ower 35073
▁Государственный 35073
▁виз 35070
▁hediye 35069
▁түрлері 35067
▁кри 35066
ign 35054
▁apply 35054
▁видела 35053
▁взял 35052
ňiz 35050
▁түй 35041
▁rob 35036
▁брос 35036
▁дене 35036
▁билген 35032
▁song 35030
▁uchrashuv 35022
▁дверь 35021
▁Мол 35018
▁перевод 35018
▁прекрас 35018
▁ec 35013
▁prove 35010
gel 35008
▁haft 35008
▁говорила 35007
▁müh 35005
▁powerful 35003
▁құр 34989
▁rahbari 34988
▁qor 34987
▁заявление 34987
▁ýok 34986
▁qız 34985
баған 34975
▁potential 34974
▁prepared 34973
məy 34972
дігі 34972
▁Тарап 34972
▁организациях 34964
▁фир 34963
▁деятельностью 34956
▁акционер 34950
▁vaqtida 34948
▁tour 34947
▁tanıtım 34946
▁ант 34940
▁Dep 34939
жда 34936
▁Vegas 34935
уска 34934
пас 34929
▁systems 34929
▁всему 34927
▁кис 34924
▁имею 34921
▁добав 34920
вор 34917
руд 34915
▁специального 34914
▁Union 34912
▁пулӑш 34912
▁меч 34907
▁үзен 34907
▁направлении 34903
<0x9F> 34902
ication 34902
amadım 34900
▁Ge 34900
▁Сколько 34897
▁Doğrusu 34896
▁tor 34896
ota 34894
▁сенім 34893
▁sahte 34889
▁plant 34888
▁союза 34888
▁tarif 34884
▁pull 34883
▁truly 34883
▁қаулының 34878
▁интересов 34874
алган 34873
▁Управления 34870
OD 34868
▁Didn 34865
▁tadbirkorlik 34865
dikleri 34862
▁любой 34861
aps 34859
тери 34856
▁Ram 34855
имой 34853
▁операции 34853
работ 34852
▁aracılığıyla 34852
▁одино 34852
osed 34851
▁Think 34851
▁моим 34849
▁göstərir 34848
▁tasdiq 34847
▁öldürür 34844
▁хар 34842
▁ұсынады 34837
wards 34836
▁Eğitim 34833
kid 34830
▁лек 34827
аем 34825
▁бұз 34823
ification 34822
▁аяк 34820
▁жаль 34820
▁Lee 34815
▁друж 34812
lanib 34808
▁ич 34802
▁Taşıma 34801
▁Кур 34799
▁жетк 34799
▁жабдықтау 34798
▁связан 34797
▁sight 34792
▁beat 34788
▁ары 34787
имые 34784
ауы 34782
▁базе 34778
▁gain 34776
ерек 34775
▁ашыу 34775
▁субъект 34774
▁рәсүл 34771
▁adamlaryň 34770
▁başvur 34761
▁ölür 34760
▁həmçinin 34758
▁quiet 34757
▁Ташкента 34757
▁understanding 34756
▁Still 34753
▁yubor 34751
▁Башинформ 34750
▁толук 34749
▁zatlar 34736
▁Char 34735
▁төлемдер 34733
▁максат 34732
▁меньше 34732
▁оцен 34732
▁Kul 34731
▁daima 34726
▁luck 34722
рован 34719
▁Masalan 34715
▁ыйт 34713
▁Хочешь 34710
▁дороги 34710
▁society 34708
▁verdiyi 34701
▁Мӗн 34701
amıyor 34699
▁Asia 34697
▁mukaddes 34690
▁viloyat 34686
imni 34685
lemeye 34683
ческая 34681
▁wear 34678
əcəyik 34676
▁ишен 34676
) 34673
ıyım 34673
amb 34668
▁terrible 34663
▁korum 34662
▁bahsetti 34659
port 34656
▁состояние 34655
▁tufayli 34653
▁misafir 34652
▁Search 34651
▁поклон 34647
▁sem 34646
ify 34645
абы 34638
naviy 34635
▁arm 34635
▁süt 34634
لەر 34633
▁приготов 34633
ağını 34623
uvch 34618
▁Пал 34617
▁вновь 34617
▁Nice 34615
дүк 34612
▁xabar 34612
▁Российской 34611
▁dağıt 34609
▁бойы 34609
▁Алланың 34606
▁дәреж 34606
▁xizmati 34600
▁өңірлік 34597
ылығын 34596
▁ban 34596
▁careful 34594
▁kod 34591
▁hadis 34590
▁fit 34585
шими 34582
▁demək 34579
▁ride 34579
▁Какие 34579
▁периода 34576
▁Alb 34575
▁biç 34570
▁Например 34568
▁oladi 34566
▁derg 34564
▁sıkı 34559
▁мұндай 34558
▁смерт 34554
ward 34547
▁ulardan 34547
ілікті 34545
ough 34543
▁Fran 34541
tuk 34538
▁earlier 34530
▁форма 34527
<0x60> 34526
▁busy 34526
▁анткени 34524
▁usul 34521
öv 34518
▁өзін 34516
▁предусматри 34510
▁арест 34505
▁ozod 34497
лата 34496
▁ҫырнӑ 34491
▁lari 34490
▁Қор 34490
▁ҫывӑх 34490
▁appreciate 34488
▁anlıyorum 34487
▁gener 34483
▁ине 34483
▁hətta 34482
▁dangerous 34481
▁olmalısın 34481
▁подтвержда 34473
ekleri 34471
▁yesterday 34471
▁anladım 34456
eceğimiz 34455
▁бірақ 34455
▁регионов 34455
əcəklər 34452
▁закреп 34448
▁помог 34444
oot 34441
▁increased 34441
▁başı 34439
ike 34436
acaklar 34431
▁Fethiye 34430
▁writing 34430
▁исполн 34421
▁билим 34417
▁gidiyoruz 34414
▁районы 34413
▁имеющих 34407
әбез 34402
▁bizni 34401
▁odası 34394
кос 34392
▁күнөө 34391
▁парня 34388
ləndir 34386
▁matters 34384
▁xodim 34383
▁markaz 34381
▁bell 34380
▁planet 34380
▁басып 34379
düğ 34376
▁айтылат 34376
▁walking 34372
▁sın 34371
gil 34370
▁carried 34366
▁Im 34364
▁şiddet 34362
▁серьез 34362
▁respond 34358
▁caught 34351
▁Хар 34351
▁Парламента 34349
▁adamları 34344
▁meetings 34340
▁şaşır 34338
▁күрен 34336
▁охране 34335
▁Tes 34334
▁kil 34333
ched 34332
▁содержание 34331
▁современ 34330
▁şirk 34324
▁Suç 34321
elt 34317
▁инвестиционных 34316
утся 34315
▁Mik 34311
ровать 34310
▁göm 34308
▁қабыл 34305
light 34302
▁тради 34302
▁yalvar 34299
▁специаль 34298
DA 34295
▁созда 34294
▁uzat 34293
▁заверш 34291
сту 34286
▁qilishni 34278
▁концерт 34276
▁стрем 34276
дөр 34266
▁rem 34266
▁технических 34264
▁cat 34260
▁Сыртқы 34260
▁осуществ 34252
енному 34248
▁raised 34245
▁Kuzey 34244
▁оказывается 34244
duğunuz 34243
▁standing 34243
bon 34231
▁жылдар 34228
▁волн 34226
▁Restaurant 34225
▁mart 34221
альному 34216
▁необходим 34214
▁сделала 34214
▁activity 34212
▁korun 34212
▁мәслихат 34212
▁потребителей 34211
▁часа 34211
лердің 34206
▁подчин 34203
proq 34200
▁güçlendir 34193
▁Эк 34193
▁придется 34190
▁syn 34180
▁шыв 34180
▁қарыз 34180
▁усп 34179
▁құралдарын 34173
▁бөлшек 34166
▁hakkı 34163
зе 34162
▁главы 34157
▁yıllık 34147
лерд 34146
▁сад 34145
▁проц 34143
▁определя 34140
▁шетел 34140
▁Old 34133
▁рәсімдер 34130
▁тро 34130
▁gittim 34129
▁хабарлайды 34126
▁itiraf 34124
▁сосед 34120
▁endişelen 34113
▁көбүрөөк 34113
zgar 34111
▁reports 34106
гач 34105
▁iyidir 34102
рист 34101
▁тулы 34101
cak 34100
▁kalın 34097
▁Mısır 34096
▁Reb 34086
▁azal 34085
▁алғаш 34083
▁изилдөө 34081
▁нисек 34080
alashtirish 34076
▁mail 34076
▁sel 34072
imizden 34071
▁responsibility 34067
▁store 34066
▁çıkmış 34063
▁ҫавӑнпа 34062
▁сынақ 34061
▁средствами 34060
▁Deniz 34057
улган 34056
▁үлгү 34052
лігін 34051
rt 34050
▁truck 34050
▁ӳк 34044
▁предлож 34043
рәк 34042
▁hujjatlariga 34042
omb 34038
▁көрсетуге 34035
▁scared 34031
▁башлаган 34027
▁baskı 34023
Evet 34017
▁interesting 34017
▁bought 34016
▁yür 34015
асымен 34014
ғал 34010
▁Ryan 34010
▁знала 34010
▁тапшыр 34008
очка 34003
уны 34003
alk 33999
▁қалай 33998
ırız 33995
▁ликвидации 33994
süz 33990
▁үрнәк 33986
щее 33985
▁Brian 33984
▁higher 33982
cular 33976
▁хӗрарӑм 33969
ەي 33966
елов 33965
үт 33964
▁spoke 33964
ont 33961
▁xususiy 33960
▁регулиру 33958
IK 33957
▁жары 33957
▁nu 33955
▁citizens 33954
▁reached 33947
▁чы 33947
▁прог 33945
▁yilning 33944
▁конт 33944
▁difference 33938
▁бұйрық 33938
zini 33935
▁особо 33934
▁другое 33931
гү 33930
▁горя 33924
▁handle 33923
▁машины 33922
▁Прости 33918
асшӑн 33907
▁святой 33899
▁алатын 33898
tedir 33893
▁Club 33893
▁жинау 33890
▁представить 33888
▁присут 33888
▁buldun 33886
▁religious 33886
▁developed 33884
кор 33880
▁Тот 33879
▁Рустэм 33878
▁bun 33877
пан 33874
▁count 33860
▁саб 33847
▁ят 33845
▁ҫакӑн 33841
▁земля 33838
чено 33837
▁өзүн 33836
▁pray 33835
аптар 33830
▁getirmek 33830
▁смысле 33830
tle 33827
▁clothes 33824
▁kum 33820
▁назначен 33814
▁решил 33813
▁Ste 33810
▁sons 33810
▁организацию 33810
aff 33809
улу 33803
▁бақ 33799
▁arzu 33796
▁руб 33796
▁counsel 33794
▁эксплуатацию 33792
▁аер 33791
▁официаль 33789
▁swear 33785
▁Каждый 33785
▁Fine 33783
зер 33781
▁қо 33779
▁ҫыр 33779
▁внеш 33777
алатын 33775
▁hujjatlarida 33775
▁территорий 33773
нах 33772
▁Government 33762
▁destroyed 33762
лиз 33757
▁мужчин 33755
▁yönlendir 33751
▁хаҡында 33736
▁внес 33735
▁başkan 33733
▁Oyun 33731
▁назар 33731
▁cases 33729
▁Alt 33727
▁Hy 33724
▁тарих 33724
▁техника 33723
▁линии 33720
▁опера 33715
ателям 33714
тармаққа 33713
▁teaching 33713
гля 33709
ilerden 33707
▁fault 33707
▁суб 33707
▁ochiq 33702
▁spread 33700
▁Фото 33698
▁agent 33696
▁пользования 33695
▁vakti 33691
▁молод 33687
ограф 33686
▁hundred 33685
▁аңлат 33684
▁убил 33684
▁Бұдан 33683
▁Положение 33678
لىق 33675
елю 33674
▁Бюджет 33673
▁Best 33671
▁внести 33670
▁тарап 33669
▁Хамитов 33667
atlarda 33663
anlı 33662
▁blow 33660
▁established 33658
▁göl 33648
▁yum 33641
дите 33638
▁мөнәсәбәт 33636
▁malik 33635
▁proud 33635
▁задачи 33634
▁çalışmak 33633
▁Господ 33632
▁beyler 33631
▁бірқатар 33630
рим 33627
▁құралдары 33624
мент 33622
▁düğ 33617
eceksiniz 33615
чения 33615
▁regard 33613
liler 33610
▁кабинет 33610
▁қалпына 33609
▁ҫап 33605
▁Күп 33604
eceğiniz 33602
lanması 33601
▁постоян 33600
▁numbers 33596
▁берсе 33596
пу 33594
▁Asla 33593
miştim 33591
tınız 33591
тарма 33591
▁söylüyorsun 33580
▁graph 33578
▁удел 33578
▁çocukların 33576
▁характер 33569
▁соответствующ 33567
▁Fire 33564
чку 33560
▁Комп 33560
▁Иегову 33553
▁разработки 33549
▁выплаты 33548
лени 33544
▁служить 33543
▁сағ 33541
▁proper 33535
▁Bobby 33533
▁состоя 33533
қосымшаға 33530
ческим 33528
▁heads 33527
▁uyan 33526
ığınızı 33523
ağına 33516
ymyz 33516
▁yerdə 33515
▁восп 33513
нюю 33510
▁gören 33509
▁quickly 33509
▁конференция 33508
▁Sports 33503
▁Чем 33500
▁günlük 33498
▁раб 33496
▁och 33493
▁val 33493
▁ýet 33487
▁разряд 33487
ention 33485
▁Otopark 33485
▁Luc 33483
▁meydana 33483
▁sodir 33483
▁шам 33482
▁görünüyorsun 33480
▁устро 33479
▁спис 33474
▁істеу 33473
oat 33460
▁kapıyı 33460
▁zek 33459
▁faol 33454
atini 33453
▁mənim 33453
▁сығ 33451
▁факт 33451
▁әйтеп 33450
▁саяси 33447
▁рай 33444
▁hız 33442
▁қызметтің 33442
▁İçilmeyrn 33438
▁qad 33437
▁Башҡорт 33432
▁хай 33431
майтын 33427
▁тери 33427
▁метал 33423
▁pressure 33421
▁imz 33419
▁stopped 33419
▁throw 33419
masa 33407
арь 33406
▁gönderdi 33405
▁Иван 33403
▁individual 33402
көн 33399
mişdi 33398
▁lying 33398
▁CH 33392
екті 33388
малы 33386
▁metr 33386
âh 33385
▁Sakın 33380
▁borasida 33372
▁Сов 33369
▁ýüre 33368
▁Мир 33367
▁программе 33367
▁delil 33365
ەن 33364
кции 33363
▁şef 33359
▁тоқ 33359
▁гамәл 33354
▁чыныгы 33354
датель 33353
▁centre 33351
▁karş 33351
▁Boston 33346
▁совмест 33345
▁Bunday 33341
▁atrof 33341
зна 33334
ленного 33330
▁затрат 33328
еда 33320
▁Oğlum 33320
stan 33317
▁investitsiya 33317
▁технологии 33315
год 33314
▁бү 33312
▁bırakın 33310
▁услов 33307
▁ut 33303
▁ft 33302
▁adalet 33297
▁правитель 33293
▁санитарно 33290
▁схем 33290
▁повышению 33288
▁namoyon 33287
▁Нужно 33287
▁daromad 33281
▁жүргізеді 33281
▁Положения 33280
▁известно 33277
▁әлем 33271
көл 33268
▁yazar 33268
▁Hepimiz 33263
▁компаний 33260
▁санитарлық 33255
▁нығайту 33252
масӑр 33248
▁speaking 33247
▁Мисалы 33246
дами 33244
▁Ес 33244
▁күнү 33241
ақты 33240
izing 33239
мге 33239
▁субъектілер 33238
▁учеб 33229
▁баға 33228
▁ислам 33225
евые 33222
▁muammo 33222
▁келиш 33222
енз 33221
▁глава 33219
▁бірлескен 33216
▁ice 33210
јә 33204
▁біліктілік 33202
▁әҙер 33202
енті 33200
iles 33199
▁үч 33193
luyor 33192
▁deng 33186
▁вӑр 33185
▁shar 33179
ənlər 33178
▁наде 33178
▁duş 33175
tum 33173
▁соответствующей 33172
▁Центра 33170
gor 33169
▁пле 33169
▁amazing 33168
▁биздин 33164
▁Fl 33163
▁shouldn 33163
▁ұш 33163
▁каг 33162
▁экологиялық 33160
▁Yapma 33155
▁dinlem 33155
▁распис 33152
ýarlar 33148
▁экономик 33142
▁Yanlış 33135
▁vəziyyət 33133
▁финанс 33133
▁сельских 33129
▁Суд 33128
uldu 33127
▁Biroq 33126
▁hide 33126
▁эшләй 33124
▁Life 33121
▁aytgan 33120
▁sorunu 33120
▁нөмір 33120
ја 33115
▁Uluslararası 33114
▁гаилә 33112
▁Kara 33108
▁sitting 33107
▁sorumlu 33105
▁Oy 33103
оту 33102
рун 33101
▁китергән 33101
▁обратно 33097
асси 33096
▁ишет 33095
chisi 33094
olat 33094
▁produ 33092
▁көрсететін 33092
▁yönelik 33085
▁bö 33081
▁psych 33077
беген 33075
▁Italy 33072
▁Yahud 33072
▁вступает 33072
iň 33067
▁баҫ 33066
атура 33060
▁deyilir 33060
▁күші 33060
▁ged 33056
ляться 33054
▁валли 33052
▁Eminim 33049
▁kimseye 33049
▁ҡабул 33042
▁сараптама 33041
▁хотят 33037
▁mess 33032
▁судья 33031
▁wicked 33023
▁количества 33023
▁blue 33018
кай 33016
▁şükür 33016
▁зай 33016
▁тю 33013
▁сертификат 33011
▁etildi 33008
▁кылат 33007
▁пӗлет 33006
▁сау 33006
▁ваша 33004
مىز 33003
ӗнчи 33000
▁пенсион 32997
▁смерть 32996
▁глаз 32995
▁агро 32994
▁yürüy 32991
▁капитан 32991
▁tahlil 32987
▁разве 32984
▁урӑх 32982
▁говоря 32980
▁приб 32980
▁gazet 32979
▁оцени 32977
бет 32975
▁nature 32975
бызны 32974
▁Justice 32969
▁алын 32966
▁qeyd 32965
▁селолық 32964
umun 32963
▁followed 32962
▁youth 32962
▁بىر 32960
▁жүйелер 32958
lies 32957
▁предоставлении 32954
irli 32950
▁жұмысын 32945
▁ismini 32944
▁рейтинг 32938
▁Поистине 32933
▁терп 32928
▁skin 32927
▁verdin 32927
▁equ 32926
▁ячӗ 32926
▁located 32925
▁Соглашение 32925
▁вил 32925
▁advice 32924
іліп 32919
▁көптөгөн 32919
▁айтканда 32915
▁rah 32913
▁видели 32913
▁йылдың 32911
▁зданий 32909
▁офицер 32908
мыз 32903
▁dikkatli 32902
есп 32901
ені 32895
▁Ошондо 32895
ela 32893
әзаб 32892
▁fighting 32887
▁suit 32885
▁дұрыс 32885
▁Kurt 32884
▁чемпион 32884
uru 32878
▁велич 32877
▁honest 32876
▁chek 32875
▁стационар 32875
ряд 32869
▁ҫирӗп 32867
▁төрағасының 32860
▁kişiyi 32856
ners 32855
▁Zor 32853
▁acil 32850
▁введения 32850
▁flow 32845
▁гар 32845
▁Кодекса 32844
▁Mis 32842
диң 32838
нула 32837
▁обязанностей 32833
▁Dol 32832
▁Sab 32832
▁hudud 32826
▁преступления 32826
▁Пом 32825
ылыҡ 32824
▁loss 32824
▁принимать 32816
▁человечес 32815
▁sax 32814
▁мү 32814
▁pal 32813
▁resurs 32812
рақ 32811
▁үлгі 32809
▁tom 32806
▁выдача 32805
▁oq 32799
▁wall 32798
ілігін 32793
▁спросил 32792
▁Des 32791
▁жылдары 32790
жей 32789
▁anlama 32785
▁lumot 32785
▁çıkıp 32785
▁жолдоочулары 32783
▁земельных 32782
▁минист 32782
ğu 32781
ированных 32780
▁char 32779
▁pot 32779
▁Prezident 32777
ствуют 32776
▁Крас 32772
▁органының 32772
эк 32768
dığımız 32765
▁призн 32765
▁үлесі 32765
▁öp 32762
▁Аудандық 32759
▁исполнение 32756
▁кешенең 32756
ipe 32750
▁четвер 32745
▁Museum 32737
▁ста 32735
▁arama 32733
▁ҫылӑх 32733
malarına 32725
▁Hell 32722
OC 32721
inda 32720
▁yaptığın 32718
▁qaysi 32715
▁Обеспечение 32713
▁нече 32713
▁kilit 32711
ills 32707
▁лаборатор 32707
▁kızım 32706
hal 32705
ledik 32703
▁двиг 32698
▁bırakıp 32696
▁Соңғы 32696
▁ӗмӗр 32696
▁Saul 32695
▁görünür 32693
▁нәтижелер 32690
▁holding 32689
▁устанавли 32689
▁şüphesiz 32688
▁Национальная 32686
▁туган 32681
▁Van 32680
▁storage 32677
▁amaliy 32676
▁tarzda 32673
edu 32669
▁Кеден 32669
▁regional 32665
▁член 32665
▁руководством 32664
▁ши 32661
▁Yıl 32657
▁кәсіптік 32656
landi 32655
▁aldığı 32654
▁Вып 32650
▁План 32648
▁договоров 32646
▁клиент 32646
▁мәс 32642
▁мало 32637
▁мәктәп 32636
▁органға 32634
▁Research 32633
▁qərar 32633
▁obey 32629
ration 32627
ваться 32626
gine 32625
▁столько 32625
▁former 32624
▁ваших 32621
▁başlamış 32620
▁sonsuz 32620
ждение 32615
▁Taş 32613
▁gitmem 32611
OV 32610
lashtir 32609
▁kent 32605
▁wind 32602
▁книги 32599
▁arad 32598
reg 32597
▁zorluk 32596
▁хушшинче 32593
▁тяжел 32589
▁öğrendi 32588
ога 32586
▁çocuğ 32585
▁AR 32584
▁threat 32582
▁ключ 32577
▁oh 32575
ализ 32572
▁убед 32572
▁Tashqi 32570
▁jamo 32570
▁deneyim 32568
▁oldun 32568
чиков 32567
▁image 32566
▁moliy 32566
ией 32565
▁думать 32565
▁жагдай 32564
▁Port 32561
▁суйласа 32561
▁нотари 32560
oses 32559
▁цех 32554
▁Seç 32553
▁кала 32545
▁düşük 32538
▁наук 32538
▁teor 32537
▁жоспары 32533
▁enemy 32531
▁miles 32531
▁правовой 32530
▁tanıy 32529
▁үзгәр 32529
иси 32527
▁Сай 32524
▁physical 32522
▁школь 32520
▁фер 32517
▁изготов 32516
▁usually 32512
▁восстанов 32511
▁Christmas 32503
▁vosit 32503
▁yashash 32503
лерді 32500
ларның 32499
▁Fre 32497
▁которому 32496
РА 32490
▁Бек 32487
▁Villa 32486
▁söylemişti 32486
masın 32485
▁kop 32484
луш 32477
▁уголов 32477
▁вред 32476
ствами 32466
▁onur 32462
▁arıyor 32459
▁şəhər 32459
▁Мени 32454
▁drug 32453
▁Bebek 32449
▁loves 32449
▁ЖШС 32449
оф 32448
▁conference 32448
▁eğlenceli 32447
▁lin 32447
▁Education 32444
▁корм 32442
ологического 32440
масын 32437
▁әйт 32436
лӑха 32434
▁ameliyat 32433
▁вдруг 32433
▁отандық 32432
şy 32428
▁жем 32425
▁Güven 32424
▁Pas 32422
▁дәрігер 32421
▁oluşan 32419
▁әділет 32419
▁вроде 32418
▁Hava 32416
▁gelmez 32416
▁normativ 32415
▁депут 32415
▁продуктов 32415
ull 32412
uyorlar 32408
кет 32405
▁хабарлама 32403
▁Mezmur 32402
▁түрткү 32398
▁исполня 32395
asing 32393
ғыс 32391
▁билдирет 32389
tadır 32385
учылар 32384
▁çap 32384
▁перечис 32382
▁gələn 32376
▁Правления 32373
аков 32372
▁xoh 32370
тра 32367
үкт 32365
▁Башкир 32365
бург 32358
▁белсенді 32355
▁prefer 32352
дес 32351
▁возраста 32350
▁говоришь 32350
▁responsible 32347
▁өткөр 32347
▁ilgi 32346
amaya 32340
яд 32338
▁Kel 32336
мес 32320
▁плем 32319
рап 32311
енд 32309
tures 32307
sey 32300
▁Mut 32298
▁акций 32297
ishgan 32295
▁элемент 32294
▁September 32281
▁birthday 32274
▁uluslararası 32274
имость 32271
▁шег 32270
▁teacher 32266
▁Аман 32265
▁ҡул 32265
▁agreement 32264
▁Стратег 32262
▁çab 32256
▁çekti 32256
▁families 32253
▁верх 32251
▁высшего 32250
▁графе 32242
▁гг 32236
▁fruit 32235
▁etməy 32234
▁структурных 32234
▁ediyorlar 32233
▁başlıyor 32231
аба 32230
▁helping 32227
▁authority 32226
▁Gir 32224
▁смеш 32224
▁Agent 32221
так 32219
▁qop 32218
▁Лука 32214
▁məhv 32209
ләрдә 32208
▁каким 32206
▁Para 32204
стов 32201
▁October 32197
▁принес 32193
ировал 32192
▁вечером 32190
▁TH 32185
▁izley 32180
▁tutul 32177
▁Sk 32174
▁ters 32174
oe 32168
▁Мус 32168
▁Şöyle 32166
▁қабылдайды 32166
▁söylemiş 32161
▁Чер 32160
▁verilm 32155
▁чӗн 32152
ктен 32149
▁Шавкат 32149
uyoruz 32147
▁doğr 32144
əsinin 32139
пс 32139
▁тендер 32138
деріне 32132
▁effect 32130
▁mini 32128
▁uzaklaş 32123
▁нала 32120
▁ци 32118
▁tashkilotlari 32116
▁şeker 32116
▁жүрөг 32112
▁While 32105
▁Key 32103
rist 32100
▁merhamet 32099
ований 32098
▁жиынтық 32098
енсә 32094
▁Washington 32093
ably 32092
▁Қызылорда 32090
▁duyuyor 32089
▁кос 32089
▁bə 32088
▁character 32088
▁айқындау 32086
▁начальник 32085
▁әлбәттә 32084
ированию 32082
сар 32081
▁sector 32080
UL 32078
дание 32078
row 32076
▁baholash 32072
gani 32064
атом 32063
▁rel 32059
lek 32056
▁впервые 32051
▁із 32051
кине 32049
▁ruxsat 32048
unk 32047
▁Başk 32047
ӑлса 32040
▁Бат 32037
▁iyiyim 32036
▁Şübhəsiz 32033
▁йә 32030
▁лауазым 32030
▁ax 32029
▁olduk 32018
▁көрсөтүп 32015
▁Twitter 32014
▁olmad 32013
термен 32010
▁mez 32008
▁ýüz 31999
omet 31998
▁aray 31998
▁link 31996
▁ئۇلارنىڭ 31994
▁кына 31992
һа 31991
▁fiziksel 31991
▁whoever 31990
▁Damn 31988
▁expression 31987
▁Моисей 31981
▁друзья 31979
лерди 31978
▁caused 31976
dadır 31975
▁рассказать 31975
▁soň 31974
aydın 31973
▁boshqarish 31973
яс 31969
▁передачи 31967
тором 31965
▁yığıncaq 31964
▁территориальных 31960
▁Андыктан 31955
▁van 31948
▁тело 31947
▁guard 31946
▁çoktan 31946
▁dışarıda 31945
▁olara 31944
▁унтан 31944
▁үйрөн 31939
▁Эн 31938
▁трудно 31938
▁nes 31925
▁приложении 31924
▁сок 31922
▁шел 31918
▁жүргізуге 31916
▁Прав 31915
▁заключен 31912
▁совершенно 31908
▁yarım 31907
▁иногда 31907
▁пут 31903
▁функций 31902
eve 31900
lerimizi 31898
▁индивиду 31898
▁bür 31896
▁тауарларды 31896
▁meni 31895
сақ 31893
▁olabil 31889
▁Kes 31888
masından 31887
▁семье 31887
▁Ash 31883
▁Шу 31883
▁Владимир 31882
▁Resepsiyon 31879
▁Матф 31879
▁аким 31875
law 31871
▁galiba 31871
▁умӗнче 31868
▁хотели 31868
▁неделю 31867
field 31866
ests 31865
щество 31865
▁geldiniz 31865
▁хотим 31864
▁судна 31863
lenme 31861
▁simply 31859
▁цель 31859
ession 31858
mene 31856
▁begin 31855
▁vaftiz 31855
▁Ру 31855
▁кра 31853
▁seconds 31852
ическую 31848
▁заңнамалық 31848
▁tutum 31844
▁наказания 31843
▁белгілеу 31842
▁муч 31842
▁Решение 31839
▁семь 31834
▁burn 31832
▁gelebilir 31831
▁Құдай 31829
▁azab 31823
▁калыш 31820
ýärler 31819
▁belgil 31817
▁totally 31817
▁Acaba 31811
▁əbədi 31809
▁зерттеулер 31806
▁Jan 31805
дығын 31804
▁перек 31802
erve 31800
елерді 31799
▁yatırım 31799
▁тәс 31799
▁функции 31797
▁feed 31794
▁полно 31794
▁салып 31794
▁Master 31790
▁eksport 31790
ұр 31789
▁Мирзиёев 31785
▁kuy 31784
дох 31782
▁nail 31781
▁ниет 31781
▁заявки 31779
▁туризм 31771
▁judge 31769
▁веру 31768
▁наиболее 31767
▁ürün 31764
▁дәл 31761
▁yaramaz 31760
▁жобаларды 31757
▁курса 31757
▁zamana 31756
▁легко 31755
лігі 31754
▁kişilerin 31750
▁pil 31750
▁Gid 31748
▁lab 31748
▁December 31747
▁выдаче 31747
▁согласия 31747
▁нұсқ 31739
▁Fe 31737
pet 31735
▁пулман 31730
▁olunur 31728
▁көрсетеді 31728
▁похоже 31726
▁Foreign 31725
▁чыгып 31724
▁бе 31720
▁vazir 31718
▁удал 31716
▁провести 31714
▁deposit 31713
▁фермер 31710
▁Wil 31707
енности 31706
алай 31699
▁Аллаху 31699
▁kuvvet 31692
▁muh 31692
▁insana 31691
▁Нурсултан 31691
▁Ele 31684
▁çekil 31684
▁жәрдем 31684
▁отмен 31684
▁iqtisodiyot 31683
▁respublika 31682
ündeki 31681
▁развед 31681
▁плана 31678
▁ску 31676
▁атынан 31671
▁köş 31668
▁Aw 31665
ân 31661
▁подлежит 31659
▁кылуу 31657
▁подход 31657
▁қалдық 31657
vet 31656
▁помещений 31654
▁ancient 31649
ening 31647
▁Dec 31647
▁sorumluluk 31647
▁görebil 31644
▁çıkıyor 31644
▁basis 31643
▁Дав 31637
▁қабілетті 31637
▁ваше 31631
▁Baban 31629
▁täsir 31627
<0xAB> 31621
кил 31621
IG 31618
▁Ankara 31617
▁getirdim 31616
▁Эсир 31616
ующим 31613
▁Inn 31613
▁önüne 31613
ived 31610
▁Сатана 31610
▁сетей 31605
say 31600
▁увер 31599
әтле 31597
tığımız 31596
ёшь 31596
▁қағид 31595
▁kayn 31589
▁уведомления 31589
▁qator 31587
arız 31580
▁тәрби 31580
▁rəhbər 31578
▁Billy 31577
▁Perhaps 31572
▁заем 31572
▁сәуірдегі 31569
▁машину 31567
▁killer 31565
▁azob 31564
нения 31560
▁Dining 31559
мана 31558
▁буй 31558
▁Bed 31557
▁Өн 31557
зия 31550
ственными 31548
циональ 31548
▁fool 31548
▁kapalı 31547
ema 31546
айы 31544
▁наурыздағы 31534
▁международной 31530
цов 31529
чика 31529
▁geceler 31529
▁пырса 31529
▁Анткени 31526
▁teknoloj 31523
▁Уч 31522
▁утром 31519
ящий 31517
үе 31510
▁Whatever 31505
зации 31501
▁помощ 31501
▁Унӑн 31500
▁обеспечивает 31499
▁names 31498
▁ilişki 31497
▁задерж 31497
▁департамент 31496
▁выгля 31495
▁günä 31490
▁mün 31489
▁куәлік 31487
▁Gizle 31486
▁Поб 31486
▁фор 31484
▁қайтар 31484
ilt 31483
▁ұйымның 31480
▁Sak 31479
зак 31477
▁гражданского 31475
▁сӑн 31475
▁отказа 31471
etr 31469
▁animals 31468
▁апат 31466
like 31465
ещ 31465
kı 31460
▁Lisans 31459
labilir 31457
пор 31456
▁komut 31456
нить 31455
▁representatives 31444
▁школе 31443
шел 31441
▁surat 31440
▁anlaşma 31438
▁Someone 31436
ователь 31435
▁contin 31433
▁bahsed 31432
▁поезд 31432
▁выпуск 31430
osis 31428
▁balki 31428
▁topish 31428
▁Resul 31427
▁Проведение 31426
▁получение 31426
▁Yazdır 31421
can 31420
▁qilishi 31419
етов 31418
sü 31414
▁илт 31414
▁анализа 31413
▁yapıyoruz 31405
▁jud 31404
▁yapalım 31404
▁bakma 31403
▁өкіл 31402
▁ücret 31400
▁башҡа 31400
▁List 31399
lashgan 31397
▁Add 31397
▁ағаш 31396
▁Kendine 31395
▁içində 31395
▁увидел 31395
▁Сын 31390
▁булу 31390
гени 31387
▁комиссиясының 31385
▁lo 31384
маш 31374
▁Казах 31373
enc 31371
▁texnologiy 31370
▁Көп 31370
▁Yazı 31367
▁ýetir 31367
▁қолданылатын 31367
▁Kil 31362
▁halled 31361
irin 31360
▁groups 31360
inle 31358
▁gatnaş 31355
▁беруш 31349
▁стратегиялық 31345
▁Урал 31337
▁Sus 31336
▁imzal 31336
▁sesi 31334
аттық 31325
▁пожар 31324
▁details 31320
▁айында 31320
▁yoluna 31318
▁үтер 31312
▁дочь 31311
▁ülke 31308
▁nä 31307
▁туризма 31305
▁dating 31304
▁Birbir 31303
▁Walking 31303
▁neyin 31303
ницу 31301
▁çalışıyorsun 31301
▁обсужд 31298
▁bıraktı 31289
▁uchastk 31289
▁ihtiyar 31287
▁кайра 31280
▁били 31279
▁устав 31278
▁знали 31277
amda 31272
▁само 31271
▁налогового 31269
▁Chuck 31266
ision 31265
▁Бо 31262
▁Toplu 31259
▁Green 31256
▁положение 31254
▁үткән 31248
▁erkekler 31244
قى 31242
деш 31241
▁dostu 31241
▁beyn 31240
▁голов 31240
▁biliyordu 31236
▁понимаешь 31233
тардан 31231
әш 31231
▁колледж 31231
<0xB7> 31230
abilirler 31230
▁вой 31226
▁комиссияның 31225
ыңды 31220
▁Нов 31219
▁урлӑ 31219
▁hariç 31216
▁идарә 31215
▁сигнал 31212
▁чӑн 31210
tiğini 31209
▁July 31209
▁düştü 31208
▁наличие 31204
▁разговор 31197
▁руководство 31197
▁Bunların 31194
▁çıkmak 31192
▁өлшем 31192
▁жо 31191
▁yıllar 31190
▁kök 31188
▁фамилия 31187
▁жолымен 31184
▁Driving 31183
▁Gen 31183
▁Вид 31177
һына 31176
▁очист 31176
▁мерт 31175
▁Nur 31173
▁başk 31173
▁kanal 31172
▁iptal 31170
▁кадр 31167
▁Ob 31166
ığımızı 31165
ald 31162
▁дана 31158
дандырылған 31157
▁Jam 31157
▁moliyaviy 31157
▁правительства 31157
▁thus 31156
▁Жал 31154
əc 31151
▁budjet 31150
▁основные 31149
▁regular 31148
▁çoğ 31147
▁делу 31147
роб 31146
▁düşünmek 31145
▁tim 31144
▁stage 31143
uç 31142
▁Carl 31140
▁Each 31138
ool 31133
чах 31131
▁минер 31130
▁Мам 31128
▁рес 31128
▁собираюсь 31127
▁Məsələn 31126
use 31122
wood 31122
лақ 31120
▁Зем 31118
▁Сил 31118
шарт 31117
▁автомобильных 31117
▁профессор 31114
▁qilinadi 31113
▁наб 31112
abı 31111
▁lumotlar 31111
▁библей 31111
ИД 31103
▁дамытудың 31103
▁civil 31102
▁инсан 31099
ىلى 31097
▁салынған 31093
▁пікір 31082
▁поступления 31081
▁эркин 31076
▁вра 31074
ENT 31072
▁dönüp 31071
▁fully 31071
▁jo 31069
▁енеді 31065
▁sarhoş 31056
▁dövüş 31053
ases 31050
▁Строительство 31048
ушылық 31046
▁лиценз 31046
▁Eh 31044
▁mek 31043
▁yaparım 31041
▁yagona 31038
▁пора 31035
▁alarm 31033
▁свер 31033
мотр 31031
▁Majlisi 31031
▁doğrudan 31031
▁материально 31029
▁кӳ 31028
▁ahlak 31027
amayız 31025
▁Xalq 31025
▁halkı 31024
▁станции 31024
çilik 31023
▁kasab 31023
▁Jake 31020
▁vaziyat 31020
abilmek 31018
комп 31015
▁этап 31011
чение 31003
▁Гран 31002
▁қосу 31001
▁Машаяктын 31000
▁neçə 30997
▁subyekt 30997
▁Дон 30996
▁Neler 30994
▁роста 30991
▁указан 30990
medin 30985
▁lakin 30984
▁cezalandır 30982
▁Алардын 30982
▁kadını 30975
▁Параграф 30975
ırıq 30974
▁ederken 30973
▁мұ 30973
▁şər 30972
▁hörmət 30971
▁руководителей 30970
▁өч 30968
ýardy 30967
Ch 30965
ауға 30965
▁dünyayı 30962
▁mustahkamlash 30960
▁представитель 30956
тармағының 30951
▁tarafa 30951
▁cez 30945
сине 30942
▁насколько 30942
▁выполн 30940
ages 30939
▁учит 30936
usun 30934
ЕС 30931
▁коллек 30924
▁push 30923
▁üzv 30922
▁qurish 30921
▁ruhun 30920
чная 30916
▁Arabayla 30914
▁җирдә 30914
lga 30913
▁тапш 30912
▁независимо 30910
▁ПО 30909
▁Республикан 30907
▁kompleks 30903
▁hafif 30901
▁Birinci 30899
▁перест 30891
▁предложение 30891
▁удовлетвор 30891
иваться 30888
▁первую 30886
шение 30884
стары 30881
cul 30876
▁inform 30875
▁lunch 30875
▁unless 30875
▁бағдар 30874
▁Shunday 30873
ову 30871
atory 30870
▁slow 30867
▁happening 30863
▁шуны 30862
▁turns 30860
▁kaldım 30859
▁Nəyə 30858
▁diýen 30858
▁etmişdi 30853
work 30848
▁шектеулі 30848
aten 30846
▁организацией 30843
▁Тол 30841
ленӗ 30839
▁mentioned 30837
▁metal 30835
▁принял 30834
▁Dostum 30831
порт 30828
чены 30827
▁itibaren 30827
▁Anlaş 30825
▁duvar 30825
вала 30815
▁Иегованын 30815
▁құқықтарын 30815
meliyim 30810
▁vir 30809
▁yoldaş 30809
▁qismi 30801
▁həmişə 30800
ilən 30799
▁speed 30796
▁встрет 30792
▁muydu 30789
▁parts 30789
▁Mm 30783
▁Tab 30783
▁предъяв 30783
▁шілдедегі 30783
▁Bilgi 30779
ات 30777
▁Tommy 30777
▁аудитор 30773
▁басқ 30769
▁amacı 30768
ымын 30767
▁rasmiy 30766
illik 30765
чества 30764
▁imkan 30763
▁хутшӑн 30763
oma 30762
▁исә 30761
ube 30760
ysa 30760
зг 30760
▁платеж 30758
▁приглаш 30757
▁саф 30755
▁адамды 30752
▁осуществляются 30751
ствии 30748
▁сав 30745
шения 30738
▁killing 30734
▁ürəy 30733
py 30727
▁Surely 30727
▁благослов 30725
ленным 30722
▁nafar 30722
▁şeylere 30721
▁Unga 30719
исти 30717
ban 30713
кӑн 30706
▁zo 30703
▁başarısız 30702
isiz 30701
▁pur 30698
▁жили 30696
ired 30694
▁үздік 30691
▁прик 30690
▁Улар 30685
nes 30682
уса 30682
▁көрсетудің 30680
aph 30679
▁товара 30679
<0x8E> 30678
cept 30678
оваться 30677
▁выяв 30677
no 30676
▁sonuna 30676
▁должностных 30673
▁инвалидов 30673
▁регистрацию 30673
▁адвокат 30669
▁Қазіргі 30668
▁fır 30666
▁kül 30665
▁Kevin 30661
igh 30658
▁kırmızı 30657
▁weren 30657
▁sky 30655
▁lucky 30653
▁refer 30652
lmagan 30649
▁дост 30646
▁әлеуметт 30644
▁Dört 30641
üyorsun 30640
lüğ 30639
▁ҫӳ 30639
▁tutmak 30638
▁Dedektif 30634
▁ih 30633
▁кадәр 30633
елерінің 30632
гой 30631
isa 30630
ләрендә 30629
цеп 30626
чили 30626
▁Qar 30610
▁видео 30610
▁sarf 30609
▁welcome 30608
рге 30605
еги 30603
▁куәл 30603
kiler 30600
▁тәэсир 30600
Comment 30599
▁тәуекел 30598
ологических 30596
▁Rol 30593
▁нев 30593
онд 30591
▁нормативно 30585
die 30583
▁Amy 30581
▁пах 30581
▁улице 30580
▁чун 30579
▁erish 30577
▁шараларды 30576
▁ast 30575
▁rsatilgan 30574
▁istemez 30566
▁мага 30566
▁Clark 30557
▁specific 30556
▁yasaktır 30554
ницы 30549
itation 30548
▁Кап 30546
▁күрделі 30541
▁эст 30537
elling 30536
төр 30534
▁Halk 30534
مۇ 30528
erg 30524
▁мәж 30520
▁rivoj 30519
оу 30515
▁Bilmiyorum 30515
▁diril 30514
▁камер 30513
▁құн 30511
▁сумме 30509
▁алдан 30507
ырыл 30505
▁şeylerin 30503
онов 30501
▁Anything 30501
▁государственную 30501
▁хан 30499
▁hel 30496
▁umut 30496
ӑран 30495
▁Nobody 30495
▁баян 30495
▁насчет 30495
▁помогает 30491
▁sağlay 30479
▁кешегә 30479
ades 30477
▁Южно 30476
▁площади 30476
▁huquqiy 30475
▁распоряж 30470
▁uzoq 30469
▁күрһәт 30468
▁uyandır 30467
▁знают 30460
каны 30454
▁бәр 30454
тыра 30452
▁Otur 30451
▁вклад 30451
▁desp 30449
▁бақылауды 30449
▁official 30448
▁проводятся 30447
▁Stay 30444
▁сах 30444
▁другу 30440
тет 30438
чис 30434
▁фармацевти 30431
▁wisdom 30426
▁тик 30425
▁Fil 30424
▁Кей 30423
пӑр 30420
▁assistance 30419
▁қойнауын 30419
▁tutar 30417
▁olduğunuz 30412
▁disciples 30410
атӑр 30409
▁Deputy 30409
▁statement 30407
▁обычно 30398
▁келтіру 30395
moq 30393
әнең 30391
▁Мон 30390
үгә 30389
▁сме 30389
madığını 30387
▁karakter 30386
▁gözet 30383
▁список 30382
▁Ki 30381
алдар 30380
▁Германия 30380
чей 30378
lor 30377
▁Алтын 30376
▁возврат 30376
әрекет 30367
▁исемле 30366
▁информа 30364
енную 30363
▁herkese 30362
▁fikri 30354
▁Ye 30353
▁Jews 30352
▁демон 30348
▁bow 30347
ционная 30342
▁arka 30342
▁мүмкіндігі 30342
▁Мария 30341
▁семинар 30337
ective 30335
▁sence 30334
▁қызметтерді 30331
▁tasdiqlangan 30330
▁айтқанда 30327
▁mükafat 30326
▁uzaq 30326
▁кв 30324
ھ 30323
cil 30322
ift 30322
akk 30320
▁edelim 30318
▁кунта 30318
ATION 30316
▁бери 30315
▁beyond 30313
▁olamiz 30311
▁қарашадағы 30311
▁конкрет 30310
▁мысли 30310
▁персонала 30308
▁сик 30307
▁Kendimi 30305
▁түсін 30305
ador 30303
▁Londra 30300
▁susp 30300
▁soruş 30295
▁Three 30294
▁Eddie 30293
ülen 30290
lovchi 30287
▁Las 30287
▁кіріс 30283
▁наказание 30280
▁посет 30280
mağ 30279
душ 30279
▁mention 30276
▁үр 30275
▁Greek 30274
▁tanın 30274
▁limit 30271
duğumuz 30270
▁араһында 30270
▁lavozim 30265
ION 30264
▁çıkış 30263
▁хабардар 30263
гает 30257
ilərin 30256
▁бары 30256
щих 30252
▁жақсарту 30250
ваемых 30246
▁MS 30246
▁ряд 30241
▁процента 30240
▁ұсынылған 30238
▁Davut 30237
▁кирек 30236
▁тим 30235
▁келетін 30234
▁присво 30233
▁tər 30230
▁çalıştır 30230
▁калама 30230
▁живот 30229
▁прогноз 30228
кун 30225
▁Эксп 30209
▁Нар 30208
▁достижения 30207
▁пакет 30205
▁Елбасы 30204
▁Тут 30204
▁шарттары 30204
▁вместо 30203
unları 30200
ическом 30199
▁итәчәк 30199
▁жетек 30197
ılmıştır 30196
▁conv 30193
▁гарант 30193
▁Məgər 30192
▁башта 30192
laması 30188
▁conc 30187
▁Kad 30186
▁Pop 30186
▁жасалады 30186
▁әкімдігі 30186
▁qaytar 30184
▁Engineering 30183
enn 30182
▁питания 30182
▁түрі 30181
▁dry 30178
▁планирования 30178
İY 30172
çilər 30170
▁apaçık 30170
▁қарамастан 30169
bul 30168
▁Airport 30167
▁тус 30167
▁ekip 30166
яла 30163
▁зр 30162
▁kons 30161
▁hop 30160
quvvatlash 30155
▁İblis 30153
ителю 30152
▁meyv 30150
andy 30145
▁сүзләре 30142
▁yaptığımız 30141
▁берүү 30140
▁taste 30136
larımızın 30133
елеп 30133
▁ald 30132
zal 30130
юм 30130
▁ommaviy 30128
баган 30126
▁ner 30126
бі 30123
▁kendime 30120
▁kn 30119
mamıza 30116
▁президент 30116
▁сможем 30111
▁shakllantirish 30108
▁etmäge 30106
umlar 30099
▁şarap 30099
ümde 30098
▁yolculuk 30097
▁albatta 30093
▁Beach 30092
▁Yönetim 30082
▁мақсат 30079
▁edici 30076
▁Thomas 30074
▁village 30071
▁Ким 30071
ЭС 30070
▁андай 30070
▁күргән 30068
ras 30066
▁returned 30066
▁Okul 30065
[...]
