▁ 242942328
▁. 146833300
▁, 119811048
<2tr> 62451006
<2en> 49837561
<2ru> 40472104
▁; 39821893
▁? 28925125
▁& 28706408
; 28299090
amp 28125213
▁- 26349275
1 25278304
0 22604843
▁_ 19126482
2 19068961
- 18116823
▁the 17980965
▁apos 15439796
. 13480751
▁и 13368065
▁bir 12762719
▁в 12618187
▁) 12611026
▁to 11870774
i 11811138
▁: 11698674
▁( 10808577
<2kk> 10655558
▁of 10585075
▁quot 10218526
3 9895282
▁! 9306210
▁a 9205394
▁and 8742630
9 8686397
▁you 8516818
▁« 8458420
▁I 8419911
▁» 8226844
4 8124067
5 8036285
▁ve 7636365
ʻ 7480085
▁... 7084349
▁in 6997921
▁amp 6885219
, 6612948
<2uz> 6527999
▁на 5966650
6 5546791
▁не 5531088
▁с 5479104
▁— 5407042
7 5216792
▁is 5196739
▁‘ 5179138
8 5012282
<2az> 4927916
▁s 4894520
▁that 4796225
▁bu 4460868
▁’ 4338315
▁o 4262522
▁по 4185298
<2ky> 4185148
▁için 4145244
▁что 4125610
▁de 3912268
▁және 3837864
<2tt> 3804319
▁it 3764085
▁for 3726820
▁da 3719509
▁Bu 3668190
<2cv> 3542326
▁O 3498434
▁va 3187482
▁“ 3098213
▁” 2918271
▁on 2917889
▁# 2809039
▁к 2710894
▁be 2661991
▁я 2661249
▁we 2637432
▁with 2622583
lar 2607425
▁was 2503205
▁var 2495540
▁have 2492485
▁В 2474054
▁mi 2449463
▁от 2449265
▁me 2384044
s 2380342
▁this 2375734
▁are 2351138
▁– 2344038
▁t 2327413
▁bo 2303343
▁ne 2300138
▁Я 2299245
▁And 2175516
▁not 2171237
▁ki 2146746
▁No 2133133
▁çok 2122661
▁The 2121932
▁her 2105616
у 2087927
▁your 2063589
<2ba> 2030652
ing 2021444
▁/ 2018966
н 2010580
▁daha 2004946
▁за 2001346
▁о 1982360
▁You 1969514
a 1953062
▁mı 1938716
▁şey 1929868
▁at 1912568
in 1898419
▁һәм 1896465
▁Республики 1867302
▁это 1849831
<2tk> 1837897
▁из 1837219
▁Bir 1820395
▁для 1817906
▁değil 1789823
к 1775576
ed 1760089
▁he 1754514
▁will 1728342
▁as 1702287
▁Қазақстан 1694855
ы 1693063
▁do 1679461
▁а 1671984
an 1668775
▁can 1663218
▁my 1642698
ка 1633142
▁да 1625057
ного 1621469
▁мен 1618394
▁an 1612253
▁gibi 1609620
da 1599900
▁kadar 1583419
▁they 1574815
▁Allah 1562518
▁его 1561996
ini 1554489
▁И 1549705
▁ты 1548306
▁from 1526140
y 1516636
▁və 1509715
▁А 1509527
ler 1507163
▁как 1476140
▁у 1468982
▁* 1466231
да 1460946
o 1439478
▁what 1435885
ной 1435695
<0xD2> 1431488
▁С 1430822
ları 1428431
dan 1419243
с 1419015
ки 1417181
▁бойынша 1401387
ных 1400545
ов 1399545
▁all 1390122
▁или 1379340
▁ent 1376806
▁A 1369960
▁iyi 1362247
▁Ama 1356682
и 1354820
e 1352456
_ 1351671
▁so 1347756
е 1343134
▁он 1340614
м 1337714
▁his 1331448
er 1328551
а 1326987
▁ama 1322685
▁ya 1316112
▁Казахстан 1309206
▁zaman 1297813
▁We 1293738
ды 1282602
▁ko 1279772
▁m 1271471
al 1271335
formula 1265841
▁N 1232150
не 1228509
▁them 1223488
▁by 1222470
▁Ben 1215976
ға 1212955
▁know 1210446
en 1209564
▁туралы 1207134
▁Ve 1200266
т 1198363
▁about 1197358
im 1190251
▁or 1182660
ные 1181301
ын 1180615
▁him 1180368
г 1179058
▁olan 1177027
▁S 1175990
li 1170595
▁К 1164305
▁olduğunu 1156804
ен 1156312
▁But 1152906
ом 1149425
ал 1144849
п 1141960
▁yok 1141957
та 1141071
▁out 1140842
le 1136207
▁He 1135640
▁ben 1134545
▁who 1133131
es 1126187
g 1120884
ga 1117635
▁мы 1116870
▁one 1115909
ar 1107971
▁вы 1107607
la 1099605
но 1088862
▁sonra 1088340
▁olarak 1088207
▁при 1075503
<0xE2> 1072151
▁их 1072034
t 1070821
▁года 1061710
▁like 1056591
▁has 1051748
ет 1051115
▁It 1044980
▁B 1043813
х 1043483
ный 1042129
▁О 1041078
u 1040982
▁K 1040659
▁en 1040403
▁but 1037561
l 1034053
▁бар 1032664
leri 1026365
р 1025518
▁Б 1025058
ʼ 1023447
ин 1022619
▁Evet 1017764
▁nın 1014409
m 1013344
▁onu 1010851
▁Ne 1009527
▁there 1009012
▁up 1006131
ил 1005460
о 1003457
ң 1002860
▁% 1001611
л 1001320
ın 995095
▁just 993878
▁What 993239
▁re 991862
di 987829
і 986207
r 985557
at 985322
ить 984740
on 984495
ге 982269
▁M 974430
ан 971512
▁меня 967719
▁мемлекеттік 963630
ат 963046
ке 962623
▁D 951101
д 943229
дан 941697
▁T 934631
▁У 932769
▁their 929944
▁were 929550
z 928185
ni 925321
▁Т 923959
га 918777
ар 918236
ем 917965
▁б 917940
ына 917857
am 913464
▁те 913311
▁Это 912067
▁here 910904
▁bilan 909695
il 907108
ш 905902
ам 905778
ли 904659
▁C 904447
▁то 902390
▁us 901573
▁get 901411
▁же 897625
я 894922
ны 888994
▁так 887136
ты 886681
то 885192
p 884035
▁bana 883135
▁sen 879233
б 878354
▁Ты 872638
n 871657
▁nasıl 867881
lik 867313
▁uchun 864792
▁менен 864749
k 863293
ит 861480
▁до 861404
ю 860726
са 860655
▁if 860171
▁~ 859534
▁our 857251
▁М 857221
ma 855170
ir 852564
▁все 851817
▁no 850605
un 848819
з 846506
ным 846472
▁G 846041
▁H 841163
▁ал 840756
▁g 836848
ning 831129
▁г 828868
ly 827264
▁ta 826375
c 825069
▁God 823461
▁had 821980
▁об 817170
ine 815991
ла 814264
▁i 813942
▁P 807985
де 807951
▁та 803730
▁бы 803158
ының 802238
▁önce 800499
▁Hayır 800097
▁мне 799387
▁benim 795642
▁но 795078
ать 793309
▁right 787113
el 786825
ер 783423
▁үшін 781880
▁ile 779195
lari 778385
ное 778312
▁d 777470
▁bunu 775865
мен 774843
b 771090
ында 768224
▁F 761792
▁деп 760940
▁would 760049
▁qo 759536
ak 757039
▁Sen 756084
▁R 755775
ная 755238
▁beni 753650
▁when 752497
▁Yehova 752063
it 750595
▁gün 750522
▁чтобы 749861
▁бер 748994
▁Он 747260
▁people 745135
▁со 744861
um 744682
ку 744219
▁mu 743944
et 743205
alar 739251
▁немесе 738868
ers 735166
ра 735087
ами 734486
▁L 733449
ни 732180
▁они 730137
▁time 728246
▁go 726220
ского 725863
ып 723748
ия 722548
ə 717957
на 717733
<0xD3> 713387
ib 710360
or 708682
is 704511
лар 703681
▁In 703178
▁Д 701405
ей 700369
ч 699610
в 697161
ма 696815
ел 695061
▁did 694824
ik 693267
▁Мы 692674
ı 692579
d 690376
ların 690333
▁iş 687542
▁said 686326
dir 684620
им 681165
ur 678681
▁белән 678307
▁hiç 677068
▁she 675301
as 675236
▁b 673996
▁So 672679
▁onun 672116
▁Biz 671542
▁также 670470
ә 670307
▁want 670173
▁This 668911
▁biz 666322
▁un 665822
▁seni 663461
▁т 663097
▁ın 661260
▁Республикасының 659584
▁тебя 658411
▁say 658271
▁more 657767
ını 657455
▁Узбекистан 655454
▁если 653052
▁yer 652929
▁al 652590
larını 651549
ри 651247
inin 648135
▁бир 647613
▁П 643822
тар 641902
▁sana 641857
f 640254
▁been 638988
▁büyük 636105
▁bile 635095
▁Но 634143
▁был 633904
▁see 633017
ді 632706
▁now 632632
▁sadece 632074
de 631717
▁p 631243
▁got 630785
▁Республикасы 630098
ым 626757
ж 626638
▁Her 626118
ой 624261
▁Tanrı 623674
или 623419
те 622714
▁e 622016
▁быть 621963
iga 621258
▁Г 620935
em 620817
се 619657
<0xDB> 618351
ди 616914
ай 616603
h 616512
mak 616118
ic 615787
▁some 614879
ение 613936
iz 610283
▁Не 608493
ными 607746
▁son 606835
▁без 606759
us 605808
▁Respublikasi 605566
▁будет 603631
ін 602371
ad 602318
▁senin 601621
▁ona 598785
▁под 598046
lara 595000
▁м 594514
S 593917
▁think 592029
▁нас 591223
▁было 590443
▁də 590174
▁good 588829
iy 588673
ның 588577
▁Do 587833
▁ham 585752
▁жылғы 584908
▁области 584797
ım 583760
тер 583469
ном 583382
▁өчен 583094
▁жана 581934
▁когда 580764
▁қызмет 578729
▁biri 577716
▁oldu 577455
▁.. 577108
▁man 572937
▁don 571724
▁those 571356
▁ш 569495
▁how 569224
▁ver 569212
▁k 566648
me 566613
дар 566336
лы 563389
sa 563040
▁İsa 562193
▁back 561969
▁üçün 560950
▁iki 557921
▁Çok 554196
▁Н 553618
man 553551
ала 553412
▁then 553374
▁şu 552450
ст 552429
imiz 551916
▁That 551638
▁Bunu 550492
▁musun 548971
▁Y 547742
▁burada 546426
▁yo 545589
ти 545270
▁need 543934
ta 543868
ish 542635
▁только 540571
али 537109
ay 536668
ul 535717
ası 535700
ot 535479
▁misin 535408
▁сәйкес 530884
ле 530831
ре 530548
▁which 530319
ми 529917
os 528940
▁раз 528257
ӗ 528210
▁V 527713
дың 527602
ах 527516
ır 526526
▁could 525631
▁How 522324
▁bak 521816
▁Как 521802
mek 521640
▁over 519833
▁Ал 519025
ına 517877
lerini 516329
▁ol 514805
ida 514284
ada 513649
<0xC3> 513084
▁başka 512587
▁д 512455
▁үчүн 512266
ç 512251
он 511691
ip 511412
▁neden 511330
dır 510489
ek 509431
▁ж 508743
▁et 506986
А 505776
▁осы 505483
▁Что 505236
▁They 504880
▁yardım 503370
▁olur 503205
lerin 502574
ок 502387
▁adam 501730
imi 501563
▁Р 501317
▁тебе 501180
▁E 500936
▁tek 500635
I 500579
ь 500349
▁zbekiston 500119
q 498549
▁п 497238
▁ll 497230
▁она 497212
інің 494865
▁бу 494740
▁ч 494643
ti 494479
▁Oh 494187
сем 493233
A 492750
▁есть 492359
▁Вы 492272
ения 492239
▁Ж 491197
▁На 490754
ақ 490369
ган 489962
▁y 488382
▁come 488059
▁am 485803
іне 485782
▁При 485754
▁Да 485149
▁böyle 483947
ov 483899
ф 483182
гә 482885
ining 482772
▁should 482725
▁kim 482286
▁может 481916
▁Onu 481834
▁yap 481170
▁ул 480465
▁way 480401
▁güzel 480347
▁make 480261
▁c 478999
▁z 478707
▁All 478363
esi 477092
▁biraz 476765
▁f 475893
ү 475464
ную 474687
ол 473975
▁Х 473286
ек 473009
▁этом 472894
тан 472768
ор 472491
ас 471675
aya 470019
ation 469843
▁Jehovah 468918
ol 468560
▁only 468490
▁r 467889
▁жұмыс 466993
▁ли 466725
▁şeyi 466398
E 465664
ch 464344
▁than 463760
▁take 463709
▁государственной 463426
ab 462557
▁Eğer 462523
▁olacak 462228
▁l 461779
за 461556
ев 461256
▁fazla 460263
ес 460096
▁geri 459449
▁into 458588
▁Tamam 458391
lardan 458168
▁istiyorum 457883
ый 457812
▁onlar 457463
▁other 456830
▁U 456221
ий 456082
D 455200
дә 455028
ду 454910
▁hakkında 454690
▁Tom 454240
▁doğru 454051
▁Ш 453821
▁жүзеге 452625
▁down 452339
den 450192
larni 449248
▁вас 448563
ent 448335
M 447985
▁кто 446989
B 445449
lan 445376
▁дә 444209
ған 443833
▁göre 443556
ыр 443540
▁Bana 443095
▁ее 442781
▁өз 440978
▁gel 440302
lı 440106
▁Если 439205
▁day 438048
▁J 437979
▁Z 437760
▁том 437592
▁two 436549
▁беру 435851
▁Л 435481
▁kal 434946
<0x80> 434850
lər 434675
▁которые 434503
▁qilish 434419
▁n 432954
ик 432715
▁время 432356
v 432328
тың 432084
T 431771
ate 430350
дер 429886
ü 429813
ının 429652
лер 429094
larini 427760
▁Çünkü 427710
▁ilk 427505
▁something 427298
gan 426952
▁во 426371
te 426212
▁diye 425937
ıyor 425278
se 423627
▁Seni 423232
▁tut 421579
▁life 420851
▁Şimdi 420439
▁дип 420134
ро 420077
▁арналған 419339
id 419145
С 418552
▁work 418225
ру 417837
K 417638
▁any 416993
ден 416956
▁Ф 416765
▁öyle 416023
<0xAC> 415907
қа 415636
<2kaa> 415543
! 415488
▁dedi 415434
▁су 414938
▁these 414726
? 414393
▁onları 413986
ләр 413680
▁bütün 413502
▁чем 413459
om 413404
▁ар 413308
▁yeni 412944
ской 411339
▁соответствии 410927
▁If 410711
▁нет 410488
▁По 410298
▁may 410219
ana 408402
ыл 408345
sin 407354
tan 407260
▁района 406834
dı 406588
▁деген 406446
▁х 405619
▁siz 405607
mış 405351
ства 405036
eler 405017
▁того 404961
▁Bay 404520
▁size 404245
▁bil 404225
ко 403595
▁нам 403458
ten 402899
miş 402629
▁şekilde 402446
▁про 402048
▁şeyler 401569
▁first 400148
<0x90> 399430
▁Sadece 399368
▁Hey 398374
ту 397783
ности 397060
▁= 396959
па 396195
▁Well 396144
ey 395361
ayı 395147
x 394360
▁tüm 393293
аны 393069
алар 392684
<0xD9> 392532
ме 392298
▁el 391465
▁nin 391194
▁болып 390992
М 390401
<0x86> 390062
▁эле 389764
дің 388894
▁Sana 388796
ция 388744
isi 388662
▁yol 388480
ении 388317
асы 386679
ед 386139
▁ay 385529
larda 385404
▁Neden 385146
▁söz 385039
▁Beni 384981
▁деятельности 384951
▁öz 384798
ят 384773
қ 384698
ир 384603
▁им 384356
maya 384268
iyor 384228
▁Peki 384127
▁после 383529
▁u 383218
▁ни 383164
▁kötü 382875
▁жол 382801
▁yıl 381949
asi 381908
▁законодатель 381660
▁үз 381509
▁Daha 381360
▁never 381317
lık 380898
inde 380728
▁үй 379646
▁күн 379208
P 378850
lere 377985
▁hiçbir 377630
ki 377566
▁going 377409
st 376848
▁h 376736
▁сказал 376351
▁before 376191
ии 375597
▁алып 375574
▁kız 375401
▁вӑл 375282
▁bırak 374729
▁She 374472
▁государствен 374338
▁Ar 374281
▁этого 374202
▁As 373892
larına 373816
anın 373767
ген 373281
▁Benim 373151
▁onlara 373073
j 371426
▁olabilir 370976
idan 370899
▁керек 370348
▁içinde 370183
siz 369666
: 369256
▁лет 369158
ский 369007
▁really 368998
▁hem 368721
est 368465
ков 368419
L 368401
▁Onun 368120
▁қамтамасыз 367906
▁olduğu 367701
▁help 367550
▁baş 367469
▁ҚР 367426
▁баш 367231
ова 367164
▁etmek 366654
ist 366570
▁gerek 365744
▁very 364872
ая 364698
ri 364327
▁уже 364012
▁insan 363328
eli 362601
▁new 362455
▁davlat 362312
▁ma 361463
▁gerçekten 361307
<0x88> 361191
sın 360652
adan 360414
▁göz 360270
acak 360143
го 359982
▁ilgili 359467
C 359127
üm 358965
▁Ч 358953
ında 358787
ность 358627
▁onların 358492
▁also 358445
▁Onlar 358408
ra 358212
▁Об 358082
▁karşı 357995
▁W 357821
ите 357783
▁оның 357549
▁My 357144
ному 356801
лан 356610
▁Yani 356239
▁years 355847
▁ar 354432
ans 354408
▁geç 354379
▁too 354337
▁Allahın 354232
▁artık 353717
▁where 353667
ции 353137
Т 352866
ap 352165
ул 352031
▁Al 351895
ah 351687
▁Yeah 351486
tı 351129
▁There 350714
▁göster 350218
eye 349980
▁little 349850
▁были 349514
R 349357
▁еще 349197
ак 349172
Y 348715
ті 348560
▁well 348438
▁şimdi 348139
▁них 347448
▁olsun 347120
▁булган 346960
▁En 346302
re 346081
ун 344999
▁because 344924
▁az 344813
алы 344675
▁вам 344599
▁тата 344496
ün 343355
iler 343188
▁bize 342904
ımı 342348
ş 342015
<0xD1> 341971
up 341970
▁ту 341952
▁Так 341595
az 341364
й 341103
unu 341071
▁Нет 340993
▁love 340506
ине 340501
▁bizi 339126
▁yoki 338742
▁off 338165
▁просто 338130
du 337974
▁З 337908
ən 337510
▁Иегова 336447
▁sh 336078
▁For 335782
▁tam 335405
сы 335039
ut 335011
▁tell 334522
▁здесь 334404
ур 333742
ecek 333670
▁ev 333668
▁after 333279
▁более 333270
▁kendi 333137
ча 332713
ина 332698
▁made 332234
кан 332202
▁gör 332106
ша 331987
<0xBA> 331865
dik 330469
▁услуги 330192
▁Şu 329922
▁бір 329897
▁Е 329882
son 329692
ся 329552
ac 329528
w 329252
▁olmak 329041
larga 328975
iniz 328261
▁nə 328151
-- 327881
К 327687
▁kullan 327659
▁even 327461
кой 327387
▁Ну 326993
ant 326824
▁An 326647
dim 325546
san 325204
ıl 325193
▁tamam 324769
▁things 324561
Б 323694
▁• 323451
▁Is 322930
ғы 322901
▁басқа 322721
▁çünkü 322680
▁Can 322644
H 322642
▁Э 322635
▁Kazakhstan 322126
ран 321969
▁İyi 321762
▁Dr 321427
ством 321310
ından 321023
▁ст 320588
▁ему 320202
▁çık 320009
▁iç 319395
▁+ 318944
ман 318808
▁алу 318484
▁find 318374
una 318107
▁gece 317871
▁v 316679
adi 316522
▁Senin 316490
ению 316358
аться 316196
▁aynı 316125
▁söyledi 315823
▁izin 315783
▁bilen 315241
ос 315128
▁была 315020
▁й 315019
▁де 314912
<0xD0> 314813
▁Belki 314486
▁dur 314390
▁hazır 314082
атын 313909
O 313489
▁РК 313120
ыс 312955
▁бас 312663
larning 312405
th 312092
▁пар 311945
ӑн 311942
▁much 311880
▁dan 311783
▁Why 311422
▁At 311411
▁ай 310861
▁top 310754
▁biliyor 310466
▁düşün 310403
▁алар 310234
▁amalga 310150
▁города 310131
▁очень 309482
G 309393
И 309234
▁çalış 309165
▁Are 309046
▁let 309018
op 308859
▁Они 308835
▁vardı 308678
▁ол 308580
▁den 308438
▁жөніндегі 308205
из 308162
▁birlikte 308041
ləri 307630
▁Siz 307471
and 307322
▁give 307299
ғ 307241
▁yicha 306822
нде 306769
▁Осы 306540
▁men 306482
▁н 306377
ыш 306324
лары 305819
▁bul 305608
▁world 305583
тары 305409
ую 305253
▁Sh 305213
tir 305209
▁порядке 305152
уы 305113
<0xB1> 304516
▁жыл 304408
▁konuş 304081
▁geldi 304029
▁всех 303877
▁kimi 303842
ав 303603
ут 303545
▁dön 303475
▁devam 303344
▁çocuk 303244
<0x82> 302847
▁getir 302583
▁ел 302479
▁средств 302400
alı 301966
▁Қ 301926
▁развития 301902
ter 301860
▁look 301777
сен 301739
▁нужно 301725
▁night 301682
▁yaz 301304
кт 301073
▁kaç 300826
dən 300706
od 300084
▁çek 299864
<0xB9> 299357
▁Йәһвә 299347
eyi 299283
ынан 298961
▁thing 298698
▁Она 298698
▁yüzden 298464
ло 297975
▁дня 297725
▁küçük 297404
anı 297274
▁Did 296877
uz 296304
ых 296240
▁Hadi 296239
▁saat 296238
▁many 295844
от 295693
▁көрсету 295330
larının 295266
▁aç 295260
▁bizim 295144
▁пол 294997
▁، 294597
▁Come 294474
ник 294197
ила 293958
▁sizin 293765
▁работы 293638
▁болгон 293396
▁Ona 293067
▁себя 292786
▁менән 292709
▁hamda 292381
▁должны 292267
▁mü 292124
▁году 292102
▁gonna 291863
zbekiston 291373
▁тем 291311
▁çıkar 290907
ken 290759
ц 290620
▁does 290529
▁sev 290509
▁must 290357
<0xC2> 290256
дағы 290071
ması 289994
▁Ch 289926
▁tan 289754
ва 289649
▁орган 288904
ель 288737
▁жылы 288208
ce 288060
▁insanlar 287755
▁veya 287736
▁Now 287644
ated 287534
П 287502
ede 287055
ӑр 286968
▁қол 286918
▁там 286650
▁Бу 286588
▁zor 286159
дай 286073
▁biliyorum 285834
▁мар 285779
▁э 285753
аль 285663
▁etti 285131
▁іс 285104
Н 284957
▁Hotel 284676
▁söyle 284539
▁Ә 284313
▁gir 284305
inden 284245
▁har 284029
▁away 283731
лек 283651
N 283533
▁last 283093
▁Sonra 283092
iş 282658
▁bar 282621
▁orada 282337
▁uy 282249
ň 281890
▁Lord 281859
ca 281689
ют 281531
▁its 281509
ag 281473
▁сондай 281454
▁Ул 281307
лық 280671
▁Мемлекеттік 280499
▁sizi 279999
ого 279929
ҫ 279832
▁ad 279668
че 279577
О 279317
си 279297
Д 279263
ık 279087
▁Jesus 279043
▁бул 279002
▁организации 278886
▁Fakat 278620
▁boshqa 278314
enin 278302
ion 278156
ется 277649
▁Burada 277478
lam 277159
ара 276864
еп 276730
▁q 276381
▁ed 275961
▁When 275904
ением 275883
иться 275786
... 275703
▁жаңа 275504
ап 275436
▁больше 275028
әр 274867
▁Ya 274746
<0x92> 274695
uk 273873
▁vardır 273872
▁git 273418
▁мӗн 273061
▁который 272974
▁ilə 272924
də 272484
ligi 272145
▁New 272125
av 271981
ý 271688
▁ı 271633
ән 271428
dagi 271374
ig 271337
▁Иисус 271152
▁tomonidan 271141
▁edin 270997
▁etish 270965
▁бастап 270880
ив 270867
▁ан 270817
ard 270765
▁ф 270731
<2kjh> 270497
▁Кудайдын 270440
ешь 270134
ис 270038
▁жер 269857
▁still 269773
▁всё 269467
iya 269402
anlar 269325
▁sor 269228
▁һ 269005
ama 268488
ary 268483
ете 267715
▁день 267612
lerine 267369
eleri 267361
▁ат 267023
од 266847
▁deb 266613
ity 266556
▁пӗр 266506
ür 266250
▁ber 265720
һы 265525
▁gerçek 265347
▁год 265337
ымен 265266
▁ç 265003
▁между 265002
▁болады 264982
әт 264947
▁где 264458
▁why 264395
eni 264183
▁bunun 264152
▁кел 263856
▁пек 263739
▁үш 263486
▁şöyle 263403
лен 263274
muş 263162
▁part 263099
э 262865
eden 262859
пе 262845
lə 262828
ev 262472
▁вер 262432
sh 262415
▁mean 262279
▁з 261893
▁Bunun 261676
F 261658
able 261611
▁bor 261452
▁kabul 261418
▁Приложение 261411
дары 261352
▁j 261112
▁ye 260990
▁kişi 260887
ө 260837
▁аны 260775
▁ним 260626
сыз 260612
lgan 260573
▁Kim 260475
ана 260452
▁km 259943
нан 259846
ится 259548
▁Bak 259536
▁жағдайда 258922
аты 258444
meye 258418
▁турында 258300
▁sahip 258257
▁X 258201
▁государственных 257999
▁кандай 257848
ги 257784
сти 257780
▁через 257769
aları 257609
▁жеке 257594
уға 257584
▁İşte 257495
▁Алматы 257454
аб 257059
▁Mr 257054
▁будут 256624
▁вә 256447
▁üçin 256330
▁адам 256267
ya 256260
▁Q 256247
▁случае 256030
▁önemli 255682
▁through 255558
▁place 255404
dur 255164
▁ә 254988
▁көп 254209
об 254059
▁Ş 254054
▁других 253838
▁ister 253223
▁diğer 253206
▁iman 253089
▁üç 253037
▁st 253004
▁To 252976
▁mumkin 252892
▁соң 252883
eri 252703
▁uzun 252424
V 252094
▁yani 252007
unun 251992
▁человек 251957
▁such 251546
mi 251529
▁being 251464
<2ug> 251386
інде 251316
▁necə 251239
iye 251104
▁ала 250797
▁дней 250784
▁On 250713
ӗн 250668
▁ету 250631
eti 250544
▁образования 250421
ели 250384
ство 249934
▁El 249929
▁ish 249417
сене 248804
▁Check 248633
▁buraya 248617
▁Yes 248565
▁Изге 247972
▁yet 247821
тен 247524
alari 247405
▁işte 247186
▁shall 246917
ok 246562
▁Мне 246445
▁year 246243
▁duy 246027
▁Ç 245994
▁ise 245924
ҡ 245913
алық 245648
▁Don 245361
Р 245359
▁облысы 244703
нен 244614
▁tarafından 244601
▁görə 243752
▁plan 243638
кен 243321
▁told 243033
▁anything 242783
▁эш 242740
▁него 242604
дын 242603
ба 242401
алары 242195
▁жизни 241854
▁w 241836
іп 241831
ился 241797
▁x 241774
чӗ 241742
ro 241663
▁қызметті 241576
▁every 241555
▁перед 241303
▁ҳәм 241285
▁Астана 241073
▁кил 240924
▁again 240763
▁знаю 240733
▁Ыйык 240724
▁сал 240585
ие 240206
<0xAA> 240168
▁көрсетілетін 239955
нең 239814
yň 239693
щ 239630
ub 239545
▁long 239455
▁great 239351
ley 239339
▁арқылы 239100
asını 239089
нӑ 239049
▁кем 238926
ются 238844
лет 238773
▁тесе 238738
ые 238450
▁found 238432
су 238001
▁ediyor 237890
▁прав 237755
▁людей 237678
▁çox 237639
▁qanday 237290
▁является 236920
▁lütfen 236809
тің 236795
ип 236501
lerden 236393
ış 236077
▁lazım 236056
шы 235738
▁должен 235557
ge 235537
▁put 235528
▁under 235375
▁kur 235322
ka 235162
▁better 235160
lash 235144
<0xA7> 235017
▁Аллаһы 234987
ком 234908
▁arasında 234842
ımız 234753
ez 234573
idir 234545
ani 234341
▁eder 234012
▁документов 233942
▁tekrar 233536
▁demek 232970
▁most 232827
аш 232561
ени 232308
ildi 231928
▁ak 231844
ление 231457
mam 231447
▁koy 231408
▁білім 231255
ид 231225
▁лиц 230697
▁дел 230689
▁açık 230672
▁home 230398
ау 230349
▁реализации 230331
▁Your 230031
mayı 230022
▁bit 229553
ӑ 229289
▁қайта 229062
▁own 228998
пен 228905
ünü 228602
мет 228393
▁ішінде 228291
▁yapmak 228139
▁бюджет 228068
сын 228057
▁kar 227985
ina 227897
▁doing 227826
▁Just 227795
▁органов 227779
ara 227443
▁name 227417
▁аның 227206
▁барлық 227071
стан 226915
ınız 226903
ындағы 226859
▁call 226782
lu 226694
▁verdi 226674
▁another 226653
tır 226557
гі 226500
▁ch 226474
▁дейін 226369
▁yar 226353
▁yüz 226123
<0x96> 226061
iyle 226014
oz 225921
▁ҫинчен 225896
atlar 225851
ров 225676
İ 225632
▁sür 225338
▁children 225289
▁бол 225199
aq 225139
ены 225004
▁эмес 224986
▁karar 224852
▁eden 224427
▁thought 224199
▁ти 224019
<0xDA> 223996
▁один 223872
▁Ah 223857
асын 223614
▁ş 223356
▁е 223347
▁düş 223315
▁oy 223150
out 222850
▁Когда 222818
ления 222789
▁могут 222556
▁действие 222319
esini 222245
larla 222210
▁yil 221914
▁sorun 221894
▁этот 221828
ха 221768
▁тот 221691
oy 221347
▁Ol 221133
tım 221114
▁asla 220729
ız 220690
abilir 220536
дән 220528
ары 220354
ime 220108
му 219982
lama 219930
ста 219805
▁oluyor 219745
мы 219669
iyorum 219561
дық 219545
▁ever 219494
▁Министерства 219417
▁Not 219375
inə 219216
▁always 219119
▁hayır 218672
▁yarat 218670
▁same 218651
▁might 218572
ene 218312
дин 218305
▁Бұл 218304
ата 217915
▁сейчас 217635
імен 217589
▁kes 217223
ıp 217080
▁il 216810
▁кейін 216689
▁sağ 216627
▁настоящего 216564
▁берген 216463
▁ре 216450
▁car 216270
бы 216236
▁came 216122
▁geliyor 215973
نى 215897
▁anlat 215791
▁Then 215711
▁inan 215679
▁süre 215624
▁сан 215365
▁әлеуметтік 215343
ез 215295
лик 215257
▁between 215251
▁емес 215236
▁Все 215218
енә 215173
▁pek 215129
ля 215078
▁hər 215053
ларын 215047
U 215009
▁кар 214984
<0x8B> 214743
▁görmek 214519
▁бақылау 214458
▁эмне 214441
▁Правительства 214348
▁His 214321
▁тиіс 214237
әм 213972
У 213931
▁анын 213790
әк 213639
ская 213599
▁Ayrıca 213522
▁Or 213317
ском 213154
▁kan 213070
▁Let 212975
▁kadın 212829
lariga 212710
▁bol 212544
В 212388
▁din 212327
gi 212284
arak 212024
▁ishlab 211945
▁par 211883
▁around 211834
▁ку 211753
▁тип 211752
▁иш 211683
▁эти 211654
ət 211643
▁believe 210949
чи 210780
▁dil 210647
dım 210608
▁кал 210554
▁много 210551
дарды 210505
▁kon 210433
▁Tüm 210398
▁kat 210365
▁ко 210364
▁bazı 210237
ili 209941
үн 209854
▁Müqəddəs 209640
larından 209598
▁Son 209538
▁мӗнле 209468
<0xA9> 209464
ры 209368
тік 209333
ash 209274
▁nerede 208657
▁hemen 208505
ıyorum 208385
▁Sanırım 208331
Л 208186
▁durum 208138
▁даже 208106
ations 208059
▁Hiç 207998
les 207921
▁Bible 207683
▁итеп 207565
▁old 207321
быз 207046
▁тар 206893
▁ук 206838
▁hal 206735
Е 206722
▁yerine 206516
аз 206504
ob 206435
▁use 206295
imizi 206263
▁От 206082
▁St 205765
▁асыру 205449
ич 205431
▁Мин 205365
уш 205261
▁болған 205202
▁su 204971
етін 204960
▁мой 204829
▁Kutsal 204667
ec 204499
dy 204384
ъ 204361
ell 204022
▁работ 203784
▁işi 203777
▁нәрсә 203774
unda 203588
▁keep 203579
▁Because 203572
▁yere 203559
ati 203536
▁mısın 203500
▁кеше 203488
ена 203466
ист 203418
▁которых 203258
ских 203242
maz 203178
▁la 203062
▁За 202974
▁Nasıl 202858
▁tashkil 202856
ishi 202820
<0x5C> 202764
стер 202740
▁üzerinde 202722
▁three 202708
ry 202640
ebilir 202595
af 202591
▁ҫине 202570
▁Для 202534
▁end 202479
ания 202432
▁real 202379
▁итә 202222
енных 202178
▁услуг 202134
▁days 202095
▁турган 202038
▁этой 202029
ər 201928
▁тут 201920
▁Ad 201740
▁кол 201707
▁управления 201574
уд 201523
▁хочу 201498
▁hizmet 201465
<0xD8> 201432
оз 201354
▁eğer 201303
▁tak 201071
▁Ey 200888
▁yalan 200777
▁geçir 200775
▁олардың 200771
лӑ 200566
lay 200412
▁anda 200375
▁жалпы 200272
▁san 200156
arlar 200142
▁өсөн 199978
▁etm 199811
ыт 199693
▁family 199666
дыр 199636
▁didn 199620
▁әрі 199566
▁оп 199549
▁Mukaddes 199538
▁please 199137
▁мин 199137
▁olmalı 198964
▁Bayan 198757
▁yalnız 198701
▁haber 198607
men 198262
▁Иса 198092
▁Yap 198052
▁özel 198019
ating 198001
гы 197865
ide 197722
▁всего 197628
▁görüş 197593
▁ауданы 197460
▁yaş 197034
▁edir 197010
▁İ 196773
▁ederim 196460
нар 196443
▁Artık 196363
▁today 196157
▁güven 195958
▁left 195939
ud 195928
▁istiyor 195780
▁seç 195659
▁yaşam 195641
▁nothing 195598
▁башка 195596
ус 195592
Г 195573
▁değilim 195517
mesi 195197
▁могу 195185
▁Кудай 195168
▁потому 195152
▁best 194944
▁sp 194639
lerinin 194579
ilm 194503
▁miyim 194488
▁Who 194401
▁ӑна 193929
<0xA0> 193872
ül 193777
ali 193550
▁отырып 193543
▁қосымша 193461
һ 193438
▁Гайсә 193423
▁келген 193189
▁yı 193158
▁можно 193142
▁Вот 193139
▁іске 193072
▁öğren 193010
▁farklı 192841
▁bulun 192439
ың 192416
▁ҡ 192319
yn 192112
▁согласно 192073
▁Bütün 192024
▁Про 192021
▁Biraz 191851
siniz 191754
▁граждан 191626
том 191597
ğin 191566
▁маслихата 191531
▁birkaç 191487
▁kap 191299
▁bin 191200
▁buna 191004
▁свою 190962
оп 190949
▁everything 190935
▁insanların 190786
ников 190777
▁para 190688
▁dakika 190678
arı 190628
▁млн 190613
len 190529
▁kontrol 190500
ere 190397
▁күп 190277
рен 190151
▁аудандық 190116
▁системы 190075
▁nun 190017
▁лица 189952
▁talk 189760
acağım 189757
▁ничего 189745
во 189644
sınız 189623
▁кешеләр 189579
▁Жахабанын 189557
▁өткен 189444
▁isə 189440
ў 189310
▁tr 189301
▁қолданысқа 189299
аның 189290
ё 189188
▁olmaz 189176
▁халықаралық 189153
▁emin 188432
▁Президента 188328
▁hep 188174
▁arkadaş 188160
▁сельского 187924
▁-- 187862
▁olish 187803
▁against 187670
sız 187658
ья 187563
▁кезінде 187531
▁kind 187258
▁ой 187192
▁сақтау 187027
▁olun 187025
▁детей 186840
▁организаций 186782
би 186522
▁gelen 186415
ally 186349
▁кызмат 186284
▁olması 186252
▁көр 186199
▁problem 186158
lim 185969
▁байланысты 185889
daki 185864
esine 185804
▁işe 185616
▁gereken 185578
рах 185541
ors 185519
▁yan 185444
▁fark 185313
▁сп 185295
▁Yehovanın 185289
ings 185078
▁idi 185077
▁sal 184987
▁boy 184934
ilgan 184665
▁ю 184663
ений 184659
lib 184615
▁pay 184367
ум 184277
▁ауыл 184130
▁De 183973
▁ҫав 183955
asına 183797
▁feel 183569
сты 183407
▁vur 183350
▁Lütfen 183290
▁yoksa 183232
▁тех 183140
уу 182930
▁Жахаба 182874
▁қ 182859
alım 182821
▁each 182749
▁gerekiyor 182661
ј 182630
▁sir 182612
▁used 182419
▁бұл 182369
▁yakın 182355
ne 182290
▁тенге 182218
тов 182172
▁её 182172
тық 182147
▁qonun 182124
иш 182105
▁иткән 182082
ER 182067
si 182001
▁tur 181995
▁көз 181982
▁kez 181938
ыми 181808
əm 181790
▁met 181628
бай 181522
▁savaş 181498
▁ет 181489
oq 181341
▁млрд 181328
▁money 181235
lem 181134
ющих 181133
▁над 181092
lab 181061
ну 181044
нибудь 180836
asining 180762
ise 180728
▁числе 180636
вать 180617
кә 180420
▁сегодня 180410
▁территории 180266
ался 180223
ыз 180192
if 180098
▁dem 179876
<0xAE> 179853
Қ 179790
▁sent 179734
▁er 179686
▁Почему 179637
▁Бога 179632
▁кезде 179590
тор 179558
ника 179538
лу 179440
▁earth 179231
▁Aslında 179170
▁булып 179037
▁вара 178776
▁öldür 178619
тері 178340
▁ruh 178246
ять 178228
тау 178037
ық 178035
▁qil 177907
▁государства 177709
▁далее 177638
▁kimse 177581
▁болуп 177563
▁gönder 177558
лык 177453
▁жизнь 177404
▁konusunda 177234
tr 177218
▁lot 177191
▁бал 177182
▁мың 177045
▁информации 177004
иль 176991
▁guy 176985
lığı 176906
▁табылады 176805
ылған 176791
▁ئ 176787
▁gid 176769
ҙ 176761
▁number 176671
▁иде 176665
▁ү 176622
▁решения 176581
▁май 176550
▁связи 176538
▁жардам 176504
▁zaten 176465
сть 176459
▁Gerçekten 176457
жа 176406
▁Ev 176378
▁xizmat 176298
▁рамках 176296
▁пулнӑ 176227
▁бөл 176172
▁населения 176170
mem 176159
▁Ұлттық 176155
ег 176092
▁Baş 175953
larining 175941
▁uning 175932
▁etmək 175816
ical 175022
▁dair 175021
▁тоже 174978
eceğim 174965
▁ла 174933
▁басшысы 174889
▁davran 174724
ады 174715
▁ek 174697
▁своей 174582
еш 174534
гө 174523
▁Gel 174523
<0x24> 174474
▁Am 174277
▁yerde 174207
уч 174201
▁Buna 174152
еч 174063
ального 173978
▁ин 173967
▁Get 173833
нине 173708
▁Mar 173603
▁ничек 173481
ie 173443
Ы 173411
▁hafta 173408
din 173316
Ж 173229
▁le 173182
ill 173157
▁günü 173144
▁verir 173096
ind 173050
inizi 172933
anda 172843
oc 172843
▁bundan 172842
лә 172780
<2tyv> 172753
▁wanted 172610
▁yat 172588
▁York 172568
▁ask 172525
▁тур 172414
▁bağ 172227
▁течение 172212
▁Алар 172200
▁болот 172139
lerinde 172128
ские 172097
▁vazirligi 171816
▁Okay 171770
▁қорғау 171724
ous 171620
▁либо 171498
ники 171486
sen 171436
<0x9E> 171422
▁otur 171419
▁Be 171384
их 171365
ено 171209
sel 171096
▁р 171073
▁безопасности 171043
▁xo 171015
ім 170955
oh 170689
▁бил 170591
▁show 170405
▁İş 170382
▁together 170344
рам 170168
үү 170132
end 170115
▁вот 170110
ью 170080
Х 169925
▁счет 169906
▁zorunda 169765
▁Ancak 169758
▁efendim 169757
▁ба 169723
▁сам 169710
▁hoş 169639
▁буйынса 169607
▁себе 169603
▁sure 169598
og 169554
▁Президент 169521
<0x99> 169390
▁тан 169208
art 169049
mez 169000
▁der 168989
▁Бул 168960
▁sat 168905
иялық 168798
▁iz 168722
▁Без 168653
▁says 168549
ite 168540
▁course 168526
ess 168460
tık 168452
▁onunla 168427
▁вводится 168426
ow 168407
▁belki 168400
ıcı 168392
▁атап 168342
▁program 168297
ент 168257
гер 168214
▁oshirish 168211
▁house 168129
▁хорошо 168081
▁проведения 168038
▁room 167714
ләре 167611
▁One 167609
▁пен 167584
▁bad 167337
▁оказания 167275
ций 167270
▁салық 167247
гән 167207
▁qilib 167186
▁кан 166885
уге 166691
▁tane 166658
idagi 166609
▁went 166500
▁пайдалану 166476
▁кыл 166371
▁Bugün 166249
гу 166129
▁took 166124
▁misiniz 166060
▁жөн 165996
▁ата 165975
ishga 165956
lü 165916
баев 165765
ше 165684
ək 165275
maq 165152
▁бел 165150
▁жоғары 165080
ıyorsun 164915
ств 164888
▁called 164760
▁жет 164753
yicha 164721
▁органа 164663
ня 164600
▁boyunca 164521
▁Our 164413
let 164238
tim 164189
▁люди 164166
▁unut 164127
дік 164025
▁etdi 163746
ens 163745
стар 163718
▁осуществляется 163532
▁тұрғын 163445
▁жакшы 163431
тарды 163362
цию 163213
▁Br 163188
▁qabul 163154
▁Казахстана 163154
▁shuningdek 163115
▁Кар 163057
eb 163053
▁bildir 163040
▁надо 163034
▁without 162920
▁Ýehowa 162812
ileri 162732
▁Yol 162661
▁götür 162563
iyi 162557
▁edip 162436
▁биз 162419
▁сатып 162396
лік 162376
інен 162344
▁erkek 162193
yil 162185
альной 162086
ках 161886
▁olsa 161742
▁ней 161516
▁gitti 161430
▁теперь 161319
чу 161282
tin 161035
ran 161029
▁ил 160912
ies 160853
ep 160830
▁eski 160802
▁both 160787
▁никогда 160615
елер 160563
▁father 160524
қосымша 160448
<0x9D> 160438
ğim 160408
▁dostum 160372
▁кылган 160323
▁состав 160234
▁тел 160215
ions 160196
▁мемлекетт 160163
▁Ю 160112
▁yemek 159993
çi 159962
may 159903
ıma 159794
▁ј 159759
▁almak 159733
вал 159699
meyi 159688
▁Ay 159644
madan 159605
лӗ 159592
▁Yeni 159539
лю 159538
dum 159522
uvchi 159456
▁beri 159376
▁ресми 159299
ness 159213
▁John 159111
▁country 159033
▁газ 159013
ük 158997
ari 158836
▁while 158815
▁Бер 158807
ян 158777
▁yine 158711
▁heç 158648
▁Под 158633
▁пока 158627
▁set 158566
итель 158501
▁жылдың 158496
dun 158438
asini 158432
▁помощи 158406
▁Ар 158363
▁üzere 158344
▁fakat 158335
▁suç 158234
erek 158104
▁ун 158067
▁кур 158003
▁Adam 157992
▁л 157957
хан 157929
eth 157825
▁срок 157819
ыла 157770
▁bakalım 157665
▁ediyorum 157653
ней 157592
▁yanlış 157590
▁алган 157536
▁Его 157475
edi 157448
▁район 157382
▁ب 157382
▁harika 157336
▁bugün 157324
lerinden 157303
ались 157200
▁Бирок 157147
▁Öyle 157082
ад 157072
▁hala 157052
▁hak 157011
сан 156999
дарын 156994
ци 156978
▁per 156843
иб 156792
▁Павел 156737
▁ail 156696
▁Başka 156678
▁Бог 156663
▁someone 156643
оль 156574
lerde 156558
W 156545
elim 156539
▁сөз 156512
ех 156464
▁okay 156439
альных 156376
▁қажет 156317
ling 156310
▁ý 156262
ора 156206
улар 156033
▁би 156004
▁tür 155995
▁енгізіледі 155957
▁bilm 155874
ayım 155798
▁своих 155794
▁силу 155760
▁ro 155751
▁leave 155559
▁Премьер 155547
аг 155529
laş 155461
▁done 155453
аларын 155360
lərin 155318
▁dost 155271
ive 155214
▁декабря 155113
▁ular 155059
▁date 155015
▁far 155000
ились 154995
▁Башҡортостан 154932
▁belə 154888
▁kerak 154870
▁всегда 154827
▁Look 154784
ça 154696
▁статьи 154617
abil 154576
▁çal 154563
ici 154472
нің 154448
дел 154420
▁değiştir 154326
▁rivojlantirish 154295
нов 154207
▁ondan 154171
▁lgan 153943
▁қатысты 153897
ği 153799
larında 153792
▁hayat 153648
▁ularning 153551
▁қаласы 153541
▁Kar 153508
▁нинди 153444
▁edi 153437
iyorsun 153392
acağız 153355
лау 153344
▁период 153311
Ш 153290
▁Men 153279
▁President 153261
оч 153250
асына 153161
▁big 153128
▁этим 153117
▁olmuş 153115
ең 152999
mas 152947
▁Bar 152734
iyet 152652
▁sun 152540
ence 152494
eyim 152244
all 152223
▁акима 152206
лед 152130
▁qilgan 152046
▁esa 151978
▁Ни 151781
▁birini 151774
ание 151708
жи 151646
▁else 151572
com 151471
▁продукции 151417
▁ҫ 151386
<0xA5> 151379
ci 151372
▁пред 151354
▁Mary 151321
ağı 151252
▁sık 151248
▁банк 151241
▁хозяйства 151233
ыны 151216
▁сказать 151202
▁кез 151136
▁страны 151067
▁жүргізу 151058
lerle 151000
▁место 150947
▁шулай 150799
ile 150794
▁көрсет 150765
▁Böyle 150714
<0x87> 150681
▁тә 150639
уп 150614
үп 150609
▁сот 150581
▁ещё 150574
▁muvofiq 150517
▁части 150482
▁different 150347
▁Мен 150292
▁бизнес 150268
▁дамыту 150155
▁Аллаһ 150126
▁Er 150089
▁kendini 150053
ünün 150010
sak 149925
▁heart 149852
▁одного 149839
▁заң 149836
▁biliyorsun 149796
ое 149735
тарын 149686
ими 149549
ром 149542
▁қатар 149463
▁saw 149449
lərə 149438
▁ак 149419
▁көрсетілген 149375
▁next 149350
▁kır 149214
▁hand 149205
▁em 149174
▁sol 149173
▁була 149057
ырга 148931
aş 148913
uc 148870
▁Yahova 148698
▁olib 148667
▁күні 148615
▁From 148529
ӗр 148527
▁двух 148435
▁until 148406
▁kork 148401
▁istiyorsun 148369
мә 148319
▁point 148306
▁Tr 148304
▁қар 148278
▁эпир 148268
▁Turkey 148225
led 148110
amaz 148085
▁person 148048
▁kömək 148018
же 147956
бер 147868
ize 147843
▁көмек 147622
аларды 147520
ment 147453
▁city 147397
▁İki 147397
çe 147350
▁план 147325
▁Вӑл 147160
▁времени 147126
ilen 147005
▁business 146972
▁girl 146963
▁тысяч 146924
▁wrong 146911
sun 146857
дардың 146830
▁live 146792
▁By 146747
▁Tanrım 146690
yny 146495
▁сез 146458
▁Кто 146430
▁water 146351
▁Hudaýyň 146309
▁ӗҫ 146295
▁İlk 146292
▁сделать 146245
▁gelir 146242
▁всем 146187
▁mother 146164
ственных 146108
▁почему 146079
AL 146044
iyoruz 146038
▁жар 145964
▁guys 145927
als 145922
▁ağ 145867
ular 145861
▁film 145835
▁ushbu 145810
▁түгел 145735
▁Büyük 145641
▁бюджета 145625
ает 145573
▁оны 145570
▁üzerine 145553
▁топ 145499
ір 145498
one 145494
▁Из 145463
▁кам 145443
▁тыс 145425
▁Министров 145368
ast 145327
▁ancak 145304
З 145181
▁Kitap 145079
▁енгізу 145069
Ә 145051
▁olar 145006
чен 144965
▁head 144887
ang 144885
▁times 144811
▁bilir 144779
терді 144769
▁должна 144750
▁evet 144743
▁Pr 144699
▁ab 144693
▁important 144678
ию 144586
▁саласындағы 144579
uyor 144554
▁Go 144495
ons 144478
еді 144434
▁öl 144384
▁учреждения 144364
лап 144313
аттар 144297
▁dead 144297
ladi 144287
▁fikir 144224
▁жел 144149
▁бик 144140
нӗ 144133
ە 144106
▁eş 144043
▁musunuz 143984
ia 143963
▁ist 143928
асының 143891
▁anlam 143803
ligini 143797
ä 143715
▁аларга 143679
▁аз 143653
▁Öz 143541
тә 143507
ностью 143485
▁olmayan 143482
ass 143371
▁zarar 143294
▁сфере 143288
до 143173
asiga 143117
дагы 143062
ери 143022
▁bank 142978
▁birçok 142945
▁Иеговы 142937
duk 142894
▁Pavlus 142826
▁sak 142738
▁altında 142634
▁саны 142619
▁эпӗ 142570
▁кирәк 142453
▁белг 142434
malar 142395
undan 142392
▁ұйымдастыру 142386
▁eve 142355
langan 142277
dın 142259
ӑм 142222
▁oyn 142108
ест 142103
▁ач 141961
ins 141932
▁Pekala 141863
▁Paul 141858
imin 141848
▁лучше 141847
▁ago 141807
▁теңге 141802
▁falan 141732
▁Tam 141686
ug 141529
iq 141488
▁первого 141482
енные 141469
▁бұдан 141467
▁Ab 141385
uv 141347
▁Ол 141210
▁другие 141207
ısı 141194
▁kut 141166
▁пирӗн 141143
▁техникалық 141065
ших 141047
▁shu 140992
▁turn 140985
▁Й 140936
ğini 140932
manın 140882
alarni 140872
▁değildi 140866
▁Ak 140865
▁Ан 140737
lərini 140734
▁юл 140638
▁joy 140618
▁few 140592
ющие 140578
ates 140551
▁beraber 140525
▁alan 140485
▁человека 140471
▁арасында 140470
▁свои 140385
of 140362
ala 140332
<0x27> 140249
▁stop 140212
▁слова 140199
umu 140176
eh 139813
▁ит 139800
alarini 139726
▁регистрации 139705
iv 139670
▁таб 139670
▁herkes 139652
әс 139585
хи 139486
larım 139442
▁ega 139416
▁truth 139315
тыр 139286
▁ön 139272
▁ярдәм 139258
▁этих 139235
▁yolu 139191
▁Турӑ 139117
ğiniz 139107
▁pr 139106
▁means 138989
әй 138978
ысы 138971
▁already 138957
ğ 138929
▁программ 138874
▁Kız 138855
▁remember 138837
▁уәкілетті 138834
ver 138827
▁Par 138810
цы 138709
▁haqida 138701
дем 138697
ование 138692
рат 138596
adı 138495
▁Аллах 138479
бу 138428
▁etme 138369
▁Wi 138313
▁berish 138269
üne 138217
masına 138202
AN 138173
▁woman 138161
▁мал 138154
▁хезмәт 138099
▁Tek 138075
▁менее 138072
masını 137976
▁жылға 137905
▁кон 137869
▁мер 137828
▁закон 137743
▁te 137739
▁экономикалық 137733
ве 137697
тердің 137675
нее 137662
cı 137599
▁вопросам 137583
▁nedir 137563
▁meeting 137562
▁ortaya 137525
▁өзге 137438
▁among 137404
▁silah 137403
▁программы 137242
сов 137212
▁neler 137198
▁temiz 137161
▁дело 137137
dık 137058
▁Genel 136978
▁заңды 136967
лин 136958
▁профессион 136796
▁ум 136768
▁kardeş 136737
<0x9C> 136695
▁Where 136627
она 136566
siy 136557
▁başladı 136525
іс 136524
мат 136485
▁school 136480
ҙе 136412
amı 136393
▁service 136371
▁gave 136364
▁şunu 136283
▁обеспечения 136270
▁Size 136260
▁istemiyorum 136245
to 136240
▁bilgi 136221
luk 136191
asında 136184
▁Bence 136172
▁жаз 136134
▁воз 136052
▁upon 136020
үл 135979
yna 135899
ск 135870
▁mal 135850
▁yanında 135789
илась 135788
▁право 135697
▁lim 135656
▁friend 135621
▁такой 135604
na 135528
▁Çocuk 135523
▁bilmiyorum 135491
▁ей 135351
iyat 135270
▁area 135176
▁bosh 135168
▁жергілікті 135119
ләргә 135109
▁genç 135091
дык 135022
▁uygun 135009
▁өтті 134922
▁others 134915
alan 134900
▁кай 134871
▁death 134859
ılmış 134847
▁hear 134840
▁уй 134825
iladi 134814
tik 134714
▁дом 134680
▁шаруашылығы 134586
adigan 134577
▁değildir 134546
▁вӗсем 134391
▁million 134386
▁çocuklar 134378
▁mind 134377
ши 134371
▁benimle 134340
ayotgan 134284
▁комиссии 134218
ству 134205
ләрен 134199
▁yourself 134180
▁bilər 134165
▁söylüyor 134150
▁bağlı 134118
▁stay 134111
▁хӑйӗн 134049
▁Дж 133994
▁res 133984
▁ра 133914
▁Үкіметінің 133910
▁Allaha 133900
▁dikkat 133850
▁комиссия 133826
лаш 133770
▁become 133690
▁ос 133663
▁enough 133624
▁happened 133622
▁holda 133541
▁information 133508
▁отыр 133500
eme 133432
▁güç 133310
emi 133300
▁стран 133244
ilerin 133234
▁Davlat 133186
▁систем 133181
▁жөнүндө 133177
ince 133094
▁state 133071
▁ор 133044
tın 133013
▁ас 132997
▁dünya 132927
▁yaptı 132907
▁sub 132894
▁культуры 132863
ало 132831
▁kol 132830
▁im 132769
ade 132724
▁hangi 132704
▁vaxt 132686
кер 132643
▁вместе 132542
кин 132529
ance 132526
▁жан 132506
▁gr 132490
▁қал 132423
▁редакции 132293
тардың 132233
leme 132217
ağa 132089
Ф 132030
▁system 131988
дү 131939
▁bring 131913
ҫҫӗ 131907
▁halde 131895
▁cevap 131886
▁республикалық 131865
▁dua 131788
aning 131724
▁басқару 131704
▁данных 131611
атель 131562
▁hard 131555
▁пулсан 131447
▁аш 131443
▁талап 131439
▁Sam 131409
eceğini 131390
▁Merhaba 131364
▁Mesih 131337
esinde 131318
▁делать 131275
ками 131196
▁спорт 131178
▁belgilangan 131068
▁Алла 130987
ong 130967
▁Onları 130954
▁zamanda 130824
▁производ 130662
ete 130657
айте 130625
альный 130625
ty 130620
▁II 130605
үр 130589
алды 130508
▁beş 130414
ner 130349
▁yardımcı 130319
uş 130305
min 130288
▁alın 130287
▁см 130237
▁районного 130152
лении 130109
▁проект 130029
▁yordam 129981
▁ölüm 129961
▁чухне 129928
▁mutlu 129886
▁Мар 129838
▁bunlar 129836
▁tanım 129763
▁мүмкін 129722
енного 129721
Fi 129655
▁объектов 129643
▁негізгі 129624
▁Ис 129555
▁ulaş 129544
▁ведь 129492
amam 129415
▁uzak 129415
▁стар 129413
▁ҫын 129409
ğine 129371
лген 129347
кон 129334
▁есеп 129302
▁Может 129264
▁whole 129239
▁order 129230
▁ди 129228
▁yapıyor 129188
dü 129133
▁bat 129111
▁care 129043
▁nor 129025
қан 128989
▁true 128982
▁günah 128977
▁бай 128957
▁job 128953
IN 128897
▁алабыз 128886
eceğiz 128882
▁юстиции 128875
▁Ö 128867
▁ки 128850
▁kaf 128799
ела 128776
▁gelecek 128627
▁kazan 128616
▁екі 128601
▁деді 128562
▁финансов 128454
▁қаржы 128403
▁работу 128350
▁olmadığını 128334
▁тиеш 128311
▁толық 128275
▁yak 128273
▁кор 128224
▁жасау 128197
ӗсем 128183
▁уб 128140
▁mas 128050
▁постановлением 128040
атор 128028
▁вод 127968
▁дигән 127966
▁yüzünden 127954
▁ақпарат 127953
▁экономики 127939
larida 127859
ori 127814
▁understand 127799
▁näme 127795
ph 127782
▁seninle 127778
тап 127687
оро 127640
▁чего 127635
▁yüksek 127594
ou 127577
zi 127548
▁Gr 127500
ting 127486
▁рас 127384
<2crh> 127368
▁hayal 127340
▁нем 127336
ендә 127277
▁говорит 127269
irdi 127262
▁power 127242
▁After 127228
▁wife 127204
▁потом 127126
▁Republic 127122
▁знаешь 127056
ог 127025
▁решение 126949
▁медициналық 126938
▁Har 126879
▁hansı 126878
▁edən 126865
▁Ак 126843
ылды 126801
▁Ýehowanyň 126801
sam 126794
ических 126764
ік 126734
chi 126692
AR 126622
дал 126619
ёт 126619
▁контроля 126619
овой 126609
▁оқу 126603
▁можем 126580
▁kitap 126572
modda 126536
ğinde 126499
▁given 126332
▁основе 126309
▁ауданының 126295
дам 126251
▁уч 126215
▁xalq 126175
чы 126162
▁производства 126152
▁Good 126107
тын 126051
▁Bundan 126023
▁Orada 125991
▁нашей 125928
▁gördüm 125921
▁балалар 125865
sem 125772
▁br 125634
▁tarihi 125611
▁учреждение 125593
liği 125572
▁қабылдау 125533
▁сын 125472
▁ким 125430
▁сай 125413
▁daki 125393
▁taş 125349
▁bitir 125344
ушы 125305
▁olduğuna 125284
▁öğret 125282
ram 125281
▁белгіленген 125258
ılan 125243
▁органы 125177
▁dis 125172
▁город 125103
▁aş 125069
▁Güzel 125054
ust 125051
▁görünüyor 125003
▁ең 124971
▁war 124910
▁coming 124755
ларды 124734
цией 124693
▁high 124675
рас 124628
▁олар 124623
▁Өз 124606
▁своего 124588
▁akşam 124568
▁әр 124564
▁kaldır 124535
▁başına 124520
▁Tabii 124495
isini 124464
▁ауылдық 124433
▁oyun 124432
▁hareket 124358
its 124350
▁test 124245
Z 124222
▁doğ 124222
ӗҫ 124183
ost 124164
▁Vazirlar 124109
кий 124094
▁акимата 124068
▁действия 124001
dür 123979
▁ten 123979
▁келісім 123878
▁Onların 123827
age 123817
▁участие 123755
ании 123687
гыз 123672
▁безгә 123584
▁women 123548
▁second 123509
▁думаю 123484
▁пур 123475
aman 123467
▁olursa 123466
▁мекемесі 123449
▁na 123438
▁kolay 123389
ıyorlar 123370
▁risidagi 123345
<0x40> 123277
▁etmiş 123239
▁since 123235
▁целях 123228
▁development 123204
▁diyor 123175
індегі 123136
▁тобой 123106
▁rahat 123061
стве 123027
▁üst 122942
asyon 122930
дов 122894
▁буду 122851
▁три 122837
вается 122806
ское 122780
ца 122776
▁indir 122741
▁мынадай 122672
▁Iso 122665
▁дела 122657
бек 122594
medi 122573
▁case 122515
▁Türkiye 122466
▁çağır 122464
ində 122402
ык 122372
▁годы 122324
▁aslında 122229
▁друг 122226
▁тогда 122120
▁Car 122104
▁Эй 122094
▁mən 122076
▁gidiyor 122045
▁әкімінің 122001
мер 121969
▁ради 121892
▁organ 121846
▁yi 121819
▁имени 121794
▁boş 121780
▁Th 121736
әл 121728
▁дома 121721
▁ettim 121687
▁start 121661
▁min 121639
ery 121575
▁шарт 121570
ics 121509
sanız 121499
indeki 121495
ини 121430
емых 121403
elik 121359
▁установленном 121350
▁мог 121295
▁ка 121248
▁күрә 121191
<0xBB> 121182
ör 121096
альные 121083
▁Ай 121066
▁ateş 121057
ى 121046
▁Əgər 121029
▁art 121018
ef 120988
▁кө 120963
▁ага 120954
▁güçlü 120949
▁bas 120944
▁которая 120938
ндег 120873
▁emas 120851
▁yaxşı 120829
▁kill 120817
▁Man 120771
land 120723
▁қарсы 120682
▁Herkes 120600
▁young 120571
ely 120541
əy 120481
▁çevir 120465
▁hat 120449
рак 120437
▁орта 120350
▁сол 120302
▁работа 120278
▁против 120174
▁sabah 120171
asının 120096
▁арнайы 120089
▁child 120067
▁кул 120063
etler 120026
▁оларды 120012
▁form 119935
▁тол 119929
sə 119928
▁мной 119905
tar 119899
ющий 119808
▁Hiçbir 119806
▁ұлттық 119804
▁Musa 119775
▁azından 119732
▁һәр 119704
ر 119697
ож 119624
ful 119615
iyorlar 119598
▁деле 119537
▁görev 119485
cha 119393
▁пов 119380
▁мол 119351
аса 119308
▁knew 119302
тал 119288
▁берет 119286
▁nefret 119281
▁sanırım 119239
▁istem 119233
▁редакцияда 119225
▁göstər 119203
▁жай 119197
▁av 119189
▁Ку 119156
▁тер 119024
▁бо 118965
▁адамдар 118943
ES 118888
əsi 118881
▁проектов 118855
ber 118748
▁konuda 118720
ığın 118675
mayın 118673
▁tap 118579
▁Peter 118556
▁уп 118516
▁алдында 118515
▁зап 118505
▁hâlâ 118409
▁барысында 118406
▁least 118404
▁adı 118376
▁мест 118337
▁жок 118327
ҙы 118295
▁dedim 118243
▁San 118241
▁insanları 118207
▁болуы 118165
aly 118075
ğimi 118063
▁тиісті 118057
▁постановления 118046
▁даму 118038
deki 118037
▁Yine 118027
▁rest 117902
▁бөлімі 117871
▁Buraya 117806
▁axborot 117801
ism 117759
▁рух 117737
▁Christ 117729
▁предприниматель 117675
▁David 117670
ук 117649
▁эч 117649
▁болай 117614
▁within 117576
кие 117533
▁ман 117511
▁рұқсат 117503
вер 117447
▁ac 117333
▁um 117315
ера 117290
rin 117258
▁два 117213
▁кийин 117177
▁anne 117156
▁сен 117144
ağ 117131
der 117107
lashtirish 117085
ші 117065
▁gətir 117064
▁şeýle 117061
▁telefon 116948
ğimiz 116940
ому 116888
▁won 116866
▁görün 116822
▁өзгерістер 116809
▁способ 116770
▁товаров 116659
amiz 116544
▁ok 116542
▁zamanı 116528
кам 116521
▁көн 116519
▁tanış 116473
▁ҫул 116423
▁ер 116380
üs 116325
iden 116321
ического 116318
дей 116300
▁ses 116249
▁лишь 116235
▁Ө 116210
▁Maybe 116171
ӗнче 116170
▁округа 116147
▁арасындағы 116131
iyordu 116129
▁кого 116089
▁сар 116057
іл 116032
▁Say 115867
lat 115865
▁herhangi 115809
▁эту 115756
рос 115755
lish 115692
▁өс 115671
▁dir 115648
ton 115568
ылып 115558
lıq 115486
▁минут 115409
▁Git 115399
▁Sp 115379
▁Have 115243
асында 115225
▁dey 115214
▁normal 115204
▁ex 115163
▁ро 115149
izi 115140
əl 115127
▁түрде 115099
▁труда 115078
овать 115027
rib 115009
▁номер 114966
▁brother 114939
өр 114921
▁Қазақстанның 114879
sal 114867
ıyoruz 114848
▁имя 114835
▁friends 114822
▁вз 114745
▁Bil 114735
▁insanlara 114720
▁унӑн 114719
lamak 114669
per 114649
ıyla 114636
▁edecek 114621
▁яхшы 114565
▁idea 114550
▁здравоохранения 114533
▁ik 114527
▁маман 114521
▁еңбек 114510
AT 114509
▁risida 114500
▁Bizim 114467
▁алдын 114460
▁sonunda 114447
▁мөмкин 114438
▁şeyin 114407
▁болса 114397
▁ihtiyacım 114378
▁free 114367
ünde 114357
▁change 114356
▁actually 114266
ятся 114207
▁bur 114156
▁acı 114059
ің 113927
iydi 113914
ило 113910
▁пос 113906
▁koş 113903
▁пул 113901
ıyordu 113878
▁example 113841
ственной 113835
ırlar 113807
дегі 113781
▁облыстық 113766
▁human 113718
▁Ин 113712
ığı 113708
▁қызметі 113682
▁heard 113669
зу 113654
▁км 113640
ümü 113623
▁официального 113590
▁ис 113535
▁вопросы 113522
▁өзара 113502
▁тіркеу 113457
▁doesn 113443
лардың 113428
лам 113410
▁айткан 113373
met 113337
ственного 113337
гов 113332
▁hepsi 113328
▁bog 113309
ись 113304
▁Dur 113277
▁Bel 113252
▁fr 113242
ета 113236
▁gəl 113193
▁бес 113176
J 113092
▁seen 113081
▁değer 113049
▁looking 113043
▁тарту 113041
▁Назарбаев 113002
▁шешім 112994
atı 112938
семпе 112913
▁свой 112876
▁kel 112798
▁рабочих 112769
▁түр 112757
▁during 112712
tu 112694
▁tamamen 112693
▁мақсатында 112681
▁land 112672
▁killed 112542
▁once 112527
▁giy 112515
▁Online 112441
ars 112420
▁benden 112397
▁talab 112390
▁minutes 112383
imize 112375
▁open 112373
дө 112341
▁мүмкүн 112336
▁должно 112305
ателей 112301
▁тор 112240
▁Егер 112233
овых 112200
▁TV 112173
▁nice 112136
▁мемлекет 112132
вает 112096
▁пире 112063
▁ходе 111939
▁алған 111916
ice 111869
▁ni 111866
▁yeniden 111863
нет 111845
▁destek 111819
▁Of 111816
▁sar 111813
EN 111748
kin 111738
циялық 111719
рав 111711
ень 111700
▁durumda 111697
▁января 111631
там 111629
үүгө 111610
▁yoktur 111584
▁Başlangıç 111499
▁barcha 111474
▁га 111460
▁play 111450
▁try 111436
▁milyon 111410
▁изменений 111368
▁шул 111346
▁өт 111333
ования 111329
ительных 111316
▁read 111314
▁остав 111312
▁face 111310
уын 111295
▁Az 111288
▁dört 111285
ax 111282
▁kaçır 111187
ишь 111097
ingiz 110943
▁االل 110932
▁опубликования 110901
lyk 110888
▁орынбасары 110877
▁hisob 110858
mesini 110823
ющего 110755
X 110729
ack 110722
▁mablag 110698
▁sır 110691
ush 110661
ane 110652
ladı 110611
▁пункт 110607
▁İst 110552
▁син 110500
▁kapat 110494
▁ру 110481
гал 110445
ort 110418
▁od 110370
▁olay 110364
ory 110275
▁qaror 110256
▁sc 110247
▁средства 110188
сп 110185
▁takip 110178
ach 110159
▁Haydi 110132
▁республики 110121
ure 110105
lerim 110100
▁çöz 110082
раз 110077
▁etmeye 110068
ева 110000
▁хотел 109972
рай 109907
▁бірінші 109887
ууга 109832
бе 109807
▁ө 109758
▁working 109737
▁десяти 109724
â 109665
▁мәслихатының 109625
ilishi 109606
▁ма 109584
▁ýaly 109573
▁varsa 109569
lərinə 109555
int 109540
▁электр 109539
▁хӑй 109535
лов 109528
▁şeyleri 109498
▁деятельность 109478
▁control 109474
▁Göz 109455
▁knows 109401
meden 109388
▁Him 109388
▁polis 109377
▁Onlara 109353
<0x8C> 109348
чак 109339
ль 109288
▁комитет 109283
▁құжаттар 109274
▁кү 109221
▁bizə 109134
▁Отдел 109125
ылы 109117
▁General 109111
▁past 109049
▁getting 109011
▁форме 108937
▁көзделген 108913
▁үҙ 108879
▁wants 108874
▁Kur 108863
▁mis 108839
▁рет 108818
▁aldı 108794
▁иң 108758
▁құру 108706
▁pis 108698
ической 108696
ура 108665
▁saying 108651
▁пер 108632
сә 108623
▁которого 108612
▁gidip 108601
ви 108584
▁сер 108534
alarını 108530
▁го 108521
▁асырылады 108504
▁отправ 108468
▁Astana 108444
▁word 108435
▁ayrıl 108430
▁хочешь 108396
▁службы 108356
▁Bunlar 108280
▁жас 108265
▁пайда 108248
rat 108240
▁age 108225
ımızı 108215
▁orqali 108210
▁maybe 108120
▁bag 108119
▁қаулысымен 108116
▁сауда 108026
▁Bize 107977
▁tar 107963
▁құқықтық 107931
▁dolu 107925
еле 107920
▁public 107913
▁проекта 107900
<0x98> 107889
▁qədər 107851
unuz 107831
<0x81> 107779
▁diy 107770
our 107746
ларга 107687
ирования 107636
▁xidmət 107620
рӗ 107618
▁республикан 107601
▁Em 107570
▁news 107535
▁del 107522
▁Аллаха 107513
▁ҫак 107509
▁adamlar 107496
▁istediğim 107493
▁генә 107470
▁hadi 107299
▁geçen 107260
▁христиан 107208
▁kir 107160
ким 107155
▁çıktı 107080
ırdı 107036
▁buradan 106994
▁ul 106970
▁тек 106956
ator 106945
▁full 106878
▁актив 106863
ret 106855
▁ait 106853
▁кун 106846
ама 106837
▁bab 106817
▁dışarı 106795
▁soy 106792
еб 106790
▁böyük 106774
▁әкімдігінің 106772
▁Otel 106735
ҙар 106703
▁поступ 106694
▁tegishli 106689
▁Muqaddas 106655
▁Мемлекет 106586
ika 106580
үнө 106567
ях 106551
▁ле 106549
▁Please 106545
▁мира 106537
ынды 106536
ishni 106516
▁Oliy 106501
pr 106477
▁taraf 106471
▁имеет 106345
▁vermek 106339
▁кер 106328
any 106283
ona 106268
▁ele 106255
▁экенин 106249
lük 106245
▁Show 106224
▁пре 106198
▁мир 106196
ще 106194
▁хәбәр 106175
▁орталық 106123
inize 106118
▁мероприятий 106100
▁dek 106002
▁бекіту 105941
▁region 105906
▁социальной 105872
ких 105867
▁развитию 105828
əyə 105794
▁inc 105758
▁өтініш 105733
▁Park 105709
▁inter 105653
▁onlardan 105637
▁Ҫ 105572
шен 105540
▁Yer 105460
уб 105421
▁olduğumu 105411
▁ishlar 105402
ts 105364
▁sok 105345
imizin 105313
▁doktor 105295
ل 105292
терін 105280
атты 105259
▁органом 105221
инде 105194
▁ularni 105169
▁тормыш 105149
▁makes 105120
▁dünyada 105075
▁Dünya 105071
▁having 105055
▁ك 105050
лыҡ 105025
▁Şeytan 105008
▁Sizi 104935
▁которой 104924
ош 104918
▁sin 104892
▁Анчах 104878
лав 104852
ционных 104829
▁body 104827
ink 104819
▁With 104815
▁oldukça 104734
кого 104641
▁Toshkent 104614
نىڭ 104542
lak 104470
ергә 104457
▁trying 104456
▁жоқ 104440
▁вопрос 104424
ӳ 104418
▁права 104398
eceksin 104347
▁назад 104339
▁şeye 104332
▁жүрг 104313
▁аңа 104274
▁kurtar 104272
mamız 104233
▁rooms 104224
ателя 104199
▁Odalar 104197
▁телефон 104113
▁такое 104103
▁istedi 104097
qu 104090
magan 104064
▁chiqarish 104055
▁shunday 104041
▁Государствен 104033
▁Бас 104008
▁period 103974
▁изменения 103958
▁yaptım 103931
üyor 103896
▁есепке 103872
▁değiş 103858
▁бек 103853
▁Отан 103804
sunuz 103785
▁ana 103758
▁yoktu 103754
▁comp 103731
үм 103727
ýär 103726
шӗн 103652
▁Doktor 103648
▁своим 103640
▁list 103592
леген 103578
▁решению 103578
ire 103576
▁yangi 103557
терге 103553
▁тап 103448
▁hiss 103439
▁yig 103392
ӗпе 103388
▁суд 103343
▁ort 103341
▁asked 103339
usu 103324
енең 103285
▁edil 103261
▁безнең 103259
▁жағдай 103236
ilmiş 103211
▁ي 103192
▁қажетті 103181
▁gelip 103168
▁dışında 103134
▁Even 103133
▁каршы 103108
▁чер 103075
▁Isa 103068
▁dol 103047
▁Тогда 103028
esin 103027
дарының 103019
▁другой 102999
▁аң 102993
eki 102979
▁сайын 102950
инг 102901
▁Me 102882
▁ayır 102840
ýar 102793
▁hızlı 102786
▁орын 102776
▁қаласының 102775
▁These 102774
уда 102752
ilik 102739
▁өткізу 102735
▁алғашқы 102702
▁Will 102689
▁words 102594
▁ответ 102555
▁faith 102553
▁Alloh 102549
дәр 102537
ıya 102522
▁hotel 102518
▁выс 102510
алардың 102508
▁week 102449
▁Во 102391
ским 102385
▁yeri 102353
▁работников 102347
aj 102303
▁oraya 102277
▁административ 102255
▁qal 102249
▁es 102241
▁se 102208
mesine 102187
▁belir 102157
арт 102097
ələr 102079
▁support 102026
▁Day 102006
▁пункта 101983
шие 101972
▁wait 101971
▁Jack 101957
▁тал 101942
▁несколько 101937
ەت 101914
ря 101906
abiliriz 101904
▁Закона 101869
▁morning 101840
ием 101820
▁сак 101753
ual 101732
ита 101725
із 101687
▁зат 101638
ger 101603
емся 101575
ҡа 101556
▁принцип 101528
▁bakış 101518
▁Ц 101492
▁календарных 101482
day 101461
▁сюда 101429
ЕР 101416
aga 101400
▁кет 101392
өн 101391
▁салу 101362
▁қала 101357
лат 101338
oli 101333
▁жаткан 101333
кән 101311
▁Agar 101310
▁аппараты 101252
▁kun 101220
▁seviyorum 101215
▁baba 101207
▁though 101201
▁Enter 101116
▁deyil 101116
▁проблем 101111
▁hope 101057
ыв 101038
▁Хорошо 101016
lardı 101005
ren 101002
duğu 100983
▁later 100977
▁Бир 100973
▁карап 100904
ҙың 100882
Э 100845
madı 100836
▁fikr 100811
▁nima 100791
▁uni 100767
▁алады 100764
▁light 100758
▁anyone 100725
less 100723
ale 100596
ew 100594
▁meet 100593
▁gerektiğini 100552
▁fact 100461
▁Ed 100403
▁harc 100350
▁ass 100341
▁miyiz 100333
▁qilingan 100307
ron 100295
▁xalqaro 100283
▁fear 100281
▁İç 100204
▁check 100168
▁Ұ 100130
▁Ver 100127
▁работе 100087
кар 100058
▁моя 100047
▁soru 100019
▁adamı 100007
▁Gerçek 99974
▁тума 99954
▁matter 99938
ova 99937
уль 99853
▁кат 99806
сто 99791
ıldı 99712
<0x22> 99707
ний 99691
▁атқарушы 99690
▁dolar 99682
▁düzen 99657
вая 99642
indən 99633
▁ир 99617
▁кантип 99525
mon 99524
▁book 99485
▁dünyanın 99478
лӑх 99446
ющей 99435
▁Статья 99410
дөн 99409
▁İn 99385
▁mümkün 99379
▁çək 99378
▁внутренних 99371
▁yük 99369
тах 99339
ayan 99338
▁ağır 99262
▁hell 99262
▁соглас 99234
ӗсене 99226
ционной 99214
▁qayta 99140
▁uç 99139
ick 99126
acaq 99124
▁making 99107
▁иман 99101
▁ders 99093
▁каланӑ 99090
▁dilerim 99089
▁знать 99081
▁защиты 99075
уз 99051
mək 99038
yon 99026
▁болсо 99011
umuz 98987
lidir 98958
cu 98949
▁эл 98937
▁chiqish 98893
иров 98880
ıy 98868
ысын 98863
енный 98856
ему 98816
دىن 98790
▁пор 98789
▁alone 98747
▁Book 98710
▁Kendi 98692
▁Kitab 98690
mat 98679
ҙа 98667
ину 98653
▁сказала 98649
las 98640
تى 98636
▁çalışıyor 98613
лением 98602
▁виде 98569
▁food 98568
▁yapıyorsun 98556
▁qur 98537
▁.... 98499
акан 98414
▁уҡ 98360
▁утверждении 98343
рет 98333
▁шеш 98312
нем 98311
▁внесении 98226
▁истечении 98205
yp 98198
▁дан 98193
▁held 98143
▁Ыйса 98091
tur 98084
▁часов 98078
кая 98066
гез 98062
▁isn 97992
▁bakın 97984
▁нач 97980
▁береді 97975
▁buz 97960
▁teşekkürler 97953
▁rağmen 97950
▁University 97894
uma 97870
лас 97855
bir 97828
▁yem 97784
▁необходимо 97765
leş 97746
▁üstün 97728
Q 97727
▁ап 97654
▁алынған 97630
▁күнтізбелік 97617
ich 97589
▁four 97587
▁какой 97585
▁brought 97530
els 97526
▁көрсетіледі 97520
emez 97517
▁anlaş 97507
▁May 97482
▁помощь 97425
▁special 97420
▁bulunan 97405
ette 97395
▁Бар 97390
▁құқық 97381
OR 97373
▁uz 97369
ady 97365
▁күнінен 97332
▁fucking 97293
ynda 97207
▁teşekkür 97195
▁söylemek 97179
▁alır 97116
ние 97114
ets 97099
▁Теперь 97066
▁Bizi 97051
▁başqa 97008
▁pre 97008
▁кезең 96934
▁danış 96931
▁калган 96913
▁ғ 96811
▁sit 96791
▁кылып 96791
▁ت 96764
ore 96763
нәр 96755
▁pat 96745
▁Шулай 96736
▁kab 96716
▁özür 96707
▁Кудайга 96706
lary 96704
▁tez 96689
ред 96666
тәр 96641
▁örnek 96583
▁ут 96564
▁able 96552
acağını 96538
▁акт 96495
▁five 96481
▁zarur 96446
ا 96430
▁ortak 96420
lanan 96400
kz 96399
▁таш 96390
ata 96379
▁Комитета 96375
ене 96346
andı 96320
▁путем 96293
▁ter 96245
өт 96239
▁Söz 96224
▁Us 96206
ганда 96198
▁желтоқсандағы 96179
▁eyes 96170
І 96167
▁olm 96118
malı 96112
▁қор 96101
▁пулса 96095
тарға 96082
▁хатын 96062
▁ones 96058
уі 96005
ai 95984
meli 95940
▁сом 95940
▁değilsin 95936
▁предприятий 95926
▁бири 95893
▁countries 95876
▁verm 95861
▁sürü 95849
▁құжаттарды 95836
▁bunları 95830
▁жал 95770
manı 95730
▁Аппарат 95730
▁облысының 95691
▁Ann 95626
▁hours 95616
илось 95581
▁ғана 95581
asida 95568
▁әскери 95568
ғын 95547
▁Respublik 95538
▁içeri 95537
yr 95497
▁Ко 95457
▁United 95445
▁girin 95442
дүн 95438
ыу 95435
▁Ma 95418
той 95415
▁қолдау 95411
▁started 95390
▁Просто 95387
▁həyat 95384
ET 95370
▁aldım 95360
▁уровня 95346
▁министрлігі 95336
▁comes 95329
aların 95322
aklar 95314
▁parents 95312
▁terk 95285
▁готов 95281
lad 95256
ınızı 95162
▁можешь 95152
▁sistem 95135
▁Mon 95127
▁öldü 95093
▁Kan 95089
▁вид 95070
▁sap 95057
elerini 95047
▁reason 95033
ымды 95030
дет 95012
юсь 95008
▁line 94998
ue 94946
▁senden 94946
▁Diğer 94920
▁katıl 94909
▁режим 94905
АН 94886
gin 94884
osh 94867
▁İnsan 94862
▁анчах 94857
▁arab 94831
▁меры 94824
▁моей 94814
▁икәнен 94796
▁dayan 94760
▁talking 94760
▁yaklaş 94730
ark 94724
▁істер 94717
▁whom 94682
▁тому 94675
▁көшесі 94659
эн 94658
▁adım 94641
mağa 94639
gy 94592
▁Әділет 94581
▁Sizin 94573
▁move 94567
енной 94524
▁Sal 94517
▁muhim 94517
▁Адам 94507
өк 94432
рин 94397
ırım 94372
▁question 94340
▁буенча 94340
▁clear 94305
▁söyler 94291
▁ақпараттық 94283
ele 94264
▁қоса 94264
▁получения 94250
▁цен 94238
ческих 94158
▁норм 94145
ت 94141
▁Xudoning 94132
emin 94131
irler 94119
▁Anne 94089
▁About 94082
uq 94075
▁күннен 94071
oni 94058
▁barada 94034
Казахстанской 94015
еж 94000
▁yık 94000
▁стро 93986
▁dev 93963
▁төлем 93951
▁одно 93940
▁sizə 93906
▁Әмма 93904
▁edə 93877
elerin 93861
ığını 93837
▁karşılaş 93831
▁Эпӗ 93794
▁olup 93790
▁Пер 93748
өл 93724
алан 93715
ода 93688
▁olmadan 93681
çı 93675
▁run 93647
▁kalk 93621
рал 93613
▁Кор 93575
mamış 93574
▁ciddi 93551
▁degan 93464
▁бет 93407
▁основании 93396
▁park 93395
▁тең 93379
▁чын 93307
▁baby 93284
▁түс 93282
▁эта 93281
▁күш 93256
ительно 93234
▁негіз 93228
▁наз 93200
▁blood 93190
нән 93186
▁Ý 93156
ünden 93109
ışı 93078
▁çıx 93056
▁Нұр 93041
▁форм 93038
▁Yahovaning 93027
▁lost 92999
ические 92992
▁spirit 92963
larımız 92943
yl 92941
han 92924
▁сделал 92893
▁yaşayan 92868
елен 92859
▁üz 92829
▁каждый 92774
▁образ 92773
▁орындау 92750
Ч 92669
lo 92667
▁anlay 92599
него 92578
▁После 92575
▁суда 92564
▁хат 92563
ON 92554
▁Министра 92548
▁пекех 92522
▁авто 92519
▁одной 92495
ındaki 92469
▁Рәсәй 92438
menin 92428
▁нег 92412
▁fine 92403
▁аясында 92377
▁қалалық 92369
▁Minister 92337
ýän 92305
▁inf 92284
▁ҫӗр 92276
ыбыз 92242
▁шухӑш 92213
▁То 92180
əcək 92160
▁Av 92160
жай 92104
▁являются 92100
лад 92094
▁миллион 92094
دى 92075
▁olacağını 92075
ock 92072
жен 92006
▁эт 91998
▁Қаржы 91980
▁итү 91977
ух 91975
▁yapabil 91955
▁твой 91942
▁Республике 91907
▁одан 91904
▁foydalanish 91901
▁needs 91874
без 91853
▁eng 91853
уга 91850
▁кебек 91840
▁Kitabı 91821
чик 91804
ату 91788
▁использования 91784
▁Del 91767
▁новых 91742
▁Baba 91701
▁işler 91682
▁yaptığı 91681
ht 91645
ilar 91645
▁жүз 91644
рем 91588
▁бекітілген 91574
▁law 91567
малла 91564
▁Баш 91560
▁düz 91535
▁дей 91511
▁rec 91510
▁mesaj 91502
▁Президенті 91493
▁ск 91488
тарының 91470
ческой 91466
▁taqdim 91461
▁English 91441
▁company 91412
▁бағалау 91366
ником 91364
dığı 91361
▁торган 91349
▁немного 91344
ним 91342
ілген 91332
ýan 91329
▁трех 91328
АТ 91317
▁интерес 91304
▁Rezervasyon 91288
инин 91283
sek 91255
▁tabii 91253
▁Children 91236
▁өзгер 91226
нуть 91224
▁жарияланған 91223
▁gitmek 91212
▁Пол 91191
asa 91181
▁пере 91179
олог 91174
iladigan 91169
▁tab 91156
▁Christian 91143
ih 91087
▁According 91086
▁Çocuklar 91086
▁himself 91064
▁qiladi 91056
▁Hemen 91039
ağın 91022
▁Поэтому 91007
▁Gör 90994
arım 90960
▁Нам 90927
▁которое 90902
lin 90899
ырға 90889
▁ретінде 90864
▁представ 90858
▁uğr 90855
▁Aynı 90848
ımın 90847
▁панӑ 90847
▁shahar 90840
ted 90839
▁ark 90832
▁Mən 90823
▁Hem 90811
▁kanıt 90752
▁myself 90748
▁бой 90747
▁оң 90716
дарға 90708
▁ком 90684
▁снова 90672
▁adamın 90666
▁düşünüyor 90659
▁Onunla 90648
larıyla 90607
▁развитие 90589
емые 90574
▁ними 90513
▁çift 90491
жд 90430
▁къ 90331
▁биргән 90322
▁kısa 90315
лись 90298
▁мәселелері 90251
унун 90233
▁bağış 90229
▁берілген 90225
▁hay 90223
uy 90220
▁сый 90216
▁булыр 90215
▁yapacak 90206
▁close 90193
▁kaldı 90186
▁көш 90142
бап 90115
▁ilgilen 90068
инского 90051
▁bilim 90037
ост 90036
▁address 90019
ционного 90009
▁помочь 89952
▁evlen 89941
mıyor 89926
andır 89893
sün 89877
▁органның 89867
▁Some 89828
ланған 89825
alara 89811
▁род 89801
▁мектеп 89795
дик 89781
▁ha 89763
▁Йәһвәнең 89758
▁органами 89699
asın 89698
▁die 89694
AS 89666
▁aptal 89654
▁аудан 89642
▁fight 89623
▁happy 89620
▁порядок 89620
лом 89612
▁среди 89602
▁бала 89601
▁walk 89586
▁small 89565
▁uh 89565
▁метр 89555
imizni 89516
▁merak 89515
▁труд 89510
▁ən 89487
▁Doğru 89474
▁suv 89474
▁қолдан 89470
▁ihtiyacı 89468
▁görür 89459
▁months 89435
▁жасалған 89419
▁оборудования 89419
▁такие 89388
ğe 89380
▁коммуналдық 89375
леге 89361
▁вакыт 89355
▁ӗнтӗ 89339
▁значения 89337
▁дин 89329
лі 89326
▁часть 89300
▁arada 89295
ged 89273
▁болатын 89256
май 89248
цев 89248
▁konuşmak 89194
▁yolunda 89194
▁hayvan 89186
▁Потому 89166
▁АҚ 89153
▁fiyatı 89147
▁Hayat 89095
▁organlari 89071
ebil 89055
▁işin 89054
▁www 89016
тк 89011
▁компания 88988
lərdən 88964
▁туура 88927
▁берушінің 88887
▁price 88882
▁yola 88847
▁istedim 88837
▁nähili 88833
▁qoy 88828
▁кроме 88824
eyin 88791
имся 88774
рес 88750
▁sorry 88737
▁şehir 88675
anları 88667
▁заб 88648
▁gaz 88633
▁bal 88624
▁def 88611
▁Со 88585
▁атауы 88575
ҙә 88554
▁Demek 88544
▁бат 88531
▁First 88530
▁kesinlikle 88505
▁Bab 88500
▁места 88456
▁mar 88454
▁Ладно 88453
ально 88451
кое 88448
▁Like 88412
рей 88355
▁Does 88352
▁olurdu 88351
▁Here 88280
▁Directions 88276
ath 88266
▁mo 88246
ван 88222
ләрне 88206
▁стороны 88164
▁лицо 88139
теп 88136
▁образом 88130
▁качества 88125
тик 88109
▁төрағасы 88099
▁пурнӑҫ 88044
▁Burası 88023
аларының 87986
▁Раз 87985
ym 87957
red 87949
▁стал 87918
lah 87887
▁алды 87880
▁қызметтер 87878
▁side 87855
▁verin 87847
дарына 87837
▁yaptık 87814
▁themselves 87810
рой 87799
▁айтып 87799
▁Сонымен 87782
▁cause 87780
▁yapmış 87771
▁материалов 87766
for 87765
елі 87732
▁birşey 87707
▁йыл 87690
ö 87689
لى 87660
▁тө 87658
▁совет 87628
▁автомобиль 87627
iri 87592
ён 87589
уст 87587
▁bed 87572
▁hast 87571
▁sayı 87557
▁li 87493
▁Сегодня 87479
▁тексеру 87466
▁kömek 87451
▁başa 87319
▁tuz 87311
▁строительства 87307
əti 87223
▁taking 87206
альным 87185
▁Mark 87171
▁giz 87161
нул 87158
▁жаш 87138
▁Иисуса 87131
laridan 87119
▁yay 87109
▁знает 87106
atsiya 87103
▁учета 87094
▁wanna 87041
ilish 87038
▁аларның 87022
ЕН 87021
▁davranış 87001
memiş 86978
▁köp 86972
acaksın 86943
▁ah 86931
▁сақтандыру 86921
eg 86870
dığını 86841
▁қой 86828
▁Только 86760
▁нысан 86730
▁ҫук 86712
▁кредит 86693
▁sağlam 86679
▁чист 86674
▁ready 86661
алась 86630
maktan 86629
▁отдел 86574
▁қос 86574
сіз 86568
ология 86561
med 86549
▁патне 86545
▁ярат 86527
▁Saat 86525
▁нақты 86510
▁пути 86504
miyor 86503
▁дейінгі 86491
▁deal 86452
ющим 86443
▁kor 86437
▁ishtirok 86425
▁living 86416
esinin 86356
емой 86355
üz 86334
old 86333
▁speak 86324
▁эми 86312
▁pul 86301
ларда 86296
▁негізінде 86280
▁документы 86270
▁Ushbu 86265
▁ғылыми 86265
▁Ү 86211
▁хеҙмәт 86206
ba 86147
▁cannot 86136
про 86124
▁шут 86111
▁хак 86092
isine 86069
▁hav 86067
▁asosida 86059
▁bel 86044
ش 86009
uya 85985
▁hands 85968
▁içine 85963
maları 85954
тармақ 85927
▁Биз 85921
▁nereden 85915
▁söyledim 85914
▁мак 85909
▁hayot 85908
▁дал 85874
müş 85872
▁Hay 85769
▁dav 85766
▁контроль 85760
▁sur 85749
▁ау 85743
▁кей 85736
▁dik 85728
▁Şey 85719
▁Emma 85638
шим 85624
еге 85592
▁Geri 85591
еля 85579
▁aniq 85534
izm 85516
▁ikki 85470
аж 85457
▁зал 85448
реп 85440
▁sah 85439
▁sahibi 85438
▁хабарлады 85428
▁свое 85415
ӗм 85408
▁обще 85402
▁yaşlı 85397
ОВ 85334
▁ээ 85327
▁оған 85235
▁ir 85224
▁Böylece 85216
▁будем 85212
▁алардын 85210
▁hisset 85121
məyə 85119
▁машин 85090
amak 85087
▁иностранных 85057
▁айт 85051
▁направ 85029
▁Бай 85024
▁Kon 85017
▁Кон 85003
▁model 84986
▁говорил 84969
ительного 84963
▁pretty 84962
▁knowledge 84914
▁кабар 84907
▁наши 84897
ld 84874
ика 84865
AD 84858
ҙең 84841
лению 84838
inizin 84823
▁international 84818
▁слишком 84817
них 84809
▁благо 84805
▁апреля 84795
م 84772
жу 84763
▁чыгар 84762
▁оку 84742
▁etilgan 84733
елгән 84730
▁Рим 84694
▁внимание 84691
▁soon 84679
▁birinin 84667
тағы 84656
▁отметил 84631
▁dam 84625
▁пирки 84601
▁найти 84589
isin 84572
▁случаях 84560
▁показ 84550
▁след 84548
▁tashkilot 84534
▁olmayacak 84523
мин 84522
▁iy 84511
▁con 84492
▁yanada 84473
▁оно 84469
▁düşündüm 84452
▁everyone 84437
▁мындай 84387
ڭلار 84386
Ө 84358
▁gt 84335
▁туп 84332
▁bolsa 84312
▁hold 84293
▁аб 84291
▁электрондық 84281
▁ser 84258
▁услугодателя 84226
mişti 84221
▁условий 84206
▁kay 84205
▁yeter 84205
▁собой 84204
▁хочет 84199
▁mol 84190
moqda 84180
ese 84160
▁oldum 84132
▁door 84129
▁предостав 84096
ve 84083
<0x9A> 84076
▁фонда 84069
▁kas 84059
▁durdur 84049
▁хәл 84020
▁Su 84017
▁Ақ 83997
▁Ek 83994
▁future 83987
гъ 83928
▁olanlar 83921
▁gelmiş 83910
ох 83905
▁учетом 83886
▁geniş 83860
▁России 83851
▁июля 83840
▁main 83837
▁Правил 83818
▁договора 83815
▁students 83788
ilər 83756
мас 83729
ировать 83683
▁бағыт 83659
АР 83657
▁ot 83620
lanmış 83595
▁follow 83594
▁Ст 83594
▁областного 83574
▁Üç 83540
alarda 83539
гөн 83535
▁Йәһвәгә 83513
▁технологий 83491
ымдар 83488
нипе 83481
▁настоящим 83480
▁Küçük 83468
▁nazorat 83464
▁АО 83451
▁өл 83449
▁edýär 83443
▁жерде 83441
▁buy 83423
▁oluştur 83410
▁buluş 83407
▁qardaş 83370
ilir 83364
▁peki 83351
▁yapan 83328
▁Bazı 83315
▁актов 83311
сон 83305
▁ölü 83298
▁До 83298
арын 83285
▁ikinci 83277
ада 83241
▁kam 83240
abilirsin 83218
س 83211
ents 83198
▁около 83198
▁haq 83196
▁joriy 83188
сез 83178
▁қарай 83178
тү 83169
ədə 83154
ителей 83142
▁Kaç 83129
еде 83124
▁deki 83112
▁yapmaya 83109
▁along 83078
▁Pekâlâ 83045
ۇ 83030
ox 83029
LAR 83025
ild 83024
larınızı 83019
▁рухи 83016
by 83006
▁created 83003
▁edilen 82996
aydı 82988
▁Ыйсанын 82980
▁yön 82978
▁dolayı 82961
▁мөһим 82913
ованию 82891
▁шешіміне 82878
EL 82862
ылады 82849
▁yen 82800
» 82795
ям 82775
▁вӗсене 82751
▁onuň 82742
▁tonight 82738
▁almış 82696
eş 82691
▁бағ 82684
▁bebek 82675
▁teng 82675
▁Центр 82653
▁Тебе 82650
▁тора 82630
▁имущества 82625
ылар 82616
▁Kal 82594
лей 82593
чӗҫ 82592
▁eat 82552
▁мәселелер 82517
edin 82504
layan 82501
▁Kaf 82459
▁му 82455
▁стоит 82446
▁мед 82437
▁düşünüyorum 82436
suz 82407
скую 82403
▁Кроме 82396
my 82391
▁taken 82388
▁Michael 82363
▁жүр 82333
▁saç 82300
ments 82277
imde 82265
▁күр 82238
▁қызметін 82228
уына 82214
▁ен 82205
▁питӗ 82189
иг 82187
ımda 82182
▁арт 82166
▁trust 82143
lardır 82127
▁Yüz 82124
▁Seninle 82118
▁обеспечение 82075
▁св 82044
▁unto 82018
▁kid 82009
▁ziyaret 82002
▁sefer 81993
▁Библии 81957
Ç 81946
alarga 81927
▁земле 81916
▁свет 81910
сына 81903
▁EUR 81902
▁works 81893
<2kum> 81883
ерт 81882
▁Однако 81848
▁kaz 81846
ём 81825
вы 81818
idi 81763
еди 81761
▁центр 81738
бо 81712
үк 81710
▁приложению 81675
▁орналасқан 81661
▁политики 81645
ynyň 81637
adır 81629
▁ger 81614
ӑш 81606
▁астам 81606
▁üzgünüm 81597
▁отношении 81591
▁төмен 81581
amız 81574
▁Bur 81571
▁экономика 81559
▁buldum 81558
▁dokun 81524
▁üzer 81523
шылық 81502
tü 81500
▁итеү 81500
▁общества 81496
lsa 81491
▁party 81480
▁нее 81479
▁правда 81473
lic 81470
▁engel 81454
▁died 81444
▁lanet 81438
▁possible 81390
▁мерз 81378
▁значит 81365
▁story 81364
нер 81333
ımıza 81330
▁government 81317
лем 81260
ӑх 81250
▁Ham 81238
ebiliriz 81236
▁видел 81225
mad 81222
▁аларны 81220
▁тарт 81217
▁тай 81155
ант 81149
алось 81137
LA 81101
▁тұрақты 81080
▁городе 81078
▁Uh 81075
▁обеспечить 81073
▁eğitim 81061
▁watch 81022
туу 80985
alarning 80973
▁ережелер 80956
▁phone 80954
▁yana 80954
▁пайдалан 80944
▁uyar 80923
▁әйткән 80887
▁Был 80876
▁мая 80818
▁chiq 80798
▁министрінің 80796
ement 80783
▁реттеу 80778
ща 80773
lerdi 80747
улы 80733
▁bi 80717
▁Жалпы 80707
ствие 80649
▁sav 80643
▁сотрудничества 80632
layın 80630
ert 80611
▁пат 80610
▁куҫ 80588
▁біз 80587
▁post 80581
▁откры 80546
▁learn 80536
▁half 80533
▁rol 80522
▁edilm 80502
ыва 80490
▁көлік 80490
тарына 80488
▁министр 80472
ıb 80466
▁services 80445
▁Bul 80442
ınca 80377
▁geldim 80364
ED 80361
▁lives 80346
рт 80341
ekler 80319
▁килгән 80319
▁наход 80300
▁tartibda 80262
▁сүз 80258
▁altı 80252
▁listen 80234
▁занятости 80221
▁group 80219
атов 80206
▁әкімі 80201
▁Uzbekistan 80196
стра 80171
▁объект 80163
▁söyley 80152
▁tatlım 80151
▁наличии 80134
iyordum 80125
▁тууралуу 80101
дері 80100
ско 80092
▁пу 80073
▁Reservation 80064
▁итәргә 80058
▁кең 80045
▁thinking 80041
▁қамту 80041
▁қазақстандық 79980
▁Sor 79977
▁indeed 79969
▁sürekli 79967
лай 79947
▁наш 79942
▁жак 79935
▁kendine 79931
▁dad 79924
endi 79903
▁sign 79900
▁арттыру 79900
▁ag 79887
▁Yoksa 79885
▁More 79882
ose 79873
▁начала 79857
meni 79826
нд 79809
▁kendilerine 79804
▁Mer 79795
▁Those 79782
▁прод 79763
ff 79732
▁Birkaç 79727
▁қызметкерлер 79704
▁ішкі 79683
▁енг 79679
анын 79676
има 79671
▁önünde 79660
▁ике 79654
landır 79653
▁İsrail 79652
<0xC4> 79602
▁yaptın 79569
ший 79528
ларға 79511
▁video 79511
Я 79442
▁Жахабага 79415
lığa 79405
▁ұ 79391
ishda 79383
ляет 79341
▁говорить 79331
овые 79317
▁жүк 79317
▁dal 79315
рек 79299
▁ҫапла 79288
▁Re 79263
есі 79244
вар 79231
ris 79225
ывать 79220
▁Lakin 79202
etti 79184
▁behind 79184
▁trans 79183
▁яв 79182
▁таких 79164
eydi 79150
▁yuz 79145
үнүн 79126
шего 79117
Ü 79115
▁vaqt 79115
▁юк 79114
▁reach 79087
▁соз 79079
▁gez 79072
ıştır 79065
▁ijtimoiy 79057
▁Yehovaya 79055
▁настоящей 79013
▁стать 78996
▁gizli 78972
Ş 78960
abilirim 78958
стық 78933
▁Arkadaş 78909
▁alanı 78902
eceği 78877
▁yayın 78868
циялар 78843
▁мана 78830
ект 78829
▁sud 78823
ительной 78819
▁OK 78796
▁yaxshi 78761
▁па 78700
ента 78692
▁geçti 78684
▁Иерусалим 78677
▁Sc 78670
▁Kor 78660
▁ilişk 78648
▁edebilir 78647
▁аты 78643
▁Take 78597
▁Thank 78593
▁kesin 78587
▁Богу 78568
лять 78548
алған 78536
мак 78529
▁kuş 78523
landı 78508
▁приз 78507
isinin 78480
▁Yo 78466
ayla 78459
▁arkadaşım 78447
▁halk 78421
▁сап 78404
▁республика 78395
lagan 78394
▁ara 78385
▁alt 78384
▁Dün 78367
iyim 78346
еть 78346
▁Öyleyse 78331
ake 78316
▁дем 78298
▁болды 78295
▁birisi 78284
▁Rooms 78232
▁Arab 78221
терінің 78182
▁Аб 78175
▁Муса 78172
▁using 78168
▁причин 78151
▁выполнения 78150
▁булды 78130
▁одна 78102
ılır 78093
иц 78090
üp 78073
▁oğlum 78067
▁получ 78046
ledi 78035
ғаны 78005
мдер 78004
▁Amerika 77997
▁ularga 77987
▁товар 77966
▁canlı 77921
▁совместно 77904
▁otel 77894
лаган 77889
▁bilərik 77889
ирование 77874
▁Каз 77873
▁tarih 77868
ясь 77866
▁мүмкіндік 77828
ымыз 77827
▁verdiği 77824
итесь 77818
ges 77813
ots 77792
▁жабдық 77782
▁boz 77779
▁ALLAH 77775
ology 77773
ход 77762
▁geliş 77757
▁бюджеттік 77728
ecekler 77727
▁Ter 77696
▁Bas 77695
▁husband 77679
▁сүй 77663
▁Өфө 77655
ового 77654
ӑра 77647
▁вып 77646
▁совершенств 77632
▁bl 77624
▁Государственное 77624
▁sebep 77616
▁tel 77610
шӑн 77597
▁Sorun 77560
▁народ 77545
▁пӑх 77544
▁Pat 77524
▁yarar 77515
▁булырга 77510
▁ем 77510
ace 77509
▁təbliğ 77507
▁стол 77499
▁class 77482
▁jumladan 77475
▁answer 77454
▁ед 77450
▁okul 77445
▁қоғамдық 77442
▁Yaş 77428
▁Yet 77424
▁Facilities 77421
▁Yar 77404
▁алуға 77402
▁отырған 77399
зы 77398
▁предприятия 77394
▁başar 77390
mer 77374
чил 77368
lerimiz 77345
▁Mal 77339
ğinden 77336
▁нес 77297
rsat 77279
ӑл 77266
▁бур 77262
▁saldır 77256
miz 77255
раж 77242
▁басқармасы 77224
▁прос 77215
▁некоторые 77189
ect 77184
▁birinchi 77177
ically 77176
ydı 77158
▁police 77147
dar 77122
▁Там 77119
▁җ 77115
▁send 77097
▁State 77063
ителя 77054
▁мире 77051
▁Паул 77026
▁soliq 77020
▁Babam 77014
дардын 77000
▁Se 76996
way 76889
imizga 76883
▁Cr 76880
aki 76863
IT 76841
▁kuni 76823
▁sevgi 76801
▁государств 76796
sizlik 76791
лес 76784
дат 76772
▁gone 76771
▁araştır 76762
▁İnsanlar 76743
▁мә 76657
edir 76635
▁yakal 76633
▁министрлігінің 76613
▁yapma 76611
▁маңызды 76611
▁гана 76607
▁Charlie 76606
өй 76602
▁возможность 76592
▁yaptığını 76566
▁улица 76565
▁edilmiş 76562
▁Kingdom 76549
▁verdim 76538
▁ҫинче 76536
▁Глава 76526
ING 76500
memiz 76481
▁International 76466
▁worship 76462
▁Кол 76418
eceğimi 76383
▁тәрт 76358
ail 76325
▁нар 76324
айт 76323
▁стандарт 76313
▁жатқан 76290
▁sim 76276
▁paylaş 76268
bi 76264
kan 76260
▁həm 76234
ительные 76231
уй 76225
▁chora 76225
▁stuff 76215
▁экспорт 76209
▁стан 76208
үш 76188
ологиялық 76187
▁gerekir 76181
▁качестве 76180
▁тӑр 76174
▁оценки 76170
▁dönüş 76159
mayacak 76145
▁мекемесінің 76084
▁резерв 76063
▁ob 76057
▁Yemek 76048
▁happen 76034
▁которым 76032
▁Пункт 76016
▁Harika 76006
▁Yok 76005
▁gotta 75995
are 75989
▁міндетті 75980
ял 75976
<2alt> 75963
аларға 75955
▁faoliyatini 75934
▁saqlash 75919
▁katta 75902
ее 75892
үче 75877
▁seyahat 75871
▁davet 75867
ition 75862
▁твор 75857
▁bilmek 75849
▁Банк 75826
▁Daniel 75819
▁qorx 75791
▁Tan 75788
▁Hep 75785
▁İsanın 75774
стро 75756
ылган 75735
▁сек 75732
▁Elbette 75725
▁iler 75712
▁марта 75703
▁yılında 75702
▁Ac 75689
▁са 75676
▁ola 75658
син 75655
▁Республика 75645
есе 75636
leriyle 75598
▁beautiful 75595
▁месте 75577
▁moment 75565
▁Спасибо 75544
▁возможно 75533
▁etməyə 75528
▁kids 75518
▁ق 75503
▁сӑмах 75500
▁Узбекистана 75498
▁производится 75469
▁мӗншӗн 75451
ями 75446
▁постановление 75443
▁diz 75440
▁əməl 75438
▁Avrupa 75423
чә 75417
▁Мәсих 75406
▁Read 75366
▁sanki 75362
▁ann 75360
▁могли 75336
алык 75318
▁Давай 75313
aw 75298
▁распростран 75298
▁guess 75297
adın 75288
▁grup 75281
meyecek 75266
▁ыйык 75260
diler 75259
малар 75254
фи 75220
ларының 75216
IS 75193
▁unga 75183
▁енгізілді 75160
▁етеді 75158
орт 75143
▁күз 75137
▁kul 75123
есс 75121
▁kişiler 75106
ڭ 75105
▁журнал 75091
▁месяцев 75073
▁bölüm 75071
aviy 75057
yk 75037
дир 75032
мест 75028
ләнгән 75021
ünüz 75018
▁вами 75016
▁маңызы 75014
▁постав 74972
▁беріледі 74944
inc 74928
▁нумай 74915
▁Yardım 74912
▁Dan 74896
▁yiy 74890
▁құрылыс 74880
ıyorsunuz 74858
▁булған 74838
▁fire 74826
▁час 74824
▁See 74819
ленген 74815
▁жүргізіледі 74787
ilere 74758
▁ек 74749
қимыл 74743
▁study 74732
malıyız 74722
▁six 74702
▁kart 74699
▁əl 74694
▁wasn 74679
▁мекен 74664
▁except 74657
▁сто 74655
ılı 74647
▁çat 74647
▁условия 74623
▁geçmiş 74608
▁map 74587
▁hedef 74574
▁olgan 74545
▁mavjud 74542
▁Pol 74534
▁раст 74530
▁uch 74525
▁Un 74523
▁отношения 74515
▁исполнения 74511
▁UN 74507
▁күч 74478
▁действий 74476
▁içer 74468
IL 74465
▁Con 74449
лон 74441
▁Hepsi 74441
▁бей 74433
▁пулать 74428
▁oil 74418
екен 74414
▁Benimle 74397
▁uğraş 74395
ng 74385
▁National 74382
▁hey 74382
▁Shu 74376
▁жауапты 74366
▁ышан 74360
▁cr 74354
вают 74352
▁elde 74345
▁ҫит 74343
▁insanın 74341
гын 74340
▁City 74338
▁Most 74323
▁международных 74319
▁whatever 74311
▁жеткіз 74307
▁minlash 74285
▁следует 74268
▁поб 74245
▁inside 74240
▁той 74238
ец 74236
▁fiyat 74228
▁един 74211
lıyor 74187
▁деньги 74151
▁тариф 74144
▁rahatsız 74137
IC 74129
▁sınıf 74125
▁stand 74107
▁уж 74104
пол 74098
əni 74093
ative 74092
▁yapar 74083
EM 74077
▁ret 74063
▁құрыл 74061
ham 74042
ыгыз 74042
▁yeah 74022
ping 74017
▁Bo 74005
▁Сан 73997
üt 73988
▁Астаны 73977
чү 73973
енным 73965
ҙәр 73959
▁qol 73946
▁iste 73945
▁Den 73917
▁РБ 73909
▁shit 73878
оров 73877
ızı 73865
▁ұсын 73843
сте 73840
▁чи 73806
▁ад 73803
▁нашего 73801
▁mus 73783
▁талаптар 73775
▁Gün 73764
▁became 73752
▁belli 73748
▁benz 73744
цион 73734
<0xCE> 73720
▁peyğəmbər 73707
▁wish 73703
▁qu 73699
▁dağ 73676
▁Eski 73668
▁даяр 73660
▁хыҫҫӑн 73658
▁vakit 73656
ecektir 73653
▁другим 73650
▁Biliyorum 73633
▁құ 73629
▁kimin 73625
▁Frank 73621
▁yanına 73606
▁box 73582
▁tə 73582
▁kurtul 73567
liq 73566
рез 73566
▁уг 73540
▁Kend 73534
▁birine 73505
▁Контроль 73498
▁процентов 73480
▁яр 73470
ılıyor 73469
▁transport 73461
▁millet 73456
▁муж 73454
▁ins 73447
lov 73420
ped 73406
chilar 73369
▁первый 73364
▁yes 73363
▁Sence 73361
▁kendimi 73357
▁бизге 73330
▁отец 73298
▁июня 73291
▁ақ 73275
acağı 73235
alt 73222
▁Qu 73220
▁жив 73219
лығы 73209
вет 73206
ayacak 73192
▁требований 73173
diği 73155
ёр 73155
▁Аллаһының 73129
▁wh 73128
▁nädip 73122
▁прием 73119
<0x93> 73100
▁пуҫ 73097
▁hayatta 73093
▁including 73093
▁dogan 73092
▁ачык 73078
▁домой 73071
▁учреждений 73059
alarına 73048
ұлы 73045
▁ауылы 73040
▁спорта 73039
▁Tell 73038
▁Ön 73027
▁drink 73026
▁Christians 73025
▁İbrahim 73020
▁шаруашылық 73007
▁less 72998
▁sakin 72997
ədən 72988
лән 72977
▁yönet 72971
айды 72969
ered 72965
ччӗ 72963
▁lozim 72955
дым 72943
▁thank 72938
▁goes 72933
ities 72929
<0xAD> 72928
▁çoğu 72924
очных 72923
▁расп 72907
▁ga 72906
▁benzer 72900
▁kaybet 72883
▁илсе 72871
▁карата 72867
ари 72864
ню 72862
▁Тур 72855
▁возвращ 72854
ынын 72851
икалық 72848
▁ошол 72846
iç 72821
▁брат 72805
asy 72798
▁организ 72794
арлар 72785
▁Сам 72780
шей 72772
▁порядка 72766
ейт 72745
▁fir 72738
▁evil 72734
▁qarşı 72721
<0x7D> 72719
abr 72699
▁Орталық 72695
▁Bosh 72690
▁рухий 72671
▁nom 72657
gun 72655
альное 72652
▁аймақ 72610
▁ҫавӑн 72607
ағ 72605
▁sıcak 72601
▁Нұрсұлтан 72597
▁следующей 72595
▁Name 72588
▁кап 72587
▁бара 72578
alık 72571
енное 72571
▁вице 72558
ain 72557
▁Жар 72533
шая 72527
яз 72489
▁Стороны 72484
<0xCC> 72470
▁семьи 72468
asından 72464
▁перес 72451
سى 72447
ora 72443
▁Ana 72425
uda 72397
▁тыт 72381
▁Башкортостана 72333
▁Örneğin 72331
▁этому 72295
▁Turkish 72271
br 72231
aç 72230
▁транспорта 72218
ики 72217
▁peace 72216
▁проведение 72211
ваются 72185
ылатын 72168
ларына 72161
һында 72161
▁town 72156
▁olaraq 72154
▁Иегове 72150
▁сағат 72150
▁maqsadida 72143
▁Совета 72140
▁др 72123
▁асырады 72116
▁люб 72097
▁хал 72095
ial 72093
▁George 72078
ümüz 72037
▁parç 72029
▁мои 72018
▁problems 71996
уют 71988
▁халыҡ 71984
▁материал 71982
мд 71970
uyla 71957
▁дар 71944
▁safe 71939
▁evde 71926
▁hoşlan 71919
▁эм 71899
chilik 71883
▁pass 71876
▁hit 71872
▁округі 71856
▁yaklaşık 71855
▁подготовки 71841
▁Um 71837
emiz 71836
▁aile 71810
▁ус 71805
▁secret 71801
дун 71783
▁ur 71781
rik 71735
▁тет 71734
▁отказ 71733
▁согласованию 71727
ины 71721
▁сат 71707
ز 71680
▁looks 71675
ye 71671
дерді 71664
▁собственности 71663
▁milliy 71650
▁әрекет 71626
▁тү 71613
▁haqqında 71591
ӑп 71570
▁положения 71564
▁fuck 71539
alardan 71536
▁которую 71529
▁Ы 71520
ани 71517
ank 71510
▁Ok 71507
▁allowed 71500
▁Сен 71500
▁nereye 71487
▁temel 71472
▁мо 71472
▁аша 71456
▁зур 71447
ивать 71444
▁toplum 71428
▁social 71426
amıyorum 71424
ian 71417
▁интернет 71402
<0xB2> 71394
▁parçası 71392
eniz 71371
▁bet 71367
▁став 71348
▁кое 71345
▁hour 71324
▁Кел 71313
▁tayyorlash 71310
▁öd 71307
▁kere 71295
ula 71263
▁Также 71212
▁пайдалануға 71196
miştir 71186
▁ҫеҫ 71175
▁World 71170
▁ülk 71162
▁Üzgünüm 71159
емого 71158
тон 71153
▁атқар 71143
▁смерти 71142
▁id 71138
▁лайӑх 71134
▁Could 71122
▁gider 71078
دا 71075
▁garip 71074
▁кайсы 71069
▁neredeyse 71061
▁İs 71037
▁договор 71034
▁bence 71028
endir 71022
ээ 71019
▁olmam 71018
▁questions 70991
<0x95> 70986
▁teklif 70982
▁ayar 70980
▁jalik 70976
елей 70975
▁babam 70955
▁olmadı 70942
گە 70934
ann 70922
▁ilmiy 70915
▁nazarda 70912
▁verdik 70895
▁стали 70895
ardı 70888
▁energy 70888
▁field 70844
▁чар 70844
be 70842
sy 70842
▁mad 70823
▁düşünüyorsun 70822
ешься 70820
▁known 70775
▁duydum 70764
▁kalan 70763
дает 70733
▁yosh 70717
ұ 70716
▁цел 70716
▁Right 70712
ләү 70708
▁Анын 70708
sən 70707
▁mak 70669
пер 70667
▁Olanaklar 70664
alik 70646
▁количество 70570
калық 70562
ума 70558
▁team 70552
▁Син 70531
▁стране 70525
ыг 70522
▁Miss 70520
▁денсаулық 70520
ms 70518
▁власти 70512
еме 70491
ларны 70484
▁tem 70465
▁mükemmel 70463
▁тың 70462
ayın 70461
▁sport 70451
kil 70450
▁tomorrow 70442
▁қаулысына 70437
▁hatta 70432
▁наших 70427
▁inson 70426
▁strong 70418
ители 70411
lanish 70396
diniz 70356
▁пӗрле 70355
▁әк 70341
▁hava 70339
▁çalışan 70331
ический 70321
▁maxsus 70309
▁научно 70298
Ö 70283
▁баз 70275
erse 70270
▁hujjatlari 70268
▁odam 70260
dular 70259
▁таң 70237
▁saniye 70207
▁настоящему 70196
▁office 70191
▁ноября 70182
▁органдары 70176
▁Ruh 70171
emem 70164
▁Ondan 70159
▁böylece 70132
▁местного 70086
▁seven 70085
▁alabilir 70076
▁дол 70066
рик 70056
▁жылдан 70056
▁Kimse 70041
ny 70029
ks 70012
сӑр 70003
лд 69999
▁пункте 69973
▁пунктом 69966
▁Павлодар 69960
▁самом 69946
▁health 69941
ован 69937
▁Every 69931
▁nedenle 69929
▁Сп 69917
▁сб 69904
▁düşman 69887
ship 69880
▁реализ 69879
▁проб 69878
▁imp 69855
▁dog 69853
▁hatır 69852
▁chance 69849
ано 69835
▁экономи 69803
▁маанилүү 69801
▁ayak 69787
ond 69767
▁air 69765
▁Umarım 69750
▁бюджетных 69743
▁ынтымақтастық 69743
▁прямо 69736
▁fil 69731
mıştı 69720
ктер 69717
▁исключением 69706
▁поэтому 69702
▁Top 69685
ственные 69678
гон 69666
aba 69655
ски 69649
▁Dad 69623
▁кош 69613
бан 69610
▁село 69580
▁ket 69578
иң 69577
UR 69545
▁Yarın 69545
▁құжат 69522
▁қаржыландыру 69515
▁gets 69514
larınız 69486
▁gördün 69478
Name 69467
▁прояв 69467
▁save 69452
▁Sağ 69450
▁present 69444
▁düşür 69424
irim 69419
кал 69417
ота 69417
▁aý 69411
▁қолдану 69402
▁düny 69397
▁project 69394
▁Ular 69392
ӑк 69385
кі 69370
<0xC5> 69364
▁anlamına 69360
bar 69356
▁dolaş 69340
▁gi 69340
▁Сар 69340
▁property 69305
▁сайлау 69303
co 69290
▁following 69279
▁iyilik 69278
▁қарау 69265
▁Ha 69263
▁nji 69242
▁س 69239
ӑна 69238
▁takım 69214
▁Alex 69193
▁Мак 69188
▁Home 69172
▁shart 69152
▁Ko 69140
esinden 69138
▁derin 69136
▁share 69119
▁школы 69113
▁Bank 69080
mekten 69066
▁Министерство 69052
▁көңүл 69028
▁dec 69025
▁Кабинета 69011
▁Или 69002
ji 68992
▁подпис 68992
▁probably 68975
ase 68961
▁sil 68959
әләр 68948
▁kişinin 68931
▁bulmak 68870
▁эки 68866
циясы 68848
▁Course 68840
ілік 68836
▁моего 68825
▁cinayet 68818
▁Bırak 68812
▁edildi 68809
арга 68798
▁бекем 68794
▁Жер 68789
▁уз 68764
▁personal 68763
▁Ел 68754
▁çalışıyorum 68751
▁issues 68747
роп 68731
▁kitab 68729
дір 68723
رى 68722
▁заяв 68708
▁Zaman 68701
ческого 68686
▁ila 68680
ığım 68677
▁безне 68676
ith 68672
ласа 68669
яется 68653
ersin 68651
IR 68644
lən 68639
▁istey 68633
▁кардәш 68627
<0x83> 68614
▁Mil 68614
▁bergan 68610
▁kabi 68586
iyorsunuz 68585
▁ýaş 68581
anız 68561
Ə 68544
▁onda 68533
za 68527
▁ö 68522
▁olduğundan 68506
▁требования 68493
پ 68474
▁спас 68468
▁полож 68454
<0x7B> 68446
уші 68446
▁yaşay 68445
▁городов 68435
▁банка 68433
▁вся 68421
▁Özel 68420
ılması 68407
▁Ex 68396
siya 68386
ited 68380
▁терӗ 68347
ilmesi 68344
▁ifade 68339
▁өңдеу 68331
ised 68326
▁кыз 68290
▁Kat 68286
lig 68284
▁return 68274
▁чир 68266
▁область 68214
▁yaşında 68189
▁гор 68180
▁І 68174
enler 68168
▁olamaz 68162
▁инвестициялық 68159
▁сүйүү 68158
▁екінші 68155
▁ял 68153
▁түз 68141
▁Hala 68103
гін 68101
▁провод 68099
▁словами 68087
▁обращ 68084
risida 68069
▁yapılan 68051
rgan 68050
▁мор 68046
▁yedi 68042
▁воды 68040
▁орында 68039
▁sonuç 68038
▁сельскохозяй 68019
▁боль 67976
▁view 67963
уну 67940
▁процессе 67935
▁game 67930
əd 67929
go 67927
leştir 67924
▁Kaz 67913
▁ұйым 67910
елік 67870
▁memnun 67869
▁ыр 67864
ats 67861
▁срока 67861
▁yas 67826
▁işaret 67810
▁сентября 67791
▁автомат 67785
рон 67781
▁şans 67777
чит 67773
альная 67772
▁пример 67769
▁әкімшілік 67766
▁проводится 67765
жан 67755
▁Give 67748
▁gec 67745
olar 67737
тагы 67735
quot 67710
▁break 67698
мар 67696
▁kapı 67692
ilayotgan 67678
▁октября 67669
▁Hal 67667
нш 67609
lendir 67592
биз 67592
▁yur 67586
▁yapmam 67581
▁бағдарламасы 67578
▁surely 67576
▁risk 67571
▁press 67552
ee 67545
▁cooperation 67542
▁modern 67530
шу 67506
▁аумағында 67505
▁evlat 67501
▁аял 67498
▁Bununla 67491
▁шар 67485
▁булса 67479
ists 67475
▁жи 67470
▁beradi 67467
▁Program 67460
эй 67455
мәгән 67448
IM 67442
ization 67433
oth 67424
▁Где 67423
▁hüküm 67415
▁hech 67414
▁ihtiyacımız 67369
▁шаралар 67341
▁жоспар 67339
▁tahmin 67332
▁mill 67317
▁Mü 67299
▁kəs 67299
▁ekan 67295
ымы 67287
эр 67278
▁расходов 67276
ӗл 67275
▁araba 67264
▁biliyoruz 67258
▁йөр 67231
▁пионер 67225
▁шығар 67205
▁asker 67204
▁öyrən 67201
став 67196
▁deniz 67191
▁мұнай 67186
▁нап 67182
▁байланыс 67171
тык 67170
▁mat 67162
duğunu 67159
▁онда 67153
үй 67133
▁edəcək 67124
▁Annem 67117
▁rsat 67117
▁olmasını 67114
ering 67110
mit 67104
ashtirish 67095
▁tush 67093
▁көлемі 67091
дерге 67078
▁cut 67074
▁зак 67041
▁foydalan 67024
▁gidelim 67015
ult 67014
▁стоимости 67013
üş 67008
eyle 67002
▁band 66986
▁тауар 66981
▁huh 66946
▁урын 66939
▁quyidagi 66927
▁veren 66922
гин 66913
uvchilar 66909
▁veriyor 66888
▁bunday 66885
▁аракет 66878
▁котором 66872
▁daughter 66871
▁tes 66821
▁kad 66805
▁tep 66802
▁Konuş 66796
▁мән 66795
▁ABD 66761
atda 66752
▁facilities 66752
▁Құ 66749
▁tried 66748
▁du 66743
▁общего 66728
▁م 66711
etleri 66710
нос 66706
aha 66704
▁Қазақстанда 66704
acı 66696
леп 66696
уна 66696
laryň 66694
▁Street 66686
▁tercih 66678
аша 66676
erv 66642
▁лар 66633
▁haberi 66609
▁Шайтан 66571
iyyət 66558
▁назначения 66541
▁key 66539
▁Китепте 66532
▁округ 66516
▁zamanlar 66504
▁noted 66490
▁chiqar 66479
▁konu 66472
▁органдар 66458
org 66456
▁шығару 66443
▁кәс 66442
▁допускается 66439
скому 66437
▁Ауыл 66420
тин 66413
▁ге 66409
чет 66366
▁ҫынсем 66332
ИН 66331
▁Eve 66328
abilirsiniz 66325
мын 66320
ческие 66315
▁сана 66302
еттер 66289
▁bahset 66284
webterm 66279
зи 66278
ral 66273
ulmuş 66271
▁Үкіметі 66271
▁Str 66249
▁alıp 66238
▁tip 66234
▁қорытынды 66216
əndə 66211
uck 66209
▁fun 66202
▁berilgan 66198
▁ок 66193
▁mehnat 66190
▁вәгазь 66189
ылуы 66184
▁пулин 66168
▁Бал 66151
▁Конечно 66147
▁районе 66124
ky 66121
аларына 66117
▁әй 66111
▁kö 66104
▁өн 66098
gacha 66085
▁Department 66072
▁yıldır 66068
▁TO 66066
AM 66060
▁near 66058
иясы 66057
▁couple 66053
▁каждого 66052
▁dar 66039
▁Ber 66028
аң 66010
▁бере 65998
AK 65978
▁mon 65964
▁Any 65955
▁co 65953
▁егер 65952
улары 65950
▁Bal 65911
▁катары 65910
▁People 65909
sha 65889
▁кешеләргә 65878
do 65873
ımızın 65844
ino 65838
▁easy 65838
▁security 65835
▁öner 65834
miyorum 65814
▁Free 65808
▁сердце 65801
IV 65798
likni 65794
madım 65785
▁пӑхса 65779
▁günler 65778
▁dans 65774
▁total 65760
тел 65759
▁жең 65745
gu 65708
▁чыккан 65705
▁Va 65692
▁документа 65660
▁çocuğu 65652
▁savdo 65603
EC 65601
▁областей 65592
▁Tur 65583
olog 65582
ily 65575
lemek 65572
ung 65566
▁ва 65566
▁thanks 65556
▁никто 65556
▁asos 65531
▁Kap 65520
▁sex 65513
▁dediler 65505
▁университет 65499
▁Пар 65493
▁etmez 65489
▁всю 65488
ilerini 65486
сін 65486
▁asosiy 65460
ight 65457
▁mısınız 65455
▁Kral 65450
▁доб 65445
▁etdik 65444
▁olsaydı 65434
▁особ 65431
▁Uy 65428
▁условиях 65409
▁Teşekkürler 65408
ech 65396
▁ruhi 65386
▁Mat 65381
бор 65360
▁Max 65355
▁almost 65351
▁счета 65351
▁банков 65341
▁нед 65334
▁sınır 65330
▁тыш 65327
▁sakın 65324
▁Министерством 65316
▁содержания 65316
▁onlarla 65304
▁другими 65304
▁дет 65300
▁мәсихчеләр 65297
▁dr 65289
<0x91> 65264
▁заместитель 65262
▁Қар 65260
▁Kötü 65251
▁народа 65251
▁bajar 65231
▁inkar 65231
▁қою 65230
▁javob 65219
▁geliştir 65215
өм 65205
▁exactly 65201
lamış 65195
▁жить 65184
▁thousand 65178
ux 65164
әте 65144
▁Üniversitesi 65139
▁охраны 65139
ebilirsin 65128
тай 65128
▁Hangi 65119
ısını 65104
▁ez 65103
▁lan 65102
▁seçim 65098
▁mut 65088
▁tutuk 65061
аров 65044
▁группы 65038
қар 65026
▁пресс 65007
▁тил 64992
▁Ка 64987
амен 64979
▁Gu 64955
дәге 64940
pe 64936
▁денег 64923
▁чит 64923
medim 64906
▁знал 64905
шь 64892
▁basit 64889
▁именно 64849
▁sa 64840
tür 64804
лый 64802
▁Аның 64797
▁адрес 64794
▁размере 64793
▁Sev 64792
ıt 64783
▁often 64782
ывает 64765
▁нами 64747
enden 64727
скер 64726
▁ответственность 64718
щение 64717
▁spiritual 64700
▁Prezidenti 64694
▁gap 64687
ива 64660
▁däl 64660
▁Would 64627
▁olma 64627
сиз 64626
▁ettir 64616
▁However 64614
▁experience 64608
щик 64587
лады 64571
▁действительно 64571
▁тесен 64568
▁зас 64567
лана 64565
▁bay 64565
▁зар 64552
▁Ер 64548
▁Есть 64518
ыннан 64514
▁edilebilir 64502
▁isim 64501
▁yalnızca 64479
▁bomb 64478
▁hale 64476
əli 64465
▁tkazish 64455
ләп 64438
АЛ 64429
mektedir 64425
▁gündür 64409
▁знаете 64404
▁dersin 64398
▁уақыт 64388
▁национальной 64386
овал 64378
▁видов 64363
▁kelib 64347
▁merkez 64346
ي 64321
▁dinle 64318
▁Bob 64312
▁Le 64307
ized 64297
ging 64296
▁sıra 64289
▁Сер 64286
▁иметь 64286
▁dış 64282
▁single 64281
▁ағымдағы 64275
род 64269
▁электро 64256
▁ayrı 64247
▁kok 64246
▁беруші 64246
▁пост 64232
▁эр 64224
ıyı 64221
әне 64209
adım 64195
▁Israel 64194
▁level 64189
▁olacağım 64175
▁durumu 64174
▁görüntü 64173
очной 64166
ulan 64155
gr 64150
▁Davud 64148
Ү 64130
▁предприним 64117
▁sister 64115
adaki 64113
▁ci 64110
▁doldur 64102
▁Мо 64077
▁Sar 64067
▁делам 64060
чно 64057
▁кирлӗ 64045
▁Father 64030
lamaya 64025
▁выход 64018
▁подоб 64018
ығ 64015
▁teslim 64007
▁хӗр 63998
uyu 63990
▁keyin 63988
indir 63980
▁ruhani 63971
▁Знаешь 63970
▁почти 63967
▁өтк 63966
▁дәүләт 63962
oya 63957
▁Mas 63950
▁Prof 63950
▁мет 63931
etin 63908
▁result 63891
ув 63890
▁education 63874
▁эсир 63856
▁женщин 63846
▁псих 63827
▁market 63815
▁февраля 63801
Й 63793
ово 63780
сах 63780
likka 63779
▁vermiş 63772
▁Су 63769
▁каласа 63758
емен 63747
seniz 63744
ound 63738
▁henüz 63722
▁транспорт 63718
▁peygamber 63717
▁account 63712
▁qar 63711
▁dahil 63700
▁European 63692
▁мең 63688
▁command 63687
▁реформ 63668
air 63648
▁birbir 63648
гел 63645
▁Di 63645
▁дав 63631
его 63627
▁King 63612
инен 63609
▁Ҫак 63602
▁bes 63594
uyorsun 63580
▁Пабыл 63580
▁fotoğraf 63560
ows 63557
▁artır 63554
ena 63543
▁чоң 63541
гъа 63539
▁уполномоченного 63514
дук 63510
▁җыелыш 63490
▁Sur 63487
▁Вер 63483
▁çünki 63478
▁сказали 63463
▁əvvəl 63462
▁местах 63446
▁hol 63423
▁тенӗ 63411
▁States 63408
чной 63407
▁olacaq 63394
▁berdi 63376
▁себеп 63360
лама 63358
düm 63355
▁yarın 63351
есь 63348
str 63346
▁Ser 63346
▁кӑна 63339
▁yor 63336
▁выдел 63332
▁Башкортостан 63319
▁Здесь 63316
ети 63311
мо 63310
ب 63306
pt 63297
alariga 63294
▁слово 63280
▁иных 63270
▁Национального 63248
▁ден 63240
▁сә 63225
▁включая 63220
▁işini 63217
▁visit 63215
▁специалистов 63205
▁istediğini 63203
уг 63182
ениями 63153
▁җир 63145
▁shot 63141
▁ырӑ 63136
▁Ах 63131
▁можете 63124
Ю 63115
▁kom 63100
▁семей 63099
▁неп 63089
▁herif 63081
елә 63054
▁miydi 63025
▁исполнением 63022
sı 63016
▁olmaya 62995
▁лицензии 62992
▁shaxs 62985
▁думал 62962
imden 62952
▁комитета 62950
▁Ошондой 62919
▁туда 62918
абыз 62916
▁ettik 62903
▁Ot 62900
▁nisbatan 62896
ске 62879
▁жөндеу 62874
▁пал 62872
▁qəbul 62867
▁проп 62867
▁Nuh 62860
▁national 62860
▁аппарат 62860
▁Geçen 62856
▁Kong 62835
▁мүмк 62833
▁turned 62818
▁Tekrar 62811
▁крас 62811
▁пяти 62803
her 62799
▁işleri 62793
▁куп 62785
▁Господь 62781
▁hurt 62756
▁ярҙам 62734
▁Dem 62714
▁Өзбекстан 62707
▁korkunç 62688
iston 62660
▁alacak 62644
bet 62642
▁varmış 62635
▁adını 62634
▁нравится 62634
▁sonraki 62632
▁qat 62625
▁көлем 62612
▁инде 62584
▁needed 62581
дарда 62575
дерін 62552
▁Yan 62551
▁gal 62547
▁послед 62545
▁des 62529
▁Xudo 62527
▁соверш 62525
▁среды 62524
▁провер 62518
▁голос 62515
uyorum 62509
▁гына 62504
▁yla 62502
▁Ун 62482
▁обучения 62461
əs 62447
▁равно 62423
▁front 62417
▁Law 62414
▁yarış 62403
▁ئا 62402
▁keç 62401
▁доходов 62401
рады 62394
▁ав 62392
▁тонн 62372
▁тӗрӗс 62364
ленных 62362
▁sleep 62362
▁людям 62361
▁Lanet 62360
▁руки 62360
▁married 62358
▁Ger 62353
ілді 62343
жат 62333
▁Жан 62322
▁председатель 62311
▁останов 62300
مى 62295
▁Far 62294
▁Uning 62290
▁предусмотренных 62286
▁изложить 62285
▁building 62270
ғанда 62249
ҙан 62246
ern 62242
▁pen 62242
һын 62221
▁таким 62221
fa 62178
▁кажется 62175
▁Уз 62163
▁выб 62162
▁дер 62152
iss 62131
▁Ас 62128
▁aşağı 62121
▁Mad 62120
▁iqtisodiy 62114
▁өмір 62109
▁barədə 62102
▁ئى 62101
▁Dav 62081
▁mom 62076
▁тәртібі 62076
▁əs 62073
▁яки 62073
ladım 62056
▁Сейчас 62055
own 62047
▁Plan 62030
▁шағын 62021
▁sense 62020
▁işlem 62017
▁cür 62012
dek 62000
▁айнал 61985
ığına 61975
үндө 61932
▁совсем 61921
▁düşünc 61917
eks 61909
▁учет 61905
▁села 61880
▁куда 61872
arda 61866
▁баспасөз 61866
чных 61851
iyati 61850
▁информацию 61849
▁further 61843
▁vazgeç 61842
▁располож 61836
ғыш 61823
▁Reg 61822
▁путь 61818
▁жою 61807
▁fırsat 61805
tif 61786
▁дога 61783
▁социальных 61783
OL 61773
тив 61766
▁тӑ 61762
▁пай 61746
▁tayyor 61743
▁өк 61724
▁kaynak 61717
▁amal 61716
lum 61709
▁Үк 61702
▁Соглашения 61700
▁Ос 61698
▁ЭКСПО 61692
▁компании 61669
▁process 61665
▁жауап 61665
▁Этот 61653
▁аумақтық 61650
▁com 61641
▁тӑнӑ 61637
▁data 61634
▁activities 61623
▁технология 61613
▁Kitabın 61607
▁момент 61604
▁late 61602
▁Qonun 61576
▁report 61572
дап 61562
ону 61554
▁economic 61552
▁среднего 61546
▁Mrs 61544
▁ребенка 61544
▁bekle 61537
▁lar 61520
▁Mike 61519
ys 61517
▁мероприятия 61512
ась 61511
яет 61508
▁ая 61507
▁mə 61506
дарга 61503
▁твоя 61494
жение 61492
▁сред 61490
▁Oda 61489
▁hissediyorum 61481
▁Ата 61477
diğini 61475
▁компьютер 61474
▁өзгеріс 61466
сенчен 61448
▁США 61445
▁чейин 61431
lis 61418
▁Ләкин 61418
mey 61411
▁olmaq 61403
▁yuzasidan 61397
▁ход 61394
▁Правилам 61389
▁продолж 61386
▁kav 61380
▁yağ 61377
▁повышения 61374
▁Кам 61367
▁Оның 61354
▁Tak 61338
▁агент 61338
▁provided 61333
▁пулас 61280
▁сөй 61273
▁як 61265
▁членов 61256
▁lov 61251
▁sanıyordum 61250
ection 61247
▁бак 61232
ительный 61224
▁məhəbbət 61222
▁Ресей 61220
▁штат 61218
▁жөнінде 61208
▁access 61202
деу 61198
▁министрл 61185
кы 61165
▁ц 61152
▁qarshi 61149
айтын 61147
▁zevk 61133
▁eşit 61118
әб 61115
▁eminim 61111
ушылар 61101
▁girls 61095
▁целью 61095
елері 61091
▁çıkart 61086
▁Məsih 61078
▁Overview 61078
▁мисал 61063
▁Олий 61054
▁consider 61041
▁James 61039
▁лес 61024
ines 61022
▁resul 61022
▁всей 61018
▁short 61015
▁gulluk 61009
ләренә 61005
malısın 61003
▁пысӑк 61002
сат 60999
▁Сондай 60998
▁требованиям 60995
▁tav 60992
mamı 60984
▁يەنى 60976
▁анда 60963
▁eg 60961
▁wagyz 60951
▁billion 60950
▁назна 60946
▁тарат 60926
▁Всё 60924
▁бардык 60921
▁Управление 60909
▁ışık 60904
▁ھ 60898
▁науки 60895
arken 60886
▁yeterli 60882
вали 60876
▁Uzun 60864
▁local 60861
dunuz 60859
▁IN 60853
▁асыратын 60851
adık 60828
▁Air 60822
▁ҡар 60822
▁жат 60820
ует 60808
▁kayıt 60805
daş 60799
▁умер 60797
▁вопросов 60794
onun 60788
▁faoliyat 60778
▁prices 60772
▁çarp 60763
▁isteyen 60749
▁Меня 60741
maydi 60737
▁Res 60718
▁د 60705
<0xA2> 60696
eter 60696
▁дайындау 60686
osi 60676
▁августа 60669
▁rib 60660
▁тиклем 60653
▁Thanks 60652
▁орталығы 60644
тӑр 60625
▁kov 60622
▁кайнӑ 60609
▁аталған 60607
▁burası 60601
▁defa 60600
▁нему 60593
oo 60592
▁хут 60588
▁сдел 60582
маған 60570
▁земель 60559
▁ibadət 60547
▁early 60546
▁projects 60545
ha 60532
ционные 60528
▁бед 60528
▁заявления 60522
▁баб 60519
▁өту 60515
▁gun 60510
▁филиал 60506
dilər 60505
▁əzab 60499
▁olduğum 60490
▁әзірлеу 60475
▁sözleri 60464
▁situation 60460
сі 60458
▁bazen 60456
▁ха 60454
كى 60450
пы 60444
еү 60437
▁пӗтӗм 60429
▁sifatida 60407
▁зан 60407
▁пулма 60399
ают 60396
tığını 60378
ть 60364
▁dün 60360
▁Ministry 60354
▁государственное 60337
▁bax 60334
▁парень 60331
larımızı 60314
▁аркылуу 60313
ear 60312
▁La 60307
▁долго 60306
▁тунӑ 60289
▁азаматтық 60266
▁Агентства 60265
gen 60254
tığı 60252
маны 60239
▁Ман 60235
▁такого 60235
ıc 60234
▁Ə 60233
▁promise 60232
▁өнім 60221
liy 60217
▁центра 60214
▁прежде 60202
▁раздел 60184
▁Министерству 60166
▁бүл 60148
▁тәртібін 60133
▁әрбір 60133
▁ref 60118
▁сум 60117
ирован 60113
▁кит 60111
▁Христос 60100
▁отношений 60100
ственный 60098
▁мат 60095
▁etdiyi 60085
▁oda 60076
▁Ü 60070
▁кеңес 60065
атӑп 60063
▁outside 60062
тора 60053
▁соответствующих 60047
▁шеңберінде 60035
mayan 60026
▁көрсеткіш 60021
▁Пред 60013
▁отдела 60011
ениях 60002
▁barış 60002
▁сил 59997
adagi 59986
▁өзүнүн 59981
▁taşın 59979
▁soh 59971
▁sevg 59970
▁tas 59968
җ 59967
yz 59965
▁Әгәр 59956
газ 59955
ализации 59929
▁ýa 59926
никами 59925
▁важно 59918
▁караш 59916
▁adına 59906
▁quv 59894
▁Din 59883
удан 59866
▁istifadə 59863
ımızda 59859
▁ретте 59855
▁mıydı 59851
eder 59830
ысқа 59826
▁bölg 59823
▁үст 59811
und 59807
▁анықтау 59806
атели 59767
▁kızı 59765
▁Тер 59760
▁TR 59750
▁dep 59746
atch 59742
▁күрсәт 59725
ӑв 59716
atlarini 59707
▁saygı 59703
▁будешь 59685
ganda 59682
▁ауру 59681
бар 59676
▁заменить 59672
▁şeyden 59671
анию 59662
ият 59645
▁абзац 59640
▁приказ 59631
▁oğlu 59622
▁поддержки 59619
▁wrote 59610
тӑм 59590
▁тӑрӑш 59586
руп 59582
▁составляет 59581
▁kalacak 59579
▁Чтобы 59567
але 59564
еты 59563
рия 59527
▁görüyor 59524
▁çabuk 59516
▁тау 59516
▁seks 59515
▁энергия 59514
▁kişisel 59510
▁тас 59503
▁Sigara 59499
▁Min 59495
▁аса 59479
▁точно 59471
▁результате 59466
ilib 59460
▁message 59459
▁Rəbb 59453
▁Söyle 59444
▁tartış 59440
▁қау 59436
кел 59434
▁алаң 59431
▁аркасында 59427
ently 59414
▁сыртқы 59413
lərinin 59411
▁өндіру 59405
▁бірге 59393
▁говорится 59392
яться 59380
▁любовь 59377
▁аткар 59368
▁Domain 59367
▁Geç 59367
ҳ 59355
▁research 59349
▁Qoraqalpog 59348
▁geldin 59343
дердің 59336
▁altına 59336
▁Gar 59335
▁социально 59330
▁faoliyati 59324
▁органдарының 59318
▁sistemi 59313
▁есебінен 59313
ric 59311
ылыш 59307
▁төлеу 59304
▁results 59301
▁қу 59301
▁ufak 59291
▁exp 59290
дав 59281
▁қат 59268
▁Правительством 59256
▁respect 59250
мал 59246
ق 59245
▁koc 59241
▁второй 59239
▁меж 59231
amay 59210
▁xorijiy 59198
▁Önce 59195
▁жобасы 59186
▁кеден 59186
▁тух 59184
hour 59174
▁Ба 59169
▁jamoat 59160
▁th 59156
▁Скажи 59154
▁tah 59152
▁kalp 59147
▁sik 59144
▁руководителя 59143
▁пять 59140
▁мистер 59137
әһ 59130
▁tatlı 59125
▁non 59094
ствия 59085
▁ваш 59082
▁кир 59057
▁определяется 59057
bo 59056
▁процент 59034
▁пурӑн 59023
ырт 59022
▁Sch 59017
▁hamkorlik 59007
▁метод 59007
▁карт 58997
ınıza 58989
larımı 58959
гар 58947
бас 58938
▁sırasında 58938
▁Башкирии 58926
керлер 58920
▁clean 58908
▁aram 58904
▁чөнки 58890
▁Bazen 58888
▁необходимости 58887
▁certain 58848
▁mine 58839
▁karşılık 58834
▁говорят 58832
▁Fr 58824
▁Гайсәнең 58819
▁саласында 58814
▁приход 58803
ованных 58792
▁раньше 58792
▁Der 58772
▁предложения 58764
▁турат 58756
▁пров 58737
▁Ҫав 58732
▁уполномоченным 58726
▁кадров 58718
▁юридических 58718
▁Pek 58717
▁мм 58715
▁құрал 58694
tılar 58692
▁толықтырулар 58677
line 58675
▁Paris 58674
сер 58673
▁Разве 58662
түү 58661
lanadi 58660
▁og 58659
▁үзенең 58659
▁tkaz 58654
▁азамат 58654
▁bunların 58642
▁Kol 58635
▁di 58627
▁государственным 58626
▁Başkan 58621
tor 58620
▁өмүр 58612
дығы 58608
▁Департамента 58608
▁Witnesses 58602
▁жаң 58602
▁yavaş 58598
▁Салық 58598
▁Ту 58593
act 58591
▁сектор 58579
taki 58570
▁квалификации 58567
▁month 58565
ىل 58564
▁Allahdan 58564
▁niye 58561
ko 58559
▁edib 58546
▁принять 58544
▁сүзләр 58541
ied 58531
▁Joe 58528
▁тӑрӑх 58524
әсәк 58508
▁Per 58506
уң 58504
▁мекемелер 58500
▁тырыш 58500
даш 58497
▁Mesaj 58496
▁Правила 58476
▁ұйымдар 58472
▁строительство 58468
▁yerinə 58467
<2krc> 58464
▁Тем 58461
▁Yahovaga 58443
▁according 58439
▁Pre 58438
▁министрі 58438
▁duyur 58437
▁указанных 58437
▁Порядок 58433
▁жұмыспен 58432
amazsın 58429
▁takes 58424
▁çiz 58422
mıyorum 58412
▁жағдайлар 58404
malıyım 58377
ps 58366
ителями 58365
▁masal 58352
luğu 58340
▁бирә 58339
дау 58337
лив 58331
▁знач 58327
▁kardeşim 58315
▁хӑ 58305
▁мас 58295
▁промышленности 58289
▁долларов 58285
▁Mah 58273
▁either 58265
▁Солтүстік 58253
▁qilishga 58251
▁Министр 58249
▁Мой 58249
▁Aman 58246
▁İnan 58242
кую 58219
▁бүт 58213
кими 58204
▁language 58201
▁ihtiyacın 58200
▁başlam 58185
▁месяца 58173
▁felt 58168
▁әсер 58157
üb 58142
▁басшысының 58141
▁zengin 58134
ционный 58132
▁certainly 58129
▁alohida 58123
▁yapacağım 58116
▁table 58114
▁Niye 58111
لار 58100
▁тонна 58086
▁каче 58081
▁Mak 58080
▁дөнья 58057
▁данные 58047
▁kendisi 58039
▁Ta 58005
▁taklif 58005
▁black 57999
▁history 57980
▁ways 57977
▁Hudaý 57971
▁пожалуйста 57970
▁gem 57969
▁инвестиций 57958
▁тармақ 57947
▁поговорить 57945
ләгән 57935
▁институт 57935
▁хабар 57933
▁ayrıca 57932
▁heavens 57926
oss 57912
▁Kazakh 57908
▁код 57908
▁Dar 57906
овании 57904
ылу 57889
▁субъектов 57875
▁эң 57859
▁güvenlik 57851
▁şarkı 57847
▁социаль 57836
▁Думаю 57830
▁ün 57811
▁tax 57810
▁muhtemelen 57791
иру 57790
▁birgalikda 57783
▁құрылысы 57783
▁ресурсов 57782
▁Ав 57780
▁формы 57779
раш 57768
ӗп 57765
▁tuhaf 57765
▁zayıf 57756
▁hesab 57755
ктан 57750
▁Es 57739
▁мерзімі 57738
алады 57735
▁кот 57735
▁lead 57728
ebilirim 57727
▁вӑхӑт 57719
mıştır 57718
▁Шуңа 57716
▁III 57711
▁gerçekleş 57710
▁встречи 57708
▁provide 57704
ıydı 57682
▁чӗр 57680
▁gösteriyor 57675
▁konuşuyor 57673
▁дополнений 57654
▁зор 57654
til 57653
оны 57646
▁отчет 57634
üy 57633
▁Hatta 57632
▁bek 57632
▁thou 57630
терд 57614
atlari 57611
▁det 57607
▁hesap 57607
▁сомасы 57606
▁üstüne 57602
▁Word 57600
▁возможности 57591
▁tarz 57587
▁elbette 57586
▁hata 57586
пар 57585
ору 57578
▁Dinle 57577
ilə 57559
▁Астанада 57554
qa 57547
▁үлкен 57546
▁minute 57545
▁тексер 57545
▁başlay 57539
▁düşünür 57538
▁available 57533
▁проблемы 57533
çiler 57518
ҡан 57517
▁сбор 57511
lığın 57508
▁ес 57499
▁Вам 57495
▁жолу 57492
▁выступ 57487
▁шығ 57484
▁Eş 57479
▁Part 57463
▁step 57463
▁yurt 57449
▁til 57445
ире 57441
▁məsəl 57440
▁bayan 57425
уры 57420
иф 57417
▁тураһында 57413
▁конечно 57409
▁kutsal 57408
▁bitti 57406
rey 57403
▁акыл 57403
▁foreign 57380
▁bolup 57376
▁umumiy 57375
▁haline 57370
▁осуществления 57369
▁торговли 57359
madın 57322
▁Moses 57322
▁Тараптар 57322
▁etgan 57308
ole 57295
▁İk 57294
▁olduğun 57283
▁Mirziyoyev 57280
▁Duy 57277
▁almaya 57274
▁Казахстане 57272
▁түскен 57258
▁çyk 57251
ığında 57249
▁фак 57238
шар 57233
lacak 57231
ола 57224
▁Біз 57217
▁баст 57215
▁оларға 57215
▁байланыштуу 57203
EK 57198
▁төр 57193
▁Tarifi 57159
▁üret 57157
▁Services 57150
▁ihtiyaç 57148
▁кабыл 57137
lap 57123
▁база 57110
▁лицензия 57097
▁po 57080
▁туры 57065
дон 57063
▁yemin 57056
▁Çalış 57054
▁обслуживания 57049
diy 57039
ıq 57039
ӗнчен 57039
▁yuridik 57039
▁жұмыстар 57037
▁игътибар 57023
▁özellikle 57018
▁қойылатын 57018
▁наименование 57016
▁весь 57013
▁large 57007
▁чыг 57000
▁ediyorsun 56991
▁технолог 56977
mir 56968
par 56965
▁harakat 56958
ucu 56951
ان 56949
fer 56943
▁standart 56942
▁процес 56937
▁sayesinde 56935
▁sad 56925
▁yuqori 56916
▁Shavkat 56908
▁self 56899
▁fast 56898
▁расс 56895
osu 56894
▁members 56883
▁Ray 56878
▁кара 56877
abilecek 56874
maktadır 56869
▁бор 56867
elere 56866
▁сезгә 56862
▁receive 56852
▁науч 56850
▁Утвердить 56847
▁убакыт 56846
мон 56844
▁стоимость 56844
▁beyaz 56842
▁ри 56841
▁ettiği 56840
▁пределах 56835
<0x84> 56830
ОР 56818
▁участников 56796
оты 56739
▁шот 56735
▁действ 56714
▁yerinde 56713
▁вправе 56708
▁келет 56690
▁dürüst 56680
▁haqda 56676
▁THE 56673
▁ететін 56670
рех 56658
▁kulak 56652
▁beklem 56647
▁ик 56644
ӑнса 56643
شى 56641
лим 56625
eng 56622
▁лицом 56617
▁win 56605
▁Com 56602
▁случилось 56599
▁hayatım 56596
▁parking 56594
▁хӑйне 56583
▁норматив 56578
▁Wait 56574
fi 56569
▁drive 56567
▁матери 56558
жал 56551
▁задач 56548
▁судов 56548
▁первой 56543
ости 56538
▁Hak 56538
▁постановлению 56528
▁органдардың 56517
▁довер 56515
ісі 56508
▁sound 56502
▁Kesinlikle 56501
стың 56497
▁olingan 56487
летт 56486
ье 56478
▁özgür 56468
ishini 56457
▁друга 56456
▁жооп 56445
orn 56444
жол 56444
стью 56441
▁Правительство 56431
▁Аллаһыга 56430
асындағы 56428
▁жедел 56417
▁сақ 56412
istan 56401
▁следующего 56386
meler 56379
▁maksimum 56376
▁kalb 56374
▁red 56374
▁seems 56374
▁бизнеса 56368
▁возложить 56361
ven 56353
OM 56351
▁pol 56337
▁deyə 56334
▁Boş 56321
▁получить 56320
▁сведения 56319
▁Et 56309
ardım 56308
▁хуш 56283
▁Жамбыл 56275
тек 56274
▁комплекс 56272
руш 56271
▁оз 56262
алла 56248
mı 56242
ЕТ 56237
▁prot 56236
▁deli 56207
▁gözəl 56207
ательно 56205
▁yetir 56192
▁Col 56172
▁Head 56160
▁qishloq 56152
▁должности 56145
▁çeşit 56131
▁заместителя 56128
▁быстро 56125
▁ettin 56124
▁дополн 56119
▁полностью 56119
▁авыр 56110
▁вӑй 56101
▁toplantı 56091
▁финансирования 56090
▁düzgün 56079
▁sonu 56077
ısına 56069
▁inv 56050
▁takomill 56047
so 56042
ованы 56039
▁эсӗ 56021
гъан 56019
сь 56017
▁числа 56016
▁servisi 56013
▁enjoy 56003
алау 55993
▁Center 55983
▁liq 55973
▁Everything 55970
▁Açık 55969
▁дорог 55965
баева 55950
▁gördük 55948
▁жазбаша 55947
▁brothers 55945
▁көч 55944
▁Which 55942
▁str 55941
▁Та 55940
▁sözü 55938
▁добро 55937
ымда 55936
▁осындай 55934
▁ettiğini 55931
alarının 55930
▁giriş 55905
▁attention 55898
▁directions 55892
▁оқ 55868
нам 55867
▁neyse 55857
yş 55843
▁War 55839
фер 55830
▁gur 55827
▁шат 55823
▁халӑх 55813
▁Çin 55807
▁документ 55807
▁пит 55803
▁saf 55797
лӗх 55790
▁капитал 55786
еке 55784
▁Законом 55782
▁Кай 55775
▁көл 55774
▁karış 55771
▁verecek 55769
дарында 55762
ome 55742
ke 55737
чь 55735
▁местных 55735
▁huzur 55733
mäge 55727
yor 55718
▁территори 55705
▁болу 55703
▁relationship 55701
▁deyir 55694
▁бит 55690
▁хотела 55689
аралық 55679
sir 55678
▁duruyor 55673
▁Türk 55671
▁sw 55663
▁происходит 55661
▁жылдарға 55655
▁wouldn 55650
ателем 55649
▁tash 55649
ants 55646
иле 55628
▁Возможно 55626
юн 55617
▁айтты 55611
▁кес 55607
xt 55599
▁рынка 55592
▁Central 55591
▁kelgan 55557
▁беретін 55552
▁congregation 55534
▁бұйрығымен 55526
▁kurban 55520
▁yapıl 55518
▁satın 55504
▁col 55499
▁хотя 55499
▁mazkur 55485
▁hissed 55478
layacak 55467
▁кайбер 55464
▁тасымалдау 55460
▁forget 55459
аются 55454
▁gen 55449
үз 55441
▁вообще 55440
▁Қаз 55432
▁нормативтік 55430
учы 55428
усь 55418
▁сессии 55414
▁выше 55413
igi 55401
іледі 55396
▁Kay 55379
ибиз 55375
дыру 55365
▁Pavel 55354
▁қадағалау 55348
дуу 55344
ebilirsiniz 55331
▁дети 55328
лери 55326
ıyordum 55321
▁работать 55319
▁yıldız 55315
ати 55301
▁Web 55299
▁doğum 55298
▁үл 55298
▁Çık 55288
▁Biri 55285
▁şirket 55278
ord 55277
▁поп 55272
үбүз 55267
melisin 55255
▁әкім 55251
▁сумма 55249
dılar 55239
▁insp 55239
edik 55233
▁икән 55232
▁Председатель 55221
▁изге 55219
▁суммы 55219
memi 55215
ming 55215
что 55211
▁quite 55206
есінің 55200
▁думаешь 55190
ләрнең 55189
▁тӗл 55187
▁аларды 55180
▁комитетінің 55170
▁Telefon 55167
▁proj 55162
▁Mom 55159
▁председателя 55155
▁осуществляет 55150
uman 55144
▁geldik 55117
▁Allohning 55113
▁Benden 55100
▁Önemli 55085
ленные 55080
ğimizi 55079
▁crazy 55079
▁keçir 55064
▁Настоящее 55063
▁ئۇ 55057
сының 55056
ğinin 55053
▁increase 55051
▁объяв 55051
adir 55046
▁dök 55044
▁yox 55043
техникалық 55035
▁Since 55033
шее 55028
▁perfect 55019
▁дни 55006
▁нә 55002
▁алғанда 55000
▁Hav 54996
▁kend 54996
▁бөтен 54995
каз 54992
▁какие 54981
▁групп 54971
▁Эпир 54969
▁Қарағанды 54966
▁gecelik 54962
▁позднее 54959
▁Yaz 54952
▁сколько 54948
▁kech 54937
▁табылатын 54937
ушының 54907
▁Nor 54907
▁Sanki 54907
▁бөлім 54902
ющая 54901
oda 54896
▁cesaret 54886
▁Эгер 54882
ligiga 54881
▁Қостанай 54875
orat 54874
улер 54865
▁bekliyor 54864
евой 54863
▁сына 54852
lərlə 54827
▁ge 54824
▁enter 54805
▁орны 54804
▁dates 54790
імді 54781
▁будто 54781
meliyiz 54762
▁sıkıntı 54759
ces 54756
▁offer 54752
▁оч 54752
▁символ 54748
▁Комиссия 54742
▁анық 54735
▁иг 54735
аттары 54731
əsinə 54728
▁etmem 54724
▁Satan 54722
▁born 54721
dınız 54717
▁material 54710
urlar 54707
▁büy 54698
▁common 54696
ындагы 54687
▁мою 54687
▁высоко 54685
▁извест 54679
▁Тал 54670
ющими 54635
▁Господа 54620
oke 54617
edim 54613
▁katil 54611
▁Adults 54608
▁возмож 54608
цу 54594
щи 54593
▁onay 54592
▁rep 54588
чылар 54585
▁момента 54582
▁rapor 54574
▁sus 54572
лардан 54568
room 54558
▁yoz 54558
▁Эти 54558
meleri 54555
емым 54551
▁received 54543
▁adamım 54541
asıyla 54533
▁Аны 54532
▁бирок 54531
дут 54529
▁құқығы 54522
▁деңгей 54521
▁ий 54520
ира 54519
▁hot 54504
▁evidence 54500
фа 54493
▁йӗр 54489
AY 54486
лерге 54476
▁яшь 54468
▁Isanyň 54463
▁pres 54452
▁bilmiyor 54450
кат 54437
▁Beş 54427
ك 54424
▁бергә 54417
алдық 54414
▁слу 54390
tibor 54389
ave 54376
▁Call 54360
▁берип 54360
▁başlat 54339
▁keng 54338
▁Sol 54331
▁private 54330
гіне 54327
▁Ап 54327
жар 54320
▁ран 54318
eci 54311
▁worth 54302
oj 54291
▁тұлғалар 54287
▁тұлға 54272
▁мөлшер 54249
▁налогов 54244
▁kredit 54225
▁olmay 54225
тады 54211
gün 54205
еті 54205
---------------- 54203
вой 54198
bat 54192
▁еш 54190
▁Savaş 54178
леу 54172
▁исп 54172
▁кабул 54163
▁Gal 54158
▁System 54151
▁дос 54151
▁слов 54151
▁мәліметтер 54125
ible 54117
eyiz 54114
▁sever 54112
▁Ат 54108
▁процесс 54104
▁Hol 54101
▁қағаз 54084
laydi 54082
▁ap 54074
ita 54059
▁mitasi 54059
▁oradan 54056
вед 54050
лено 54027
▁Исанын 54025
▁халык 54025
▁Совет 54023
▁туса 54018
▁глаза 54015
▁center 54003
▁gerekli 53965
убуз 53964
oloji 53962
▁өмет 53959
▁edebil 53948
liyor 53945
▁hayatını 53923
▁tehdit 53908
ысына 53907
рит 53906
▁yoldan 53900
▁sadiq 53897
üc 53896
isinde 53895
▁getirdi 53895
хана 53881
▁создания 53866
▁тұр 53857
▁городского 53851
▁itaat 53843
▁hate 53841
▁gücü 53838
тас 53836
▁arasındaki 53824
▁көтер 53820
▁yaqin 53819
rak 53805
▁завер 53804
▁osh 53802
▁kirit 53801
▁өзгерту 53791
▁ijro 53783
▁қаб 53779
▁қызметінің 53778
ze 53765
ықты 53758
lishi 53754
İN 53754
▁булмаган 53754
овым 53747
▁beden 53728
▁mənə 53721
лены 53706
▁conf 53705
▁yapabilir 53697
ИТ 53691
oti 53689
Ұ 53683
▁legal 53683
▁бумаг 53681
▁söyl 53676
onu 53673
▁ими 53658
▁Білім 53655
meyin 53652
▁үтә 53645
▁söý 53638
liklar 53637
▁hair 53633
▁электрон 53628
▁kural 53626
▁Республик 53624
.- 53620
▁аудар 53619
yndan 53618
▁Tar 53617
▁поч 53612
▁OF 53607
▁söyledin 53599
▁твоей 53578
▁стра 53571
▁бұрын 53568
▁отраж 53566
ушка 53564
▁Qur 53560
▁Үз 53555
▁kral 53553
▁китер 53549
▁табыс 53547
▁Итак 53538
ches 53526
dem 53520
ска 53518
▁kanun 53513
СТ 53512
▁заман 53510
▁кому 53509
▁sona 53504
▁новый 53504
▁земли 53500
▁лә 53490
ица 53478
▁Senden 53477
teki 53469
▁Boy 53468
це 53460
ple 53443
▁alıyor 53443
▁хис 53414
▁int 53393
▁gelin 53372
▁Mo 53346
▁yeterince 53343
▁тіл 53341
▁уровне 53339
▁ravishda 53338
▁ӗнен 53328
▁Istanbul 53327
▁yash 53325
▁Бел 53321
▁tomon 53320
kar 53318
▁поз 53317
▁Tem 53300
▁существ 53300
▁участия 53299
▁Ау 53294
аҡ 53293
ope 53291
▁design 53279
ected 53270
▁жазылсын 53266
▁Ақмола 53265
▁Заң 53259
рать 53257
lanır 53254
тең 53234
▁тұ 53230
либо 53229
▁жазылган 53228
▁увелич 53225
▁Haber 53224
▁path 53224
▁приказом 53220
чного 53212
▁Location 53211
▁хөрмәт 53211
dük 53209
▁направления 53194
▁cho 53176
▁erken 53175
▁мере 53175
▁above 53163
▁Северо 53154
▁Ор 53148
▁Rom 53145
▁site 53135
▁усӑ 53132
▁ýer 53120
▁kem 53103
ыма 53098
▁buyur 53086
ыры 53084
▁табиғи 53061
вод 53059
▁медицинской 53056
▁Kendini 53047
▁гөнаһ 53041
▁olduğumuz 53036
▁ам 53033
▁qism 53031
ica 53030
▁haklı 53022
▁хур 53020
urs 53015
▁бағытталған 53003
▁maslahat 52985
▁пайгамбар 52978
<0x94> 52972
▁jalb 52972
мах 52967
ительное 52953
▁ئۇلار 52946
▁sadık 52945
▁ancaq 52934
lerimi 52933
▁araya 52922
ediğini 52915
▁Комитет 52907
еки 52906
ction 52901
мақ 52900
▁Həqiqətən 52894
со 52889
ственно 52875
▁тіркелген 52867
▁ümid 52859
▁bekley 52854
ەر 52852
▁cavab 52826
▁қаржылық 52815
▁нан 52811
ft 52803
▁continue 52801
▁gösterir 52796
▁кӗ 52782
▁Kork 52764
▁mark 52761
рип 52759
net 52758
▁қандай 52756
пӗр 52748
үң 52740
posta 52736
▁review 52735
▁Jo 52729
▁tuman 52728
üsü 52709
▁birlik 52693
▁хә 52692
▁mer 52689
▁Сол 52687
▁qay 52675
▁утвержд 52674
لىرى 52655
▁port 52653
▁килә 52633
▁тен 52623
ences 52601
таш 52600
▁Привет 52596
▁тауарлар 52595
ij 52572
meyen 52571
▁hisobga 52568
▁проф 52565
▁starting 52557
▁асыруға 52546
▁Sir 52545
▁тапсыр 52545
ardi 52541
▁каб 52534
▁seem 52533
▁hastalık 52531
▁bende 52530
▁Ошондуктан 52529
▁areas 52526
▁нов 52522
manız 52516
▁hasta 52493
▁waiting 52492
▁worked 52481
▁тууган 52481
▁indi 52474
селәр 52472
▁texnik 52469
▁төз 52460
▁ey 52452
▁валют 52450
вого 52443
▁жен 52435
▁Room 52429
▁güc 52425
дим 52424
imizda 52418
▁изделий 52418
▁төп 52412
▁мөр 52408
нес 52407
▁өте 52400
▁ph 52386
ious 52375
▁cin 52350
▁asıl 52339
▁БР 52335
ысының 52333
▁birden 52323
▁Özür 52322
▁diş 52321
▁удив 52319
▁kendisine 52318
▁səbəb 52316
▁sanıyorsun 52313
▁köpek 52310
▁потреб 52309
ступ 52308
▁kıs 52305
▁ra 52301
▁olmadığı 52294
▁директор 52285
▁tapın 52283
▁tarifi 52281
ira 52276
▁adlı 52274
чные 52248
▁Bill 52248
▁Tim 52238
▁доступ 52237
▁есепті 52231
▁elektron 52229
▁gurur 52224
▁сохран 52219
▁Two 52217
▁Ра 52216
экономикалық 52212
альном 52207
▁асырыл 52203
▁Mart 52202
▁обеспечению 52193
▁okum 52181
пай 52169
▁Henry 52169
▁doir 52168
▁тұрған 52165
▁girdi 52163
üme 52161
▁орындалуын 52161
▁bolar 52158
ету 52155
elen 52153
▁Polis 52151
▁PR 52142
шылар 52141
▁Hoş 52141
▁mod 52126
▁енгіз 52122
ляется 52119
▁нужна 52109
▁bilg 52095
▁sm 52088
▁sab 52069
▁қаласында 52068
▁вос 52063
ток 52053
▁doctor 52053
▁hujjatlar 52050
▁бөлу 52045
▁основ 52038
▁gö 52037
▁предоставления 52037
▁Азия 52036
pa 52020
▁Bat 52017
▁Мемлекетт 52017
▁барып 52012
ствовать 52009
ulu 52005
▁gü 51999
▁көргөн 51997
▁құрылымдық 51994
▁Çek 51990
▁Contact 51989
▁Was 51989
▁ҫур 51988
lərindən 51987
▁production 51983
▁бизди 51971
▁During 51957
▁chet 51950
▁olanı 51944
▁ming 51942
▁US 51938
изм 51937
▁эшләргә 51932
ёл 51897
▁заказ 51895
▁запис 51880
▁Listen 51872
▁Sən 51863
иев 51858
▁тав 51857
▁артық 51855
▁приказа 51854
ford 51852
лож 51850
▁sum 51849
нок 51848
oş 51843
▁размер 51840
▁обязанности 51836
чин 51835
ула 51832
غا 51831
лері 51813
▁faqat 51799
▁позвол 51790
▁правила 51790
▁партия 51788
▁выз 51786
▁прост 51785
▁South 51780
▁әуе 51772
▁своем 51768
▁gelince 51760
▁hizmeti 51751
▁Ему 51749
▁dönem 51748
▁mahalliy 51747
▁анализ 51736
amış 51732
▁кас 51728
ителям 51719
▁balık 51717
▁tashqari 51711
ığınız 51700
▁самое 51700
кур 51699
▁имеют 51699
▁белем 51698
уж 51683
▁килӗш 51679
▁DNA 51670
▁ekanini 51663
▁информационных 51655
kor 51642
▁жазган 51641
▁event 51639
▁Noel 51638
▁act 51636
▁içki 51625
▁приобрет 51619
▁bok 51613
▁мать 51611
▁рез 51610
▁alive 51602
▁aşk 51596
▁Only 51587
▁türlü 51584
tkaz 51583
▁создание 51576
▁обла 51574
ьте 51570
▁объем 51562
▁қалыптастыру 51556
▁кешен 51521
▁mah 51495
▁sn 51491
▁acc 51490
▁View 51488
▁кір 51488
▁Cam 51487
лығын 51482
ار 51481
▁студент 51480
▁дагы 51476
▁районов 51476
alarining 51472
ığa 51472
▁Red 51464
▁животных 51463
ücü 51459
▁House 51451
▁рав 51450
ılık 51443
▁указ 51438
▁bolan 51434
▁West 51421
▁жағдайларда 51420
▁илчӗ 51411
▁словам 51402
▁Haritayı 51400
▁Şeýle 51400
▁указанием 51399
▁справ 51393
▁oluş 51391
▁басты 51375
▁ваши 51368
▁general 51367
▁связ 51363
▁посвящ 51362
▁olmasına 51335
▁халық 51331
▁ilaç 51319
▁необходимых 51319
udur 51315
быҙ 51314
▁gösterdi 51310
▁налога 51310
▁і 51309
▁мил 51307
imizde 51303
▁Кан 51298
есіне 51295
▁месяц 51292
▁etkil 51288
енно 51287
▁каз 51281
▁Ba 51269
▁Бір 51264
▁подразделений 51260
▁Konum 51257
▁Олар 51256
ives 51255
імдер 51253
▁предприятие 51247
▁тәртіппен 51236
▁кру 51233
▁Mor 51228
▁deney 51225
нику 51209
▁decision 51200
зд 51199
▁miss 51199
▁whether 51199
▁Рас 51196
▁güneş 51192
▁doirasida 51190
▁ғылым 51172
эт 51165
▁adama 51165
ingizni 51160
▁таасир 51157
▁artıq 51148
▁oshir 51147
eceğine 51134
унда 51134
maga 51132
▁ip 51118
▁Dev 51103
▁Çocukların 51094
дии 51090
▁Петр 51086
▁бесп 51085
▁қара 51083
▁собствен 51076
▁тул 51076
іш 51074
▁sanmıyorum 51064
▁вӗҫ 51061
▁bununla 51052
▁gül 51051
▁önceden 51047
▁gar 51043
▁began 51039
▁принятия 51035
▁ikna 51028
▁сэр 51026
▁Ведь 51025
▁yapıyorum 51024
▁вес 51014
▁директоры 51009
ID 50984
ителем 50982
▁совета 50968
Ц 50958
▁ismi 50956
ается 50955
▁supposed 50955
ЕК 50953
▁қай 50947
▁бирге 50941
ier 50936
▁беренче 50933
▁tik 50932
▁bilin 50914
▁Халықаралық 50912
▁yaptır 50907
▁школа 50903
▁уның 50897
▁Öl 50894
▁tug 50887
▁gives 50882
ned 50875
▁раза 50875
ilishini 50874
▁указывается 50869
▁дөрес 50863
▁итогам 50846
ере 50844
▁елдер 50844
риб 50839
▁nazar 50834
ғына 50833
▁birinci 50831
▁Sorry 50821
▁ерекше 50815
▁конкурс 50813
ute 50806
ced 50805
▁olanları 50799
▁Жол 50795
▁ship 50791
▁American 50790
▁Ail 50786
▁настоящее 50781
▁mil 50780
ct 50772
▁Сал 50771
▁booked 50766
▁kaybed 50766
▁Денсаулық 50764
ница 50763
▁руководитель 50761
▁rev 50760
mayacağım 50759
▁проведении 50758
▁whose 50753
▁üstünde 50753
▁последние 50751
ственным 50745
▁dedik 50741
▁част 50730
▁marriage 50725
allar 50723
ğinizi 50718
▁Сез 50708
▁ну 50698
▁sog 50692
tgan 50688
ОН 50688
тарында 50682
▁veriyorum 50680
▁Май 50671
▁canım 50665
▁Kadın 50657
▁ederek 50655
aka 50641
▁nəyə 50632
▁сөздөр 50628
етті 50619
erler 50615
▁News 50608
▁hearts 50599
uh 50597
нары 50597
ентов 50592
▁тӑван 50592
еф 50580
▁longer 50563
▁bulduk 50559
▁конкурса 50555
▁видеть 50554
▁oshiriladi 50548
asınız 50541
▁öğüt 50533
▁тытса 50530
▁value 50528
▁altın 50522
▁ruhy 50521
▁Ağ 50518
▁happens 50518
ame 50513
чат 50508
▁қойылған 50508
▁куб 50501
over 50500
▁жаман 50492
▁Indeed 50488
▁партии 50481
стр 50477
▁Silah 50476
▁zamandır 50474
iki 50471
▁департаменті 50468
▁абдан 50466
▁sizinle 50457
▁dakik 50442
▁система 50441
asidan 50440
▁action 50439
▁pick 50439
▁disc 50437
▁serve 50437
▁Düşün 50433
▁arkadaşı 50432
▁Put 50431
▁Kardeş 50418
уды 50412
▁berbat 50412
бат 50410
▁эксплуатации 50410
▁dream 50402
сак 50397
тармағында 50375
▁af 50375
▁облыс 50372
чан 50370
▁etsin 50357
▁нельзя 50348
▁değ 50329
ланды 50320
▁Воз 50319
▁культур 50316
▁роль 50314
he 50305
▁жүйесі 50292
▁isterim 50285
olu 50281
▁Вӗсем 50278
▁ремонт 50277
анов 50272
▁эк 50268
▁мам 50267
▁foiz 50260
▁Даже 50260
сек 50259
▁өнд 50257
mana 50256
▁келеді 50255
imizning 50250
▁bağlantı 50247
▁нужен 50243
▁force 50231
▁training 50215
▁IV 50209
▁tanrı 50206
▁elə 50203
▁Зап 50202
▁Cal 50199
▁sırada 50198
res 50195
▁somebody 50190
чив 50188
form 50187
▁сети 50186
▁понимаю 50179
▁dünyaya 50177
əb 50172
▁разрешения 50170
▁tal 50164
▁punishment 50155
▁yerini 50150
▁кеткен 50150
▁metre 50149
▁approach 50132
▁hepsini 50127
▁lie 50121
▁muhofaza 50115
▁меншік 50115
▁xoş 50110
▁bizimle 50105
▁Сот 50105
ЕЛ 50101
▁Туррӑн 50098
amayacak 50097
▁sinir 50097
▁doğrul 50079
▁Today 50078
маг 50069
▁Давайте 50065
▁Public 50062
▁проверки 50060
aydi 50059
▁вещи 50055
усылар 50054
▁edýän 50053
<0xA1> 50034
▁разв 50034
ender 50027
▁Zaten 50024
▁elektr 50023
▁karşıl 50018
▁sk 50017
▁hakk 50011
ards 50001
▁ылайык 50000
▁Aç 49997
▁ие 49997
irlər 49990
▁sensin 49985
ımdan 49981
▁Great 49973
▁окружающей 49962
▁скоро 49962
oning 49959
▁diýdi 49952
енты 49949
▁gowy 49947
▁есеб 49944
иләр 49943
▁етуге 49936
▁sən 49935
▁uyum 49931
get 49929
▁былай 49925
▁ответственности 49921
▁перспектив 49919
ири 49913
ook 49912
▁şunları 49909
әү 49905
▁Nerede 49893
▁soul 49888
▁организациями 49888
unt 49874
ru 49872
▁Ros 49859
mes 49853
▁cemaat 49845
▁Мажлиса 49838
▁расчет 49829
▁башкаларга 49823
▁Dir 49818
▁ü 49818
lilik 49811
▁Dubai 49811
▁Значит 49811
▁resim 49804
▁таможенного 49802
▁Sonunda 49800
▁мақсаты 49785
▁sabab 49784
▁кеп 49784
▁kaybol 49783
▁кешеләрне 49778
▁position 49750
roq 49748
▁основных 49739
▁башкар 49736
лений 49731
▁землю 49706
▁китерә 49705
▁изменениями 49699
▁Fiyatları 49696
▁име 49696
▁tat 49690
ело 49689
sat 49683
▁kısmı 49681
▁faithful 49680
▁müqəddəs 49680
▁реш 49674
▁komik 49669
▁yours 49669
▁tabi 49666
ST 49663
əq 49662
▁Шар 49658
▁отсюда 49650
ece 49643
ланы 49639
▁пом 49619
▁системе 49608
аний 49601
▁организация 49588
▁giving 49587
ined 49586
▁обязан 49586
işi 49573
▁нового 49573
▁определен 49565
▁Tel 49564
▁kalmak 49563
▁station 49555
▁shaxslar 49551
▁невер 49544
▁огранич 49543
▁sebebi 49541
▁Турра 49531
▁тарату 49512
▁yaşıyor 49502
LE 49499
aý 49488
▁sick 49478
▁çar 49466
▁bilgisayar 49461
▁торгов 49460
▁Everyone 49447
▁Europe 49442
▁aldık 49442
ющихся 49439
▁bah 49437
вин 49433
▁треб 49431
ələri 49426
▁қауіпсіздік 49418
▁ҡала 49408
▁ағ 49401
bil 49388
▁Biliyor 49386
▁derler 49382
▁değerli 49382
▁ақпаратты 49380
▁представителей 49372
еден 49362
▁ночь 49354
▁Bəs 49353
▁okuy 49335
▁çalışma 49332
▁gidiyorum 49331
▁Язмалар 49330
▁Ага 49325
▁Non 49323
▁бірі 49323
▁своими 49304
▁зейнетақы 49290
▁вход 49289
тандыру 49286
▁Халық 49286
▁suçlu 49283
▁узнать 49283
▁Petrus 49278
▁Transport 49272
ительным 49271
▁кен 49264
▁music 49263
▁annem 49252
▁sert 49248
тем 49246
ДА 49245
▁nde 49243
▁сур 49228
▁нык 49227
▁accept 49221
gar 49219
▁aldın 49210
▁önceki 49205
▁güvenli 49204
▁uydur 49201
▁arz 49184
▁орналастыру 49172
دۇر 49169
өс 49159
▁xeyir 49153
gini 49148
▁большой 49146
mur 49144
▁даты 49140
ekt 49138
adilar 49137
енными 49136
▁Астане 49136
▁жерге 49133
▁Efendim 49125
دۇ 49123
▁алыр 49113
▁percent 49112
▁televizyon 49110
▁аумақ 49105
▁глав 49102
▁размещ 49102
▁хотите 49095
▁защите 49094
▁seviyor 49093
▁киши 49092
▁мө 49085
▁хәтта 49082
▁Maximum 49069
▁Yüksek 49068
▁күңел 49068
ying 49066
▁mos 49064
▁жүйесін 49064
ович 49056
▁регион 49051
▁уверен 49051
▁фото 49050
енном 49047
▁Уфе 49028
▁Пос 49018
▁технического 49012
▁Ph 49000
▁заседания 48999
▁davom 48997
▁сни 48993
▁signs 48982
▁müzik 48969
▁государственном 48968
▁алма 48966
▁жоспарлау 48959
▁перевоз 48959
іміз 48955
▁аппарата 48953
▁Nereye 48952
▁sağlık 48944
▁калаҫ 48942
ляются 48924
▁allow 48922
тегі 48917
▁близ 48917
▁улам 48913
▁құны 48909
▁purpose 48903
▁теп 48901
▁yaxın 48890
▁взаимодействия 48890
нь 48888
▁etadi 48882
ывается 48880
▁hepimiz 48870
▁мүлік 48860
ующего 48857
▁yolunu 48852
▁две 48850
▁Alan 48849
▁Giriş 48849
▁бухгалтер 48843
▁ишеним 48843
▁Банка 48842
▁практи 48840
▁Evcil 48839
▁deep 48838
▁hatırlıyor 48837
▁бөтә 48834
▁услугополуч 48832
▁терең 48817
▁Hall 48813
▁herkesin 48813
▁часто 48807
▁edirdi 48804
▁тура 48800
▁muassas 48798
▁mor 48795
▁weeks 48793
▁trouble 48785
аларында 48784
▁Ölüm 48775
▁lay 48765
▁göndər 48761
▁айтуынша 48755
▁EN 48752
▁Wh 48750
bilir 48737
▁kamp 48736
▁hom 48732
▁заключения 48729
▁İz 48727
▁тиімді 48724
▁движения 48721
▁kelish 48720
▁хуп 48718
▁AB 48712
▁таза 48711
▁апостол 48708
▁geldiğini 48707
▁giden 48701
▁uc 48701
талған 48696
▁кәрәк 48690
▁Var 48688
▁keltir 48671
▁си 48670
▁Uz 48662
mail 48659
▁Каракалпакстан 48657
чка 48656
▁құрам 48653
▁görmüş 48644
▁Язмаларда 48643
▁дополнить 48636
▁verici 48635
ҙән 48631
د 48630
▁пӗл 48623
▁konum 48618
▁нос 48612
▁rather 48606
▁майланган 48603
▁saylov 48591
acy 48588
▁помощью 48588
ətli 48581
▁инфраструктуры 48578
▁capital 48574
▁hap 48572
▁Те 48569
▁serious 48559
▁jamg 48557
▁Mus 48556
▁охран 48555
▁отрасли 48543
▁финансовых 48541
▁xəbər 48536
▁жин 48524
▁murder 48521
▁kitob 48515
ланып 48511
ıntı 48508
▁табыл 48501
▁olmayı 48497
▁айыр 48493
▁coffee 48492
▁духов 48481
▁konuşma 48478
▁yili 48474
▁одним 48464
▁Dersin 48456
▁саясат 48451
ənin 48446
▁derece 48445
ологии 48441
▁nedeni 48436
▁китап 48434
▁sayf 48431
ibi 48428
▁write 48427
▁şüphe 48421
▁Hong 48420
овали 48416
▁bekl 48415
айся 48408
▁obyekt 48405
▁басқар 48405
ылық 48392
▁такая 48391
торов 48389
▁осуществля 48382
▁bulunmaktadır 48379
▁sene 48372
▁babası 48371
▁баары 48356
irish 48354
▁benziyor 48352
▁tık 48349
ғының 48343
amadım 48333
▁maqsad 48329
itt 48327
▁внутри 48326
▁лауазымды 48325
▁page 48324
▁язган 48322
▁bey 48314
▁king 48310
▁ескер 48310
сү 48309
▁Albatta 48302
▁кире 48302
үнөн 48300
▁create 48295
bol 48286
▁gerekiyordu 48284
тат 48283
aca 48279
▁җавап 48278
▁көрсөт 48269
▁сразу 48260
теу 48259
lığını 48256
▁гран 48251
тарса 48250
▁уақытта 48250
▁определения 48237
▁god 48232
ster 48231
▁olacaktır 48226
▁технологиялық 48226
▁Merkezi 48222
▁sort 48214
▁büyü 48207
▁Слушай 48207
▁истории 48207
ущ 48206
▁Mac 48205
atlarni 48202
▁çay 48201
▁Закон 48187
▁рассмотрения 48178
▁түшүн 48175
▁diyorsun 48170
ида 48167
ӑннӑ 48166
▁производство 48163
▁Qo 48161
▁sözler 48154
eyen 48149
▁yatak 48149
▁Машаяк 48149
бей 48148
▁acaba 48148
▁заключ 48140
lashtirilgan 48137
ести 48133
▁öğrenmek 48131
▁настоящих 48127
▁кедендік 48125
▁берилген 48117
▁қатысу 48109
▁Гал 48105
▁ду 48103
▁öldürmek 48101
▁уровень 48101
▁yilda 48099
▁құрайды 48091
ano 48081
▁доп 48078
▁rad 48077
▁сир 48076
▁пап 48073
енная 48061
▁Konu 48061
▁tehlikeli 48061
▁pislik 48058
lerinizi 48057
▁ур 48053
▁Find 48051
▁каждой 48047
▁ilginç 48043
ателю 48039
▁daxil 48037
▁Nick 48031
▁ettiler 48029
ites 48024
▁yukarı 48024
▁gerçekleştir 48017
elerine 48014
▁ша 48012
▁sürece 48009
ага 48001
▁karanlık 48001
рок 47996
▁based 47995
▁сел 47992
▁Val 47985
▁white 47984
▁Bek 47982
▁üzerinden 47972
▁яктан 47970
алу 47966
▁Мұ 47963
▁eğlen 47961
▁sənə 47958
▁объекта 47958
чный 47944
▁addition 47943
атпӑр 47933
meniz 47929
lini 47926
▁виду 47923
▁знаем 47921
▁boshqar 47920
▁ifad 47915
▁entire 47903
лаў 47885
ال 47871
▁forth 47869
▁кеч 47866
▁представля 47866
▁Hâlâ 47861
▁Danny 47859
▁Китепти 47859
ote 47858
▁люблю 47857
аттарды 47855
▁ayt 47855
▁пух 47854
▁орман 47853
▁Fer 47834
▁новые 47825
▁China 47817
▁Rus 47810
ңар 47804
▁Nothing 47803
▁класс 47797
▁выда 47793
cing 47781
▁street 47781
пи 47776
üyle 47775
атив 47774
▁бұ 47774
lashga 47773
▁вӑхӑтра 47773
▁өй 47766
ниң 47756
▁döv 47753
▁kıl 47752
▁кірістер 47739
▁şart 47734
▁sonsuza 47731
▁yanı 47723
▁soni 47716
▁gerçeği 47715
▁базы 47715
яются 47714
▁алушы 47707
▁loved 47703
▁decided 47697
▁установ 47691
емый 47689
▁дев 47685
▁следующие 47681
▁булачак 47672
егез 47668
layıp 47646
сең 47645
▁telling 47638
▁text 47632
▁internet 47629
сия 47624
▁hatırlat 47622
сӗр 47620
нил 47619
zo 47614
▁ірі 47614
▁spend 47612
▁yetiştir 47607
▁жария 47607
▁ahead 47606
▁данного 47606
анием 47605
▁wagt 47592
▁бағдарламалар 47586
▁Rezerve 47575
AP 47573
▁бағдарлам 47573
▁sizden 47572
▁итте 47561
liğini 47534
скими 47528
▁believers 47527
▁poor 47524
▁interest 47521
▁алыш 47516
▁достаточно 47514
ediği 47512
▁выраж 47511
▁рус 47511
ray 47510
▁kafir 47497
▁Ад 47497
▁рядом 47496
<2sah> 47495
▁улар 47492
▁kept 47490
▁Hazır 47482
▁Sah 47476
▁Open 47475
▁Комиссии 47470
▁адамдардын 47458
▁вӗсен 47455
▁yerleştir 47448
▁Gö 47432
дж 47428
дыктан 47426
▁low 47424
▁istemiyor 47421
▁рублей 47419
üyorum 47415
▁bizga 47404
▁diyorum 47388
▁стало 47382
lanishi 47381
▁third 47380
ляют 47374
▁ileri 47371
ственное 47370
▁becer 47364
руге 47363
▁лицам 47363
▁kr 47359
oid 47342
къ 47325
▁yorum 47323
▁ирт 47321
имых 47317
▁Dil 47305
▁пок 47303
liyi 47295
otlar 47294
▁квалифика 47293
▁йәш 47290
▁қаулы 47281
▁natij 47279
▁сирӗн 47272
▁Ücretsiz 47262
▁rej 47257
▁истин 47254
ындай 47253
▁құрады 47248
que 47239
▁сроки 47228
▁final 47210
ствует 47207
▁aydın 47204
▁America 47194
▁thee 47191
▁log 47189
▁одну 47187
▁кешеләрнең 47177
▁Muhtemelen 47174
lanma 47171
▁кеш 47169
▁постоянно 47169
ending 47161
▁yakında 47155
▁products 47150
▁favor 47149
irik 47145
mal 47144
▁protect 47131
emiş 47123
▁разреш 47123
▁электронной 47117
▁tra 47116
▁мыс 47114
▁biliyordum 47113
▁өрт 47113
▁cost 47111
▁цвет 47107
▁экспертизы 47106
▁ост 47100
▁руковод 47100
никам 47097
ресс 47096
▁увидеть 47092
▁пунктов 47088
maly 47080
▁turli 47078
▁Hudaýa 47076
лена 47051
▁kalır 47049
▁адамдарды 47044
▁қатысушылар 47043
ries 47030
muyor 47027
▁ӑ 47024
acaktır 47023
▁road 47022
▁соб 47019
▁ölç 47017
▁Nazarbayev 47007
▁эффективности 47006
▁молодежи 47003
▁Жұмыс 47002
▁якын 47001
сенче 46997
▁istediğin 46996
езда 46991
▁space 46989
nom 46979
▁опыт 46972
غ 46965
▁социального 46965
▁физ 46949
▁pool 46946
▁yüzde 46940
▁tanı 46937
▁уча 46936
▁Captain 46928
pan 46925
▁Государственной 46919
▁Анда 46915
▁измен 46914
▁Keep 46912
▁комитеті 46912
▁уақыты 46912
▁отца 46908
itor 46907
▁kurul 46906
▁huquq 46889
▁meşgul 46886
▁дейт 46881
▁pain 46880
▁ardından 46879
істі 46871
▁running 46870
▁Сторон 46866
▁ishlari 46863
иков 46859
▁himoya 46859
евич 46855
▁korkut 46850
▁Amma 46849
abi 46844
ули 46833
▁бюджетной 46830
eck 46828
▁қан 46827
▁gas 46825
▁döndü 46824
▁Message 46807
▁istersen 46806
▁construction 46804
▁техники 46803
▁ответствен 46797
▁Neyse 46796
▁political 46796
دە 46790
▁kendilerini 46790
▁специальных 46788
▁tartibi 46781
▁преступ 46773
▁yemeği 46770
▁İstanbul 46767
▁твоего 46762
лич 46760
▁evine 46755
▁Давид 46753
▁сире 46751
▁yerin 46749
▁gördü 46738
▁импорт 46737
▁идея 46734
өз 46730
езд 46726
▁ikisi 46711
▁жашо 46695
▁teach 46692
▁yuk 46692
▁ded 46691
▁necessary 46690
▁құбыр 46687
▁әзер 46679
▁Od 46675
▁сообщил 46675
▁Vay 46661
▁элек 46649
▁вӗрент 46634
▁ئۈ 46632
▁Mag 46619
ually 46599
▁mamlakat 46598
▁başarılı 46592
қыш 46589
▁Перечень 46580
▁архив 46579
▁ə 46574
▁тугры 46574
esh 46573
▁Olar 46564
▁пула 46563
▁ball 46560
laştır 46558
iyy 46547
▁ұсыну 46544
▁dər 46541
▁Выдача 46541
▁dastur 46537
▁yapacağız 46535
▁başladım 46528
▁есептеу 46523
▁Kam 46522
▁ba 46522
▁басқармасының 46520
щика 46516
▁лег 46514
▁решений 46497
▁etmeyi 46493
▁Dis 46492
▁айтылган 46489
▁таңда 46484
▁everybody 46478
тарда 46476
▁новой 46475
▁решением 46469
▁shakl 46467
▁ху 46460
▁многие 46458
▁очередь 46454
asız 46452
ческий 46440
▁muddatda 46438
▁нер 46438
▁плат 46427
▁zamanlarda 46426
▁bojxona 46423
van 46411
мый 46408
▁function 46405
▁ошондой 46402
▁хран 46398
▁знаком 46394
▁жа 46392
▁mission 46391
▁Fir 46373
▁edeceğim 46361
масы 46360
▁cell 46360
сында 46357
▁процесса 46354
▁hisoblanadi 46343
▁tushun 46331
▁жеткізу 46330
▁идти 46327
▁кеңеш 46323
ığımı 46322
лот 46322
▁boys 46322
▁digər 46319
▁oğul 46314
▁кой 46314
▁даа 46313
▁Израиль 46312
▁Sun 46303
беков 46302
▁Ish 46295
erson 46290
▁ör 46288
▁Has 46281
▁çıkan 46278
▁Yorum 46277
▁асп 46277
▁жыйналыш 46274
▁обязательств 46268
▁жойылды 46264
▁отказе 46256
erken 46248
▁управление 46243
▁yabancı 46242
кын 46218
▁пой 46205
▁Тар 46204
▁орташа 46199
тө 46197
▁jaligi 46195
▁жатады 46194
▁своему 46191
▁бос 46188
▁сумму 46182
▁həmin 46181
мәт 46175
▁gift 46172
▁вырӑн 46166
val 46163
▁собрания 46161
▁akıl 46159
▁jismoniy 46154
ось 46150
▁viloyati 46149
▁полит 46147
▁Selam 46144
▁әйтә 46124
ото 46120
tive 46119
▁башҡорт 46116
▁біздің 46107
мәс 46106
▁bebeğim 46103
▁kör 46102
nal 46099
▁reported 46097
lumot 46094
▁өңір 46094
▁өзү 46093
▁языке 46091
▁stupid 46089
елле 46087
▁платы 46070
ove 46067
▁qolgan 46056
дек 46054
▁hang 46049
▁Мә 46049
ury 46048
▁най 46047
au 46045
▁Stop 46045
▁merkezi 46045
▁yapmayı 46029
ıs 46026
иза 46025
▁mektup 46017
▁Cor 46012
▁шетелдік 46003
▁заңнамасына 46001
▁ян 45997
▁İkinci 45992
▁сы 45990
▁uşaq 45984
изации 45980
▁edenler 45980
▁идет 45976
▁повтор 45971
▁операций 45968
ланган 45954
▁инженер 45953
▁korumak 45924
▁уст 45916
▁Жаңа 45912
▁amaç 45904
оды 45903
▁Еңбек 45903
▁sug 45902
▁ilg 45874
▁Bey 45873
▁zar 45873
▁keyingi 45871
▁karıştır 45869
▁sayısı 45868
▁court 45867
▁hökm 45866
xon 45864
▁низ 45864
▁dear 45863
▁sanat 45858
▁zamonaviy 45840
▁aj 45839
▁teşvik 45838
▁lose 45836
оне 45832
▁использовать 45831
▁спор 45826
anların 45820
▁across 45815
ическая 45812
ларында 45805
▁jamiyat 45802
▁önem 45790
чки 45782
▁vers 45767
▁говорю 45764
▁şeytan 45758
▁боюнча 45757
бин 45752
чал 45735
▁зем 45734
▁тағы 45725
▁Yusuf 45717
▁Kom 45712
▁команд 45703
▁общ 45697
▁East 45690
нут 45689
▁қаражат 45687
ətə 45684
▁портал 45682
inizde 45675
кес 45675
▁күй 45674
ığından 45669
▁сообщили 45661
ree 45655
▁oliy 45655
▁ücretsiz 45653
▁trade 45649
leyen 45642
▁Üst 45640
▁Bekle 45636
ring 45633
▁Государственная 45633
▁оор 45633
▁Президентінің 45632
▁жүй 45632
образ 45631
▁serbest 45628
ney 45625
▁сиз 45609
ышы 45602
▁берілетін 45601
yla 45597
▁сезнең 45596
ladık 45587
▁nokt 45586
▁bağır 45585
▁Inter 45582
▁butun 45579
▁Te 45575
▁Kr 45550
▁Actually 45547
▁фикер 45542
▁görkez 45539
onlar 45536
шілік 45534
▁тұратын 45530
minlash 45526
▁ый 45518
▁Back 45508
▁Spa 45504
▁worry 45498
▁بۇ 45494
eceğin 45493
UN 45474
▁здания 45472
ılmaz 45470
▁evi 45464
деп 45458
▁Эм 45453
▁sahib 45449
▁делает 45438
лӑн 45436
aro 45433
▁пултарать 45432
ıkları 45420
▁Ма 45420
▁sigara 45401
▁toprak 45399
▁специализирован 45399
ended 45398
ects 45388
инов 45386
▁балан 45377
▁Эл 45370
tain 45368
uğ 45367
▁ӗҫе 45360
▁Mahkamasi 45359
▁train 45350
▁нөмірі 45343
▁Башҡортостанда 45336
▁Ир 45336
▁juda 45331
ambar 45328
▁здоровья 45327
ood 45325
▁милли 45318
▁trip 45311
▁вели 45311
▁kayıp 45305
уларын 45302
▁attack 45302
аларда 45297
▁боло 45287
▁рәс 45287
▁Yalnız 45286
▁dinner 45279
▁Оку 45272
▁талаптарына 45272
ls 45271
▁diýip 45268
▁широ 45268
<2gag> 45267
▁бәйле 45259
▁қолы 45259
diyi 45248
ыңар 45248
▁bozor 45248
▁korxon 45243
▁рәсім 45242
▁применения 45237
▁уақытша 45234
дүү 45232
▁процедур 45232
▁тру 45231
çisi 45230
▁цар 45220
▁яз 45216
руз 45213
▁kadınlar 45210
ldi 45208
▁veril 45206
lerdir 45203
▁Pawlus 45203
usunu 45202
▁adv 45194
әһе 45192
ved 45185
əsini 45185
▁ortadan 45184
вен 45174
шем 45169
▁parmak 45160
lantir 45155
umda 45155
ывают 45150
▁maktab 45149
▁ча 45149
▁Rabb 45144
▁состояния 45144
▁Sakın 45140
▁ota 45140
▁Ders 45131
▁тӑрать 45129
маган 45118
▁yönetim 45118
▁xil 45109
▁Saç 45107
▁teki 45107
▁оказ 45107
▁Ken 45103
baş 45097
▁əsas 45095
▁companies 45094
▁пултар 45088
▁verilen 45084
▁кәсіпкерлік 45073
▁стен 45070
▁maç 45069
гыла 45065
▁kitabı 45065
рыл 45063
▁kalmış 45062
▁Keşke 45059
▁другом 45059
▁сон 45059
▁gök 45057
анды 45048
ishiga 45046
▁төрле 45045
▁қоспағанда 45045
▁дата 45044
▁Оңтүстік 45043
▁переда 45036
▁parti 45017
▁понять 45017
▁pan 45012
▁көрсөткөн 45009
▁слож 45008
асаҡ 45006
▁ن 45000
▁Bakın 44999
▁araç 44992
▁ушын 44992
▁өзінің 44988
masi 44983
няя 44981
ическое 44980
▁istiyoruz 44980
▁хранения 44966
▁aşırı 44956
▁olası 44954
▁Тим 44954
▁takdir 44953
ипе 44940
▁biriyle 44938
▁değiliz 44928
ӑпа 44918
▁ранее 44915
▁yoxdur 44911
▁Мал 44911
▁встреча 44910
ыч 44908
бүз 44905
▁Turk 44903
▁fall 44900
▁заседании 44891
▁involved 44887
▁комплекса 44886
▁повышение 44885
▁EU 44883
ебез 44876
▁Шығыс 44869
гом 44867
▁sende 44866
▁возник 44866
▁muhteşem 44852
▁пулнине 44850
▁taqdirda 44841
▁сонымен 44833
▁әз 44829
▁apartment 44827
тарга 44826
▁Рух 44820
▁регламент 44820
urt 44818
▁due 44817
лаған 44816
▁oper 44814
▁Хотя 44802
▁хирӗҫ 44798
▁бюджеттен 44797
мәк 44788
ностей 44788
итов 44787
ілуі 44785
▁hikay 44785
▁Big 44784
▁patron 44778
тесь 44762
▁tələb 44761
▁tenge 44757
▁привед 44755
прав 44735
▁YOU 44735
malarını 44730
▁devlet 44729
▁gitmiş 44729
▁твои 44726
▁oz 44720
▁cap 44718
▁Ces 44703
огу 44702
▁olunmuş 44701
▁münasibət 44697
воз 44689
▁geldiğinde 44688
▁мәдениет 44683
emey 44681
сті 44673
har 44661
▁soğuk 44656
▁соның 44655
mel 44653
dakı 44644
▁үзе 44635
мыш 44633
▁Devam 44632
▁затем 44632
▁доллар 44630
▁бө 44629
illi 44625
▁Jim 44622
евых 44621
▁пулӗ 44621
ığımız 44617
▁ведомств 44612
топ 44608
▁завтра 44606
lendi 44587
әргә 44582
▁должность 44572
▁мониторинг 44569
▁feet 44567
▁пӑрах 44567
▁floor 44563
▁коммуникаций 44545
▁участок 44544
қы 44540
▁tarihlerinizi 44539
рали 44538
▁қабылданған 44537
▁завод 44534
▁Договарива 44527
▁shartnom 44522
▁yaptığım 44520
▁станет 44520
▁istəyir 44517
▁ӑнлан 44513
▁lider 44511
▁haqq 44508
▁произошло 44507
▁doğal 44503
▁offers 44498
▁haqidagi 44497
▁жаб 44486
▁итәр 44485
▁шешімімен 44473
▁появ 44472
▁looked 44464
▁соңғы 44464
▁трав 44460
▁demektir 44454
▁reg 44454
▁samarali 44444
ууда 44434
oyu 44431
▁ох 44426
ishimiz 44424
▁borç 44419
▁биле 44419
▁tutilgan 44416
oph 44414
▁юрат 44409
▁Prezidentining 44404
▁net 44392
▁жоба 44385
▁цели 44381
▁ведом 44380
ілетін 44377
▁ителгән 44374
ayıp 44370
▁Зачем 44370
▁жүргіз 44369
▁пан 44369
▁хыпар 44369
▁пәйгамбәр 44362
itch 44361
▁метров 44360
▁достав 44357
▁исем 44353
▁тӗп 44353
ərək 44341
▁çevr 44341
▁Ақтөбе 44339
▁Sarah 44333
▁күшіне 44327
▁йывӑр 44318
▁статьей 44317
еси 44315
mama 44304
▁FBI 44304
▁жұмыстары 44297
▁ər 44278
▁difficult 44275
▁kiritish 44269
▁mahsulot 44268
▁neydi 44266
▁унта 44266
лауға 44260
имов 44248
▁Пӗр 44242
▁җит 44233
▁reward 44229
▁oňa 44226
ғыҙ 44225
atsiy 44222
▁birga 44210
gina 44204
▁sometimes 44204
▁Türkçe 44197
lac 44195
челәр 44191
▁деректер 44190
▁Ком 44185
▁Андан 44177
▁pop 44169
▁Sa 44155
ima 44150
▁ibadet 44144
ığının 44141
калар 44140
▁straight 44135
▁app 44128
▁medical 44122
▁экономического 44119
анда 44118
▁kadının 44115
▁Ap 44104
tığım 44099
▁ıs 44094
▁Исраил 44091
▁соответств 44087
шин 44086
▁жатыр 44084
▁budur 44083
▁rights 44081
▁faaliyet 44079
▁кубаныч 44078
▁öň 44073
ider 44068
▁əmin 44067
▁басым 44060
▁Alman 44050
▁changed 44049
▁uyuşturucu 44047
▁discussed 44046
▁лицами 44042
ional 44040
▁ağaç 44030
▁Otele 44019
▁лич 44016
▁Библи 44013
▁ust 44008
▁masalalari 44000
▁мама 44000
▁дам 43997
▁pe 43995
▁helped 43991
▁kahve 43986
▁беҙ 43984
▁Вас 43977
ждения 43970
▁prayer 43970
mar 43966
▁Hello 43962
▁үлем 43962
▁энергии 43959
һының 43957
▁Программы 43957
▁Last 43954
▁verme 43943
▁Кал 43930
▁Gök 43919
▁значение 43912
дать 43909
▁mag 43903
▁hududiy 43900
▁аг 43888
▁azap 43882
▁parayı 43880
▁yazı 43880
▁Стар 43880
▁honor 43878
▁бүләк 43870
▁inşa 43865
▁сор 43865
▁яшәгән 43864
▁связанных 43862
▁ölmüş 43855
▁Коръән 43846
▁yetiş 43845
▁хӑйсен 43844
amıyor 43839
▁çocukları 43839
▁Нур 43824
▁görüşürüz 43818
▁Sat 43816
▁Bin 43796
▁iston 43796
▁Tabi 43794
▁hospital 43794
▁поможет 43779
▁şek 43776
▁belirt 43772
▁тӑракан 43772
we 43768
алов 43768
ىر 43767
▁edilir 43762
ейді 43755
▁дальше 43752
▁Джон 43746
▁зв 43742
erk 43740
▁тысячи 43739
▁Иеговӑна 43738
▁yürüt 43733
▁участков 43727
▁переп 43724
▁яш 43717
▁parça 43713
▁ме 43712
▁будете 43705
dün 43702
▁davomida 43695
▁колдон 43684
яж 43683
orr 43680
asiz 43668
▁eye 43663
▁named 43663
ational 43658
▁konusu 43649
▁представления 43649
▁build 43639
▁temsil 43635
▁ayr 43633
▁sohasida 43624
▁включ 43624
тех 43622
▁paid 43616
▁наша 43616
▁илнӗ 43611
▁информация 43601
▁правил 43600
▁өкілдері 43599
▁партнер 43597
▁qadın 43596
ja 43593
▁witness 43592
▁ning 43587
▁Парламент 43586
▁ценных 43586
инче 43581
▁жанындағы 43580
▁sokak 43575
қын 43574
▁работает 43572
▁Times 43567
▁avukat 43565
▁юр 43560
▁bizden 43535
▁UNICEF 43533
ИЛ 43521
<0xB0> 43519
ۈ 43518
▁couldn 43515
▁yiyecek 43515
▁актілер 43512
вое 43510
▁протокол 43509
▁болчу 43503
▁demişti 43496
▁қорытындысы 43496
▁Эта 43486
▁оқыту 43471
▁heaven 43466
▁жекелеген 43463
▁istediği 43460
▁hosil 43450
▁spor 43447
тым 43440
▁insanı 43436
▁ваҡыт 43434
оры 43432
▁kimsenin 43425
анных 43419
▁demiş 43413
▁günün 43411
▁çalışır 43408
▁sosyal 43401
ام 43394
▁goý 43394
▁yüksel 43393
▁сыз 43391
▁секрет 43390
▁Один 43387
dilar 43386
▁Onlardan 43382
▁Хан 43382
▁машина 43379
дают 43378
жет 43373
▁өр 43373
▁свобод 43372
▁prov 43359
▁ишенимдүү 43358
▁bilirsin 43356
▁feeling 43356
▁Департамент 43352
▁Пока 43350
▁forever 43343
▁etib 43341
▁Çünki 43333
▁Tut 43331
▁Бей 43325
▁Sil 43324
▁участка 43322
ators 43320
▁Eric 43313
▁талдау 43306
lanıyor 43305
ующих 43301
тән 43297
ылары 43294
erim 43290
▁миллиард 43288
тый 43287
▁яс 43284
▁Қызмет 43275
▁Эмне 43274
anan 43273
уть 43267
▁тізбесі 43260
▁köy 43255
илген 43242
▁Фонда 43242
▁повер 43240
▁Sır 43238
▁Ort 43237
уля 43234
▁өндіріс 43224
▁кино 43219
AB 43218
▁cover 43207
▁dosy 43205
ola 43203
▁сов 43202
isinden 43200
▁Before 43195
▁Ішкі 43193
▁оператор 43193
▁cons 43191
▁cl 43185
▁йорт 43181
▁шт 43181
▁АҚШ 43175
▁Məsihin 43173
сың 43169
тыру 43159
▁Үкімет 43149
▁sand 43148
шер 43146
▁алтын 43144
▁поро 43134
▁эп 43132
▁страх 43131
▁population 43129
▁öğretmen 43118
mada 43110
деги 43104
▁haven 43102
▁peş 43099
▁замеч 43094
▁хамӑр 43088
ыра 43079
▁Пожалуйста 43079
▁националь 43078
▁подпись 43076
▁Buradan 43072
▁savun 43072
AC 43071
▁Isoning 43061
▁siyah 43050
▁войны 43045
▁sürdür 43039
▁sek 43036
gın 43025
▁ST 43024
▁İletişim 43024
ікті 43022
▁зон 43022
рев 43021
▁edər 43019
бес 43001
▁hayatı 42983
▁ib 42982
▁century 42978
lenmiş 42977
▁Cl 42968
dyr 42967
▁кли 42962
есін 42960
▁Ag 42959
▁olaryň 42958
▁отдельных 42954
▁сыр 42950
▁contact 42949
▁виды 42942
▁кест 42942
▁conditions 42938
▁sebäpli 42937
▁kötülük 42930
▁патш 42927
▁görüyorum 42925
▁seviy 42922
▁koruy 42921
▁lady 42919
▁результатов 42916
мелле 42912
inlik 42908
▁tartib 42905
▁بىلەن 42903
▁vak 42902
▁Gallery 42898
▁Mir 42898
▁уполномоченный 42897
rim 42885
▁Bunları 42884
▁клуб 42884
▁sessiz 42875
meme 42874
сом 42869
▁cinsel 42865
▁olacaksın 42860
▁Roma 42854
▁yolda 42852
▁Yak 42851
▁вести 42840
▁partner 42834
atni 42825
▁ruhu 42820
▁Кабинет 42819
▁daş 42817
▁guruh 42815
▁атындағы 42813
▁extra 42806
▁mulk 42804
▁öldürül 42804
▁cool 42797
▁өтеді 42796
isiniz 42794
▁choice 42792
▁öý 42791
▁язылган 42791
▁gidecek 42787
tiği 42784
ват 42784
dığım 42782
▁düzelt 42782
▁микро 42775
▁söylüyorum 42774
rar 42769
▁mutlaka 42763
liğe 42756
▁Birleşik 42753
▁кач 42752
▁людьми 42752
▁Masih 42731
иниң 42728
ever 42727
▁сама 42727
▁değerlendir 42724
▁постро 42721
▁шын 42719
esiyle 42713
tiniz 42712
▁viloyatlar 42710
▁Bah 42705
▁жалға 42700
üğü 42696
▁tashkilotlar 42689
▁прив 42688
ön 42686
өө 42684
▁бағалы 42681
▁сугыш 42681
▁Prime 42668
▁кейбір 42667
▁Charles 42665
ӑсем 42664
▁отп 42664
mə 42661
▁nation 42655
▁Мәсәлән 42650
▁Eminim 42649
▁mercy 42643
▁дайын 42642
▁миңа 42637
▁eğ 42635
▁yoğun 42635
▁Боже 42631
▁numar 42623
▁кандайча 42622
▁жылдық 42616
▁ic 42615
▁представители 42611
▁другого 42609
үг 42607
▁ладно 42607
іні 42597
ılacak 42594
▁жаңы 42593
▁Another 42585
▁Many 42584
ila 42576
▁Facebook 42574
غان 42568
▁Нью 42565
▁использ 42562
▁IS 42559
меген 42552
▁leg 42538
▁dist 42531
▁сыйын 42530
илә 42527
llab 42523
▁amount 42492
▁Robert 42486
▁пис 42486
▁makin 42480
▁қолданылады 42476
oğ 42466
▁IT 42466
арға 42462
▁тир 42460
▁кӑлар 42456
▁sing 42453
▁completely 42452
▁dəfə 42449
▁Ник 42443
▁High 42437
▁İngilizce 42435
▁Council 42433
▁bulur 42429
▁Мат 42423
ura 42411
▁Rab 42411
ическим 42407
▁ox 42401
▁республике 42395
▁Йәһүә 42394
▁операциялар 42394
овая 42393
▁покуп 42387
▁Oraya 42384
ланса 42381
▁açıklam 42381
idd 42376
tib 42371
smoking 42367
ЕМ 42367
▁picture 42367
ified 42362
▁бирелгән 42360
iyyəti 42359
▁Mur 42355
▁наруш 42348
▁div 42343
ülü 42342
US 42338
▁başlangıç 42338
▁барган 42337
▁юридического 42334
▁находится 42330
▁подготовке 42317
▁келип 42315
▁öldürdü 42313
duğum 42312
ende 42311
▁тіркел 42310
▁Ted 42306
▁андан 42304
cy 42296
elerinin 42285
▁ах 42283
▁göstermek 42281
дах 42275
▁уни 42272
▁жактан 42269
▁farkında 42267
асынан 42265
var 42263
▁öt 42263
▁qurilish 42260
▁ауыр 42258
ччен 42256
▁olduğumuzu 42256
▁свыше 42235
▁звон 42229
еннән 42221
▁imkanları 42219
lərində 42214
▁кг 42207
гына 42205
▁крови 42204
овано 42202
emek 42201
▁мүл 42200
bed 42199
madık 42192
▁кәсіпорын 42190
▁процедуры 42188
илер 42186
bek 42185
▁берәр 42182
▁особенно 42180
▁üzərində 42174
строй 42169
▁niyet 42169
▁Есеп 42169
▁görmeye 42168
▁введ 42160
мей 42156
pi 42154
amayız 42152
▁berýär 42149
▁стала 42133
ылык 42128
▁состава 42120
▁вуласа 42119
▁iletişim 42115
▁servants 42115
▁провед 42115
уден 42111
▁төрт 42103
ИР 42088
▁гал 42076
▁gidiyoruz 42072
▁внесенными 42065
▁удар 42065
▁күрсәтә 42063
альными 42052
▁Hər 42047
▁Job 42046
▁чак 42046
▁жұмыстарын 42045
▁хӑш 42042
▁веб 42039
▁әйтелә 42039
▁жұмыстарды 42035
▁сем 42030
▁дәр 42027
гай 42023
▁месту 42015
▁istiyorsan 42014
▁состоянии 42013
▁İçeri 42006
zu 42004
▁тикшер 42001
▁началь 41997
ison 41995
үүдө 41994
▁һуң 41994
▁shows 41988
▁участием 41979
abiliyor 41975
▁endişelen 41974
▁rast 41970
ilerinin 41964
alarından 41960
▁ашық 41954
▁рассказ 41953
▁актами 41951
▁implementation 41949
▁призна 41948
▁verebilir 41943
▁беруге 41938
▁söylen 41935
тип 41926
▁жүйес 41926
▁Sin 41914
ality 41902
▁икӗ 41899
айтесь 41898
▁turgan 41892
▁застав 41890
▁şanslı 41886
▁Ничего 41886
▁богат 41885
▁agar 41884
ble 41880
▁sevindim 41878
▁Би 41877
▁Teşekkür 41874
ғай 41868
▁eğit 41866
OS 41861
▁olmasın 41861
▁Abraham 41859
▁daraj 41851
гіш 41849
▁Патшалык 41843
▁Им 41839
▁ground 41838
▁saldırı 41833
▁opportunity 41816
▁Write 41808
цияның 41807
▁пору 41807
▁moved 41804
▁минем 41803
▁мондый 41803
▁шығыстар 41791
▁çözüm 41789
ыңыз 41787
etini 41778
▁использование 41778
▁материалы 41777
▁сумм 41774
ателями 41767
▁fair 41766
lif 41760
▁med 41759
▁обнаруж 41757
▁məsləhət 41754
▁yaşamak 41754
усу 41753
ops 41752
▁yu 41743
▁xizmatlar 41739
▁learned 41731
اي 41728
▁resmi 41723
▁Kas 41722
▁April 41721
▁ant 41709
▁Road 41706
▁документации 41704
▁etdir 41703
▁kunda 41703
▁Genç 41694
▁bulmuş 41691
▁equal 41690
▁olman 41689
▁жүргөн 41686
▁Adı 41685
▁İngiliz 41683
▁форум 41681
<0xBE> 41677
▁Ro 41676
вел 41674
▁adamlara 41666
alash 41659
▁ұйымдардың 41659
». 41657
atör 41653
лесе 41653
▁sevin 41649
▁ediyoruz 41636
▁yağmur 41636
▁Үй 41624
▁счит 41623
лся 41621
▁заттар 41603
▁Kaptan 41598
▁Business 41595
▁дух 41594
▁обвин 41592
ұл 41589
еры 41587
чер 41587
▁дать 41586
▁incel 41583
▁педагог 41575
▁böy 41569
▁grand 41568
üğ 41567
eceğimizi 41562
▁жиын 41561
▁қазақ 41560
ически 41559
▁һум 41558
▁Information 41554
▁Агент 41550
әх 41545
▁alış 41543
▁функ 41537
üyü 41534
аза 41533
▁пайыз 41532
▁katı 41529
▁Са 41527
▁gor 41525
tun 41516
▁түрлі 41515
ҙары 41509
▁yöntem 41504
▁mücadele 41502
▁Республикалық 41501
▁голову 41500
▁услуга 41500
▁укреп 41490
iter 41488
▁Bl 41487
үшү 41481
▁программа 41469
▁Never 41468
▁Koc 41465
▁Robb 41461
yg 41453
lygy 41452
▁eriş 41451
▁тӑма 41451
▁apostle 41448
▁конце 41446
▁РФ 41439
▁Şol 41432
▁төл 41427
rom 41425
iləri 41420
araq 41415
▁побед 41408
▁Düz 41405
igini 41402
▁Lo 41401
▁китеп 41397
You 41387
uydu 41385
▁drop 41384
▁Ark 41380
▁мастер 41373
▁finally 41369
ýa 41361
▁вакытта 41360
▁кайрӗ 41359
▁палат 41356
▁необходимые 41353
bin 41352
▁конца 41342
▁коп 41329
▁хлоп 41329
▁результаты 41325
▁ләкин 41321
▁uzman 41319
▁yerden 41319
uyordu 41317
кому 41316
▁asking 41312
ека 41309
▁tag 41309
▁тікелей 41308
ілер 41303
▁сами 41302
▁халықтың 41300
▁Джей 41292
▁ве 41292
▁обороны 41291
ami 41290
гында 41289
вест 41288
амб 41287
▁тұлғалардың 41280
▁укы 41278
▁lmagan 41276
▁Durumu 41272
▁recent 41272
▁hall 41266
▁күрсәткән 41266
▁данной 41259
▁Pan 41253
▁мине 41249
medik 41246
ıyım 41244
▁миллионов 41237
▁бекітілсін 41235
▁погиб 41233
▁Их 41232
mıştım 41222
uğu 41222
lüğü 41217
rel 41212
Bu 41210
▁Şunu 41209
▁правиль 41209
▁Bilmiyorum 41206
▁кый 41206
▁sənin 41205
əh 41199
▁genel 41199
АС 41191
▁принимает 41187
▁ourselves 41183
▁расходы 41179
яр 41178
▁endiş 41173
▁instead 41168
▁ночью 41164
▁мерах 41163
▁ony 41156
▁dışı 41155
▁gelmek 41145
▁құжаттардың 41145
▁пуҫне 41141
ırken 41137
▁global 41134
▁кӑмӑл 41134
», 41132
▁Мӗншӗн 41128
▁медицинских 41128
ырып 41120
▁кодекс 41117
iyasi 41103
▁states 41102
▁insanlarla 41098
тр 41087
▁различных 41087
▁Му 41082
▁структур 41078
▁последователь 41073
▁дерек 41069
sil 41052
emezsin 41051
▁яңы 41051
▁member 41049
▁сыяктуу 41047
▁savol 41041
▁Христа 41039
udi 41038
▁RAB 41038
irt 41036
▁Side 41034
elerden 41030
▁массовой 41026
▁sınav 41021
▁App 41018
nie 41009
▁none 41008
▁similar 41008
▁андый 40999
▁екен 40998
▁motor 40996
▁Mc 40990
▁qayd 40989
alarida 40980
▁ия 40980
▁lütf 40976
▁uygul 40969
▁Göster 40967
▁Уағдаласушы 40963
▁мод 40952
тук 40951
▁Moliya 40950
▁нрав 40947
▁жақсы 40943
▁başlar 40938
▁nəs 40938
▁яҡшы 40938
тергә 40936
▁Ваш 40929
▁dile 40925
▁complete 40920
▁Amerikan 40917
▁некоторых 40917
▁сильно 40910
▁кыла 40909
▁Bor 40908
▁olduğunda 40890
▁тепӗр 40885
▁ыс 40880
▁dini 40876
▁тұлғаның 40871
▁kelim 40867
▁demand 40864
▁пришел 40864
▁pazar 40861
▁чеч 40858
ener 40847
▁пама 40847
▁Dikkat 40834
elli 40832
▁Кен 40829
eç 40828
▁anlamı 40828
▁issue 40827
▁инвести 40817
▁Co 40816
▁edirlər 40816
▁бастығы 40814
мек 40807
▁выдачи 40806
анные 40801
▁type 40800
amadı 40796
ınızın 40793
▁шан 40786
сун 40774
уется 40772
▁Ҫавӑн 40772
▁adresi 40770
▁weak 40770
▁зарегистрирован 40769
▁emir 40767
▁Mes 40766
▁женщина 40760
▁Можно 40757
▁какое 40755
▁machine 40750
▁Сергей 40749
▁Richard 40746
▁öv 40745
▁foot 40744
▁reception 40740
▁qildi 40734
▁грузов 40733
▁ҡал 40732
▁üy 40731
luq 40729
▁мәғлүмәт 40723
ющиеся 40722
алып 40719
▁Bit 40719
точ 40718
▁harbiy 40717
▁yurit 40716
▁kims 40713
▁болмаған 40711
än 40706
▁match 40705
▁Ий 40704
▁baz 40693
▁yapı 40689
▁мерзім 40687
▁кітап 40671
▁хатшысы 40669
▁дай 40665
▁результат 40661
▁эшләгән 40656
▁екенін 40655
того 40652
▁истор 40652
▁экономической 40649
▁категории 40642
▁qilayotgan 40640
▁alm 40638
▁odamlar 40635
▁yeryüzünde 40628
iti 40627
▁региона 40621
▁Mazkur 40618
▁зерттеу 40615
▁хатӗр 40615
▁привле 40611
министра 40607
▁медицинского 40607
▁елді 40604
▁ism 40602
▁Өфөлә 40598
▁Earth 40585
▁sea 40584
In 40577
▁İl 40577
▁подготов 40573
▁зам 40569
▁heyecan 40558
▁акты 40555
▁учебных 40555
▁Ammo 40550
elerde 40547
▁нашли 40540
▁elinde 40539
масть 40537
▁каҫ 40534
▁neither 40517
▁cam 40516
▁могла 40513
▁убить 40512
▁Род 40508
циялау 40507
▁произвед 40506
▁tizimini 40503
düğ 40501
▁жағ 40498
▁huzuridagi 40497
▁oid 40494
▁Указ 40490
▁кылууга 40490
▁especially 40489
▁жататын 40487
жив 40481
▁пурте 40479
▁muhokama 40474
▁орай 40469
унан 40457
▁Birçok 40456
▁улу 40454
ishlari 40450
уларды 40441
▁хозяй 40440
▁әл 40440
▁проро 40438
▁tasar 40432
▁doubt 40413
medin 40411
▁gunoh 40405
▁шы 40404
цами 40403
▁финансового 40401
▁обо 40398
▁super 40394
▁наступ 40389
▁evlilik 40383
▁жастар 40383
пт 40379
▁record 40378
▁йй 40373
ләнә 40369
гра 40367
▁вед 40364
▁елдің 40362
eless 40361
anlara 40356
▁финансовой 40356
▁current 40353
▁жерг 40349
▁Том 40343
▁бюджете 40343
▁приоритет 40343
ЫН 40341
▁лу 40338
▁Eli 40334
▁дайыма 40325
▁органах 40325
аман 40323
▁Ошол 40323
әз 40321
▁Kitob 40321
▁qiymat 40320
ends 40318
гах 40307
▁göy 40305
▁arkadaşın 40304
▁явля 40291
▁улы 40286
▁мисс 40284
▁Hepimiz 40281
▁Excuse 40280
rem 40270
▁bulaş 40266
▁тән 40266
▁Аз 40264
▁kuch 40262
мш 40260
▁общей 40253
İM 40231
▁Dom 40231
▁holy 40231
▁qarori 40226
реш 40221
оде 40216
▁жобасын 40214
кө 40210
▁erk 40207
▁дүйнө 40205
▁заслу 40205
эл 40204
▁cehennem 40202
▁Jane 40182
▁тыйым 40180
▁expect 40179
▁сүр 40176
▁Нас 40165
▁olduklarını 40163
▁Какой 40158
ۇن 40157
▁жителей 40157
▁several 40155
▁государственный 40151
шаралар 40149
бабының 40145
▁lt 40137
▁вашей 40136
▁AND 40129
▁осуществление 40129
nan 40128
▁Markaziy 40125
▁lash 40125
▁вру 40124
▁olayı 40118
▁oku 40115
▁сату 40110
дырып 40107
▁koca 40106
▁Got 40104
▁хөкем 40103
дается 40098
▁rich 40098
▁силы 40096
▁сыв 40096
▁таны 40095
▁сделали 40092
ising 40088
liğin 40083
▁qiling 40074
ишься 40073
▁Shuningdek 40067
▁ähli 40066
▁қолданыстағы 40066
▁ықпал 40065
▁киңәш 40064
▁davr 40062
▁Моя 40056
alarında 40045
uel 40040
граф 40040
▁болууга 40033
рил 40026
▁Russia 40021
▁жоб 40016
▁işim 40010
▁olmalısın 40009
▁доме 40007
▁öldürür 40006
ues 40003
leyin 40000
▁День 39999
ۈن 39994
▁Il 39993
▁dinlem 39992
▁предусмотрен 39985
▁прин 39985
▁Общие 39984
▁газа 39982
▁адамның 39980
чем 39977
дег 39974
елем 39974
▁mik 39974
ӑрса 39968
▁Ateş 39968
emiyorum 39959
▁öğrenc 39957
▁ы 39952
▁belirtin 39945
▁файда 39942
▁tayin 39941
▁текущего 39941
▁тес 39941
kü 39940
▁progress 39940
▁йылда 39936
▁Development 39932
▁web 39929
▁mesel 39923
▁мәдени 39923
▁add 39920
▁kiş 39920
▁Язмаларны 39920
▁активов 39919
леме 39918
▁өндірістік 39914
альную 39909
▁tir 39907
▁акту 39898
▁nümun 39891
▁мәслихаттың 39887
▁жакын 39884
▁Башҡортостандың 39883
▁опас 39878
▁Phil 39872
▁Ам 39868
▁патша 39867
▁aff 39858
amın 39857
▁представляет 39850
▁пару 39848
чәк 39847
▁bahsetti 39847
▁Узбек 39846
▁ведения 39841
▁rate 39839
▁точ 39839
▁обязатель 39834
дор 39833
кту 39832
etik 39830
▁дис 39830
▁till 39829
▁şaşır 39829
▁Lekin 39822
ibe 39816
▁ustidan 39815
▁текст 39808
▁brain 39805
▁бро 39799
▁использованием 39798
▁учурда 39798
▁Ancaq 39795
▁Jimmy 39794
lığına 39792
▁үткәр 39792
▁берді 39789
▁празд 39789
▁anlıyorum 39785
▁материалдар 39783
bs 39782
uly 39773
▁Email 39770
▁зло 39768
үүнү 39767
▁приняли 39760
▁Атырау 39759
▁прис 39758
▁слуш 39757
inizden 39754
▁пот 39753
▁жөнүндөгү 39752
üstü 39751
▁рост 39750
▁Қытай 39750
▁жерлер 39748
▁типа 39747
▁aşık 39746
▁oldin 39745
▁предложений 39741
▁Afrika 39733
▁hakim 39724
▁родителей 39722
▁келіп 39719
▁mankind 39717
кол 39714
▁çant 39711
әлә 39707
▁boğ 39704
▁шик 39704
▁economy 39701
▁предмет 39684
▁eight 39683
ілігі 39678
TS 39675
▁Еще 39672
▁bileris 39670
▁French 39660
▁Рөстәм 39646
▁boshlab 39644
▁article 39640
▁sağlar 39630
гать 39626
bur 39619
ilmoqda 39619
▁ishlash 39614
▁ran 39612
▁өст 39610
▁төш 39608
▁помещ 39603
▁Sakin 39601
ақта 39598
▁функцион 39595
▁Tal 39593
▁һөй 39592
▁болушу 39589
▁Güney 39585
əz 39583
▁built 39581
▁ҳ 39581
▁Gid 39572
уск 39567
▁физических 39558
▁ajrat 39545
زى 39544
▁ПР 39541
▁aldat 39540
▁жылу 39534
▁комп 39533
▁деди 39532
tiv 39531
▁хоть 39530
▁Аль 39522
▁театр 39522
ләй 39519
▁генер 39511
▁формирования 39510
▁seeing 39502
▁hakkındaki 39497
▁сведений 39495
▁общественных 39494
▁points 39493
▁окру 39488
▁любви 39485
▁müəyyən 39483
▁дости 39482
▁Art 39481
▁search 39480
▁iyisi 39475
ability 39469
acaklar 39468
шает 39467
▁rock 39467
дом 39465
▁лож 39462
▁кемінде 39461
▁draw 39460
liğ 39459
inci 39455
ион 39454
▁department 39452
▁закры 39447
▁қылмыстық 39443
▁towards 39440
▁даярлау 39434
▁послан 39431
▁қалған 39429
▁жашаган 39428
нике 39426
add 39423
▁обрат 39423
▁district 39422
▁понял 39419
▁качан 39416
▁нәтижесі 39416
gü 39405
edeki 39404
alet 39402
▁ше 39401
imler 39396
▁моих 39396
▁iyiyim 39394
▁наше 39394
▁Қазақ 39390
▁chor 39389
▁çocuğun 39389
▁kamer 39386
рий 39382
▁Asla 39380
ющее 39378
ендәге 39377
▁İnsanların 39371
▁департаментінің 39364
OT 39357
üre 39354
▁число 39353
▁оформ 39348
▁регулирования 39346
тәре 39343
▁qaz 39343
ologiya 39339
▁kishi 39338
▁нек 39336
اپ 39333
▁qan 39332
▁башкалар 39332
▁моны 39329
▁честь 39329
циясының 39325
▁привлек 39314
▁yaxud 39310
▁сторон 39299
▁пара 39298
▁доктор 39293
ığınızı 39289
▁afraid 39289
▁söylüyorsun 39289
▁Görünüşe 39278
▁təşviq 39277
▁Nursultan 39265
ector 39264
tal 39264
noma 39258
lenen 39251
▁thr 39248
нал 39246
▁events 39246
▁ры 39239
ылығы 39234
▁Şüphesiz 39224
▁исправ 39223
▁Прин 39216
reat 39213
▁lsa 39210
▁Ескерту 39210
▁сооружений 39204
▁сообщает 39196
▁biler 39194
▁нормативных 39194
дөй 39193
істер 39191
UM 39180
off 39180
<0x97> 39174
▁Ил 39167
atish 39161
enti 39160
фик 39159
▁hukm 39159
ladın 39157
▁үн 39153
yo 39149
ures 39147
meliyim 39127
▁перев 39126
▁қоры 39122
▁мемлекеттің 39118
▁Мас 39117
▁etmeli 39114
mene 39107
▁степени 39107
▁Office 39105
▁алат 39103
▁сияқты 39103
▁белә 39099
▁başında 39092
əsində 39091
▁hor 39089
▁четыре 39088
▁Thus 39079
▁мел 39076
دىغان 39073
▁әкел 39072
▁наслед 39065
▁righteous 39062
▁целом 39060
▁материалдық 39058
▁forward 39057
▁sharoit 39056
ن 39051
▁эс 39049
▁Neler 39042
▁шәһәр 39040
▁disp 39035
▁tanıyor 39035
▁voice 39026
▁Specify 39023
▁figure 39019
era 39015
сам 39012
▁işit 39004
▁означает 39001
▁Erkek 39000
ительная 38997
ӑпӑр 38997
▁qadar 38989
▁вступ 38984
imizə 38983
▁anladım 38981
▁өндір 38978
▁Пирӗн 38971
miştim 38964
▁zalim 38957
▁Hide 38956
▁işine 38951
▁makinesi 38951
▁tarmoq 38951
▁star 38936
▁лиш 38932
▁Ajan 38930
▁çeşitli 38929
▁playing 38922
▁yüre 38922
▁ölür 38917
▁çök 38916
елерін 38911
▁travel 38909
орм 38902
▁янӑ 38902
▁Заңының 38892
acağına 38884
▁kızlar 38877
стыру 38876
▁вне 38872
lərdə 38868
рис 38863
▁bear 38863
▁воспит 38859
ниц 38855
▁üzündə 38852
▁Film 38845
asyonu 38844
▁уәк 38835
лт 38830
▁Spor 38824
▁AN 38823
екте 38818
▁sekiz 38809
▁плот 38806
▁Dam 38801
▁fellow 38799
▁водо 38795
ture 38794
▁piece 38793
▁переж 38777
ork 38775
▁gold 38774
rop 38771
azı 38766
▁bahç 38763
▁Internet 38762
▁vositalari 38757
▁kichik 38755
▁term 38755
▁своевремен 38755
▁спасибо 38754
һе 38750
▁показателей 38749
▁gayet 38740
▁мыйзам 38734
▁baban 38733
▁tedavi 38730
▁исследований 38727
▁Russian 38723
▁Da 38708
▁қыз 38704
▁пр 38695
▁yazdı 38690
▁создан 38690
имиз 38688
▁өнер 38687
Evet 38686
▁жүктелсін 38685
▁эксперт 38683
▁School 38680
▁role 38677
fe 38673
бызга 38673
▁Sand 38673
▁letter 38666
▁moddiy 38664
▁посредством 38664
▁sevinc 38663
теген 38656
cə 38655
▁неправ 38655
▁nim 38654
▁киң 38654
▁develop 38653
▁promised 38647
▁времен 38647
▁North 38643
▁нерсе 38639
bor 38638
itions 38635
▁düşünün 38635
▁Everybody 38632
LER 38630
фика 38629
▁сора 38625
▁remain 38624
▁қоғам 38623
тардын 38619
лах 38618
▁нысаналы 38614
▁revealed 38606
tiler 38604
▁ситуации 38604
АК 38603
▁келе 38601
nik 38595
olojik 38592
▁halled 38592
▁kahraman 38591
▁әмма 38589
▁идем 38586
▁бірыңғай 38585
▁ирӗк 38585
▁Özellikle 38584
▁akl 38578
▁kelime 38577
▁shoot 38576
▁кӗл 38563
▁belg 38562
▁ескере 38562
▁благодаря 38560
▁реализацию 38558
геҙ 38552
▁содерж 38551
قا 38548
▁встреч 38548
▁Петер 38545
▁биринчи 38542
▁açıkça 38540
▁guests 38537
▁computer 38534
▁bazıları 38530
▁Ибраһим 38521
▁kimseye 38514
▁пӗ 38512
rain 38508
▁сообщ 38507
▁исследования 38504
▁opened 38496
▁общественного 38490
▁ortiq 38488
іңіз 38486
The 38484
▁техник 38484
▁thy 38478
▁simple 38476
onda 38470
ицы 38467
işim 38466
tuk 38466
▁Sür 38466
▁Очень 38463
ышкан 38462
зин 38452
▁nefes 38448
ebilecek 38440
▁Yanlış 38440
▁Мер 38439
▁isle 38437
▁quality 38430
tirish 38427
▁примен 38423
▁веществ 38422
istic 38420
▁жақ 38419
▁рассмотрение 38419
▁sığın 38418
әмә 38415
▁порт 38414
әп 38404
▁вечер 38394
▁prinsip 38391
lus 38390
▁таба 38383
▁жібер 38368
▁undan 38362
▁changes 38361
шысы 38357
лыгы 38355
▁mur 38355
abb 38353
▁inanılmaz 38353
лось 38349
▁креп 38341
▁pas 38338
▁алты 38333
▁Fred 38327
шую 38326
▁Chris 38326
▁qul 38325
omat 38313
куп 38310
▁gay 38310
▁Birbir 38303
▁Министерстве 38299
▁транспортных 38289
▁toplam 38280
▁Бол 38278
▁налогоплатель 38275
▁Rec 38272
▁gitmem 38267
▁gösteren 38266
▁industry 38266
▁ниже 38265
▁Жеке 38260
dam 38258
▁att 38255
▁проекты 38246
▁Ask 38244
▁келесі 38244
siyalar 38243
ters 38243
▁Sağlık 38236
▁investment 38235
▁Ур 38235
очные 38230
▁Oğlum 38228
▁ton 38227
▁however 38225
▁перечень 38225
АЗ 38221
▁неё 38215
inal 38214
etli 38211
▁places 38210
▁сапасын 38210
▁чет 38209
▁qarat 38204
▁touch 38201
АЙ 38198
▁нәтижелері 38197
▁алушының 38193
▁приема 38191
▁galiba 38190
Sh 38182
уру 38182
▁тӑв 38181
▁kızın 38178
пис 38175
▁politik 38172
▁рек 38159
аю 38158
▁haft 38156
▁Joseph 38154
▁spent 38153
▁airport 38150
▁қазіргі 38148
▁занима 38140
▁Güneş 38139
▁Председателя 38134
▁Med 38127
▁вол 38127
atga 38125
▁систему 38123
etim 38120
ix 38117
ӑҫ 38104
КО 38102
▁тат 38102
▁hisobot 38098
▁iddia 38096
▁üçüncü 38096
▁iyidir 38093
▁эмнени 38093
▁gürrüň 38091
▁ilet 38090
▁renk 38088
▁гыйбадәт 38087
▁dava 38084
▁diqqət 38083
▁Bol 38078
▁мени 38078
▁ӑш 38077
фор 38070
▁Suç 38070
▁команда 38066
ately 38062
▁görünüyorsun 38053
▁сердца 38053
тори 38050
▁единиц 38048
ленной 38035
▁leaving 38034
▁взаим 38033
▁ndan 38028
гам 38024
▁community 38024
▁durmuş 38017
▁бірлік 38017
▁mouth 38014
ушілер 38012
▁қаланың 38012
▁мәсихче 38003
▁целей 38003
ýäris 38001
eceksiniz 37997
▁kendisini 37996
▁күбрәк 37994
иты 37993
▁anlayış 37987
▁cop 37983
▁Han 37981
▁kullanarak 37980
▁tovar 37980
▁жилья 37980
ндетт 37979
▁бөлімінің 37977
ӑт 37975
▁idoralar 37974
▁bilsin 37972
məz 37971
тарнӑ 37971
▁начар 37970
▁sanoat 37969
▁аҙ 37966
▁закона 37963
▁килеп 37962
▁Hi 37950
▁произ 37944
▁прода 37943
▁Похоже 37938
▁проход 37938
▁киткән 37934
▁тартып 37934
▁bayram 37932
▁mid 37927
oul 37920
▁Print 37920
▁школ 37918
оғ 37915
▁еди 37905
▁görül 37903
▁вӗрен 37901
▁Безнең 37897
▁yasak 37894
▁совершен 37894
▁Шул 37893
▁эз 37891
▁бөлек 37889
әли 37886
▁written 37885
лась 37884
lıdır 37883
▁German 37881
▁электронного 37880
▁sağlamak 37875
▁заинтересован 37874
▁enerji 37870
ories 37864
▁тухнӑ 37861
әре 37859
▁кәсіпкерлер 37859
▁dağıt 37857
▁частности 37855
әге 37850
▁многих 37839
▁conduct 37835
▁nedeniyle 37827
аһ 37823
▁иные 37822
▁yerə 37817
▁өткіз 37812
яли 37810
▁green 37806
▁акта 37799
imizden 37797
ерин 37794
▁ayrim 37792
▁avval 37791
▁Конститу 37786
atan 37783
▁success 37778
▁әйтелгән 37771
ental 37765
▁mass 37761
eceğimiz 37759
▁qatnash 37756
▁Sav 37753
▁Представ 37753
lon 37752
▁печ 37751
▁mem 37739
▁istemez 37738
▁лекар 37731
ýärdi 37728
▁инспек 37727
ланӑ 37726
▁Yetişkin 37723
▁bulunuyor 37718
▁meters 37715
▁Güvenlik 37706
▁fa 37703
▁связанные 37703
▁ұстау 37701
ınızda 37696
ором 37696
▁explain 37695
▁мерзімді 37695
udu 37691
▁getirir 37683
▁Kitabda 37682
ысты 37672
▁kurum 37672
▁Eger 37671
▁anymore 37671
▁эффектив 37671
▁миров 37666
▁чему 37663
▁бә 37659
▁наказ 37659
▁нат 37655
асыз 37647
▁доход 37636
▁yazık 37627
▁Yapma 37626
▁saq 37620
▁fl 37616
▁ұйымда 37616
▁ýol 37615
еләр 37613
▁bulundu 37610
▁Кат 37606
▁заг 37601
▁холод 37599
нг 37598
raf 37594
▁gelmez 37594
▁Ташкент 37590
▁зарыл 37585
iving 37579
▁günde 37578
▁Наш 37573
▁источников 37573
дең 37570
▁Allahı 37570
▁Сво 37570
▁aniqlash 37567
▁başga 37567
ırız 37566
▁financial 37566
▁сө 37559
▁ederler 37553
▁Федерации 37541
▁cur 37538
▁Manchester 37533
▁razı 37530
▁Mahkamasining 37528
▁uygulam 37528
▁iborat 37525
▁правед 37525
▁moving 37524
▁fish 37522
ност 37509
con 37508
▁benefit 37505
теріне 37501
▁Kul 37500
исем 37499
▁Тө 37498
▁нарық 37498
luyor 37492
ett 37488
▁buldu 37488
masının 37485
lemeye 37483
▁considered 37481
iyə 37480
▁ҫынсене 37478
▁накоп 37466
▁ödül 37462
▁Од 37460
ağını 37455
▁обучение 37455
▁транзит 37454
▁dollars 37444
оо 37436
ony 37432
▁статье 37418
▁полиции 37416
▁hotels 37410
▁нуж 37409
▁случай 37409
щей 37408
▁talep 37398
▁соответствующие 37397
▁Although 37393
▁безопас 37393
makta 37392
▁araştırma 37392
▁дамытуға 37392
цен 37387
low 37386
▁yürüy 37386
ләрдән 37382
▁kiss 37377
▁Мистер 37372
▁ekran 37366
▁Ой 37365
▁конкур 37363
▁түш 37363
▁Comp 37358
uyoruz 37355
▁tizim 37354
▁чык 37353
▁korum 37350
▁vazif 37350
▁Black 37348
▁related 37347
ительства 37346
▁иҫ 37346
▁теләгән 37346
ИС 37342
щего 37342
▁Anna 37333
▁шағым 37333
▁көрүп 37319
▁сала 37319
▁обращения 37317
lıkla 37316
tum 37316
▁пӗлтер 37313
▁söyleme 37311
▁например 37302
▁технологиялар 37300
▁конец 37297
▁отлич 37297
▁Gidin 37296
▁ata 37296
▁göm 37296
ілі 37288
▁Hat 37284
▁Out 37277
▁участ 37277
▁донъя 37276
▁медицина 37266
▁международного 37265
жыл 37262
ns 37258
раҡ 37258
▁qaç 37256
▁arad 37253
▁туй 37249
▁хаким 37245
IZ 37244
▁olub 37242
va 37241
▁механизм 37240
▁уход 37240
алим 37237
▁государственные 37233
ылан 37231
▁айрым 37227
▁anı 37225
▁Нух 37218
▁Дай 37213
sının 37211
торы 37210
▁destroy 37208
▁Батыс 37208
▁verən 37206
▁данным 37205
▁yerda 37202
mini 37200
▁ill 37199
aret 37189
▁Trans 37186
azi 37176
▁vakti 37171
▁miras 37170
▁жылына 37170
▁location 37167
▁policy 37160
▁ог 37158
вести 37157
uf 37151
▁миним 37151
▁Mel 37150
▁имущество 37150
▁случаев 37150
▁вижу 37149
▁Давыт 37144
▁beyler 37142
▁deeds 37141
▁Пет 37137
▁bunda 37134
▁lived 37130
rish 37119
▁inst 37117
▁служ 37114
▁raisi 37109
▁ishon 37100
дырыл 37097
▁Muhammad 37093
▁Жаз 37089
▁Def 37083
▁ытти 37083
▁Also 37082
▁ibodat 37080
▁Şahit 37080
ӗк 37069
▁язык 37065
▁потер 37058
▁аст 37053
▁кенә 37053
▁həqiqət 37048
▁заполн 37046
tınız 37043
▁турар 37037
▁исслед 37033
▁treat 37031
діру 37030
▁қосымш 37029
▁ECTS 37026
▁объедин 37026
▁Rob 37025
нев 37024
▁bodies 37023
▁Oyun 37015
▁груз 37013
▁Harry 37005
▁desire 37002
▁поддерж 36998
▁yapalım 36997
▁قىلى 36994
▁relations 36993
▁fer 36992
▁gl 36992
▁buldun 36991
ткан 36989
▁тағайындау 36979
▁билдә 36977
▁баарын 36976
▁yaratish 36975
▁Ооба 36974
ивал 36971
▁Акмолинской 36970
▁тоқсан 36965
aydın 36963
▁инвестиция 36962
▁тейеш 36962
evi 36961
▁bitch 36961
▁tərəf 36958
UT 36955
стардың 36955
▁geçer 36949
▁статисти 36947
нә 36946
ves 36942
▁расшир 36942
▁палаты 36936
▁transfer 36934
▁всеми 36933
▁military 36929
▁çıkmış 36926
▁жұмысқа 36923
▁mev 36922
▁коллектив 36919
▁құқылы 36918
стыр 36914
▁tort 36912
▁көб 36911
▁beginning 36907
▁ұзақ 36906
▁hediye 36904
▁Эсӗ 36904
▁одном 36904
▁Antalya 36899
▁чём 36898
▁рынке 36895
▁Tony 36894
▁shut 36884
▁оплаты 36880
▁вспом 36876
ейтін 36872
▁major 36869
▁уш 36869
▁arkaly 36866
▁ялган 36861
аттарын 36855
▁қызметкер 36855
▁Надо 36854
▁beyin 36847
▁автор 36845
▁самого 36838
▁eh 36836
▁ordu 36834
рыв 36831
▁davam 36828
▁составе 36828
duğunuz 36825
▁ош 36822
▁ҙур 36822
▁қызметке 36822
▁Sim 36821
раб 36819
бой 36818
▁Мил 36817
ird 36815
малли 36812
ывал 36811
▁info 36810
▁nda 36808
▁gittim 36806
ekleri 36805
▁zlari 36805
▁willing 36804
хран 36800
▁иди 36796
▁тӗслӗх 36792
umun 36775
▁uyan 36773
unlar 36768
▁padşah 36767
▁предлага 36766
▁arıyor 36765
▁кӗт 36764
▁Ұйым 36763
ләш 36754
▁prop 36752
▁частью 36750
▁uzaklaş 36748
▁научных 36748
▁board 36746
▁қаңтардағы 36745
▁ildə 36739
нулся 36738
▁tərəfindən 36738
yer 36735
▁ilham 36734
аторы 36733
▁выполнение 36733
ladığı 36732
▁барысы 36730
urdu 36729
▁fak 36727
ҫҫ 36724
▁tibbiy 36715
▁believed 36709
▁нашу 36704
▁населенных 36702
▁dedin 36700
▁bakma 36697
▁қатысушы 36697
▁адамдардың 36696
▁бан 36694
▁годов 36694
▁кич 36689
ünə 36679
▁aut 36674
▁опис 36673
▁yaparım 36668
▁vacib 36666
▁boshqaruvi 36660
▁вәгъдә 36659
▁айтуу 36657
▁Muh 36655
▁sıkı 36654
▁calls 36652
▁правильно 36651
▁испыт 36649
▁выбор 36648
inle 36647
sc 36638
▁ear 36630
▁Peyğəmbər 36626
▁давай 36623
▁Rah 36622
▁камил 36621
anyň 36620
▁Sayın 36617
▁eğlenceli 36616
бол 36610
ивает 36607
malari 36605
▁Very 36605
▁сферы 36601
▁планируется 36597
▁хим 36594
ency 36592
▁humans 36590
▁kilit 36588
▁yalvar 36586
<0xBC> 36584
dikleri 36582
▁fan 36577
▁Оп 36573
имости 36571
▁определ 36570
орган 36566
▁Fin 36564
▁ichki 36563
▁хорош 36562
▁столицы 36559
▁tanık 36555
▁zi 36555
▁adlandır 36551
▁hath 36551
▁мүгедек 36550
ished 36549
▁малень 36549
учу 36547
II 36534
▁думала 36532
▁technology 36531
▁руку 36531
▁меш 36528
▁appointed 36527
дия 36524
▁күк 36524
▁яһ 36522
▁кәсіби 36512
▁жум 36511
▁операция 36509
gel 36503
▁Tor 36501
ливо 36497
▁natural 36495
izmi 36493
▁file 36483
▁верно 36483
▁таможенных 36483
▁window 36482
▁нав 36481
СК 36480
▁оба 36478
▁Doğrusu 36474
▁açıq 36474
▁پ 36474
▁kapıyı 36470
▁perform 36469
▁Сем 36466
▁Zor 36461
▁başvur 36461
layıcı 36460
▁demişdi 36460
▁itiraf 36451
▁коммер 36450
▁Ali 36449
цент 36448
▁Говор 36448
▁толықтырылсын 36447
▁тегі 36445
är 36444
▁ми 36443
▁халӗ 36442
▁очраш 36440
ilerden 36439
▁reading 36437
▁imkoniyat 36431
▁нысаны 36425
ою 36423
▁Гол 36420
▁ясно 36420
шка 36419
▁provides 36419
▁жолы 36419
▁Baban 36418
▁Galeri 36410
▁Sw 36409
▁паль 36404
▁قىل 36403
▁dəyiş 36396
▁paper 36390
eds 36384
▁опять 36381
▁uzat 36379
▁нужны 36374
▁karş 36371
▁иннова 36371
eceğiniz 36361
▁rioya 36359
▁Аллаһуга 36359
ater 36357
▁Off 36355
▁süt 36354
ҙәре 36348
çy 36346
▁BM 36343
▁говорили 36338
▁cross 36331
▁дерев 36331
▁naf 36330
Министр 36326
▁Make 36324
گ 36323
▁сотрудников 36315
▁вашего 36312
▁dışarıda 36309
▁кы 36307
▁яҡ 36303
▁капит 36295
▁öp 36287
▁кейінгі 36284
▁міндет 36283
▁Güven 36281
▁exchange 36280
▁небес 36280
dıq 36279
▁ov 36278
▁aray 36274
▁Grand 36273
▁bacı 36273
най 36271
▁өсу 36269
▁қарым 36268
▁хозяйств 36266
▁Merak 36259
▁проблема 36258
emeyiz 36255
▁ува 36255
ides 36251
▁vasitəsilə 36248
▁турист 36248
▁izley 36246
▁очеред 36240
ИЯ 36238
иро 36238
lie 36235
▁bos 36234
▁мое 36234
ulation 36233
▁subject 36233
▁patient 36232
▁пир 36232
▁olmad 36230
▁подлежат 36223
zaro 36217
▁perhaps 36216
▁sahte 36212
əş 36205
▁markazi 36204
ased 36203
▁Martin 36201
министр 36198
▁ытларах 36195
▁məni 36192
ағын 36191
▁yaptığın 36184
еше 36182
уются 36179
сө 36178
▁çıkıp 36178
▁съ 36177
▁melek 36174
▁round 36171
▁Дом 36169
rup 36164
▁belong 36164
▁yür 36159
▁подчеркнул 36156
joy 36155
▁ў 36153
amda 36150
▁sevinç 36147
▁showed 36143
▁düğ 36137
▁məsihçilər 36137
▁Никто 36131
anlı 36125
ательных 36124
▁посел 36123
uch 36120
▁January 36117
таган 36108
▁çalışmak 36108
udy 36107
▁cold 36104
star 36101
▁anyway 36100
iyatini 36095
▁seek 36092
▁ziy 36091
ağına 36089
▁boyun 36088
▁Child 36086
▁June 36082
ушылардың 36081
▁вет 36077
дерінің 36075
деген 36073
▁выпуска 36072
яв 36069
▁семья 36067
▁Remember 36066
ination 36064
uyorlar 36054
▁calling 36054
▁misafir 36053
▁Deniz 36050
▁beg 36050
▁ulaşım 36048
▁радио 36047
▁Süleyman 36045
▁bilməz 36044
▁отчетности 36041
бит 36032
▁koşul 36032
ремен 36031
ымдық 36031
▁İman 36029
▁loyih 36027
▁fell 36026
jek 36024
▁correct 36024
▁ش 36020
тим 36017
ткен 36016
ваем 36015
▁делаешь 36011
▁Жыл 36009
▁зад 36005
▁твою 36004
▁Бүгін 35999
▁worse 35998
▁rain 35997
ываются 35996
тиру 35995
ИК 35989
▁физической 35982
▁vaziri 35980
avi 35978
▁alacağım 35977
▁mustahkam 35974
▁söylemiş 35967
▁daima 35962
▁XX 35961
▁çoktan 35960
▁ягъни 35958
▁various 35954
▁Hold 35949
өп 35943
кс 35939
▁miqdor 35937
коль 35933
▁Ислам 35932
▁kasb 35929
▁рождения 35926
▁catch 35921
masın 35920
گەن 35915
▁мон 35912
дий 35910
бен 35909
▁bahsed 35908
▁March 35906
▁terms 35906
▁ақша 35906
dor 35902
▁установленных 35897
▁biziň 35894
▁правовых 35891
▁тон 35891
▁яңа 35891
▁Kendimi 35890
▁kod 35890
▁вокруг 35886
▁профилакти 35886
ву 35883
▁образовательных 35883
▁kızım 35874
ilsin 35872
▁charge 35869
▁söylemişti 35869
▁Star 35867
▁защит 35867
▁Потом 35865
АМ 35863
щий 35862
▁вернуться 35861
İK 35859
юр 35855
▁парать 35855
фф 35854
▁тасымал 35853
▁Тау 35850
▁қатысуымен 35850
▁wepaly 35842
▁azal 35840
▁вар 35840
▁wonderful 35838
ones 35835
держ 35828
▁кӗр 35826
üyorsun 35825
▁Tes 35820
айса 35819
▁avoid 35817
▁etmesi 35816
je 35809
▁Бан 35800
▁Under 35796
ils 35795
▁йылдан 35794
▁vereceğim 35790
▁инвестициялар 35789
▁Centre 35785
▁söylemiştim 35778
amaya 35777
▁зависимости 35776
▁мәлім 35773
▁biç 35770
lav 35768
▁adamları 35767
▁Sayfa 35765
эм 35762
▁щ 35762
eral 35760
▁өлүм 35745
▁билдир 35743
▁signed 35740
year 35739
▁Jeff 35734
▁Библия 35733
рук 35726
▁Board 35724
▁başı 35723
▁мамиле 35723
alary 35722
▁Had 35721
чается 35718
▁müh 35717
▁қатыс 35717
dr 35715
▁сұрау 35709
▁мамил 35704
▁бұзушылық 35703
▁жетілдіру 35701
▁пи 35699
▁hikmet 35697
▁зыян 35695
▁сарап 35694
arız 35693
ожу 35689
арына 35688
▁Subject 35685
▁сипаттамасы 35684
▁платежей 35677
▁жу 35676
▁derg 35675
▁тез 35674
ological 35673
▁crime 35672
▁tarif 35672
▁include 35668
һеҙ 35666
▁дальнейшего 35666
<0x9F> 35665
▁likely 35664
▁тухса 35652
▁Başk 35651
▁выстав 35649
▁religion 35641
руг 35640
madığını 35637
▁zek 35637
▁выполня 35637
yapti 35632
імі 35631
▁мөмкинлек 35631
ӗш 35619
▁Və 35617
▁mö 35614
▁camp 35608
▁бұйрығына 35608
▁şol 35606
▁Пусть 35604
▁образователь 35603
дания 35598
▁rsatish 35595
▁göl 35594
tığımız 35589
алын 35587
▁iştirak 35587
▁фонд 35582
▁gidiyorsun 35579
▁baskı 35568
▁başkan 35558
▁Nik 35554
▁подразделения 35551
▁хӑвар 35550
▁driving 35547
▁держ 35540
▁илме 35539
▁облысында 35534
илет 35532
кус 35531
▁AM 35531
▁Yetişkinler 35531
тама 35530
▁kum 35525
labilir 35518
▁Eğitim 35515
▁kop 35515
▁әле 35515
ПО 35514
▁somewhere 35512
▁түрлер 35512
▁sorunu 35502
▁жек 35496
▁نىڭ 35496
acağımı 35495
рот 35495
ilmagan 35492
▁результатам 35490
оло 35488
▁prof 35488
▁Организация 35483
▁məsihçi 35478
▁tanıy 35476
▁kil 35475
▁ужас 35475
▁ýaz 35473
▁домов 35470
məy 35465
▁Doctor 35465
▁албай 35463
▁силер 35461
▁kalın 35458
▁транс 35458
▁sayəsində 35452
▁ұсыныстар 35452
▁мониторинга 35449
▁ishga 35446
▁Lounge 35441
▁Over 35439
▁nitelik 35439
үнү 35435
▁Anyway 35434
▁tashqi 35434
▁Taş 35431
▁mutaxassis 35431
▁passed 35428
liler 35427
▁басшылары 35427
екс 35424
▁yönlendir 35420
▁предвар 35415
▁шатлык 35415
▁Dep 35411
▁korun 35410
ентом 35409
▁Zh 35407
▁Хәмитов 35400
▁əh 35398
▁билген 35398
▁эскер 35397
▁sorumlu 35395
▁Messenger 35389
▁хар 35389
▁narx 35388
▁çocukların 35388
▁şirk 35388
▁Республикасында 35386
▁манӑн 35381
▁зачем 35380
ody 35379
▁получен 35377
▁вс 35376
▁odası 35374
гаш 35369
▁host 35368
▁паспорт 35367
megi 35366
▁болуу 35366
▁Sub 35363
▁ишен 35359
▁yapmaz 35354
▁itself 35352
▁информационно 35351
аттардың 35344
▁пурне 35343
ayev 35340
беҙ 35338
▁Yalan 35336
▁санитар 35331
▁достиг 35329
▁Тараптардың 35328
▁ameliyat 35322
ничес 35318
▁edərək 35318
▁sot 35317
▁yapıyoruz 35312
▁əmr 35310
▁получил 35310
▁tor 35309
▁Para 35303
▁өң 35301
▁гидро 35299
▁creation 35298
▁ministry 35298
▁uchrashuv 35298
ledik 35297
▁рын 35294
манов 35292
▁Guests 35290
▁hız 35287
▁bırakın 35284
▁görebil 35284
▁пултаратпӑр 35280
▁полу 35277
▁protection 35272
▁мүше 35272
▁дау 35271
▁Иоанн 35268
▁последний 35268
▁гер 35267
öv 35261
рине 35261
▁London 35261
▁hakkı 35260
▁плохо 35260
▁choose 35258
▁бис 35258
cak 35257
pp 35253
▁evening 35248
оре 35247
▁вел 35231
▁qız 35229
▁başlamış 35226
▁öğrendi 35226
▁приказу 35223
пас 35221
▁депутат 35219
▁particular 35218
▁Интернет 35217
чать 35214
▁grow 35213
баған 35208
▁çalışıyorsun 35208
▁Мол 35207
алган 35204
▁зоны 35198
▁Государственный 35197
▁sın 35196
▁малого 35196
▁ветеринар 35191
▁дает 35191
имо 35186
▁missing 35185
▁şef 35185
▁measures 35179
▁aracılığıyla 35173
▁direct 35173
▁Steve 35172
▁yıllık 35160
▁өтеу 35160
▁түй 35158
▁growth 35157
▁breakfast 35156
▁şiddet 35156
iting 35155
▁обмен 35153
süz 35152
▁çocuğ 35149
рами 35148
▁okuyun 35148
құқықтық 35147
▁Hava 35147
▁Bebek 35146
▁құр 35144
▁Бож 35140
▁разб 35139
▁сет 35131
▁жена 35130
▁condition 35129
▁tanıtım 35128
لەر 35127
▁Сколько 35127
▁Alt 35125
▁Иеговӑн 35125
▁Luke 35123
▁Health 35122
▁joint 35112
▁толук 35109
ость 35108
side 35106
▁рассказал 35104
əcəyik 35103
шк 35100
▁түрлері 35100
дігі 35099
▁рәсүл 35098
əcəklər 35085
▁doğr 35083
kid 35081
▁Faculty 35077
▁Пал 35077
▁Anlaş 35076
▁Богом 35076
cer 35074
▁Their 35073
▁organization 35071
ket 35069
▁шесть 35068
ros 35063
▁любит 35062
▁etiladi 35052
ящих 35048
▁rahbari 35047
▁Oy 35046
▁инфек 35045
▁yubor 35035
▁Ra 35034
тери 35033
▁aholi 35030
ovich 35028
▁максат 35028
▁dikkatli 35024
дүк 35022
абы 35021
ňiz 35020
▁fe 35020
жения 35018
▁gazet 35014
▁speech 35012
ota 35010
▁үзен 35009
▁дене 35004
▁Тарап 35002
▁aid 35001
▁Хочешь 35001
▁виз 34999
ığımızı 34998
яют 34997
▁деятельностью 34995
▁göstərir 34992
▁пришли 34988
ӑва 34984
uvch 34982
lerimizi 34981
▁Kurt 34980
▁adamlaryň 34980
▁aren 34980
▁planned 34980
▁организациях 34976
▁специального 34975
ləndir 34971
▁Mik 34968
▁пла 34967
▁сенім 34967
▁женщины 34965
▁ич 34962
▁пог 34959
▁usul 34958
▁ребята 34949
▁сторону 34949
▁sohasidagi 34944
руд 34942
▁media 34938
▁Dostum 34937
▁пусть 34937
вол 34936
▁Bud 34936
▁ýok 34936
ott 34934
▁toward 34934
imni 34929
▁кис 34928
▁wonder 34926
IY 34921
▁какая 34919
▁qor 34917
time 34910
▁güçlendir 34909
▁қаулының 34908
дум 34906
lanib 34905
▁ұсынады 34904
▁bırakıp 34900
▁взять 34894
▁həmçinin 34893
ауы 34890
▁student 34889
dığımız 34888
▁Кур 34885
▁tadbirkorlik 34882
▁воскрес 34882
▁пулӑш 34881
▁акционер 34879
▁Ҫавӑнпа 34873
▁Cur 34869
дөр 34865
▁plans 34863
▁выл 34862
▁yum 34860
▁ант 34859
▁ec 34855
рован 34851
▁başlıyor 34851
▁verdiyi 34851
▁getirmek 34850
▁прошлом 34850
работ 34844
naviy 34843
▁olabil 34837
▁tasdiq 34834
▁жетк 34834
▁заявление 34834
▁союза 34833
▁бұз 34832
▁Taşıma 34824
tiğini 34818
▁gu 34818
▁ашыу 34816
▁Управления 34812
▁прекрас 34809
▁August 34807
▁yaramaz 34807
▁перевод 34806
▁фир 34806
әбез 34804
▁направлении 34804
▁айтылат 34803
▁нимӗн 34798
▁жабдықтау 34797
iness 34794
▁dövüş 34794
tedir 34793
▁Masalan 34793
▁bö 34792
▁mukaddes 34786
▁получили 34786
▁аяк 34785
ümde 34784
▁тест 34782
▁Mut 34781
▁төлемдер 34781
ылығын 34776
▁Alb 34775
▁Хар 34774
▁taught 34772
▁күнөө 34767
▁lies 34766
▁kişiyi 34760
ерек 34759
ческая 34757
▁зав 34753
▁dress 34751
▁ары 34750
▁родители 34748
▁ulardan 34739
▁hadis 34737
▁tufayli 34737
стоя 34736
▁online 34736
▁delil 34735
▁интересов 34730
ises 34729
▁books 34729
▁лек 34722
▁өңірлік 34721
▁Башинформ 34717
▁Ташкента 34717
▁дәреж 34713
▁zatlar 34711
▁olacağız 34705
▁sem 34697
▁субъект 34697
▁stat 34692
▁оцен 34692
sey 34691
имой 34689
▁Yıl 34689
miyorsun 34688
▁dark 34686
▁imzal 34679
▁Cap 34677
чить 34670
▁измени 34669
▁getirdim 34666
▁imz 34666
▁professional 34652
ілікті 34650
▁бойы 34647
▁Neredeyse 34645
имые 34644
amb 34638
) 34635
▁мұндай 34634
▁damn 34632
▁yazar 34631
▁самый 34628
gil 34626
▁операции 34626
▁күрен 34623
zgar 34622
▁ви 34621
▁lik 34619
▁анткени 34618
▁stick 34617
▁herhalde 34616
ored 34611
ەي 34606
▁Vegas 34606
▁Алланың 34606
▁sarhoş 34604
▁Қор 34603
▁xabar 34602
▁связан 34602
▁viloyat 34597
▁duş 34594
▁günlük 34592
▁oldun 34591
▁предусматри 34588
malarına 34585
▁Ram 34574
▁Söy 34567
▁positive 34567
▁билим 34562
▁bizni 34561
▁gönderdi 34560
▁ismini 34557
▁vaqtida 34554
уска 34553
▁добав 34548
▁периода 34547
▁өзін 34547
жда 34545
▁Kuzey 34544
▁Какие 34544
▁Российской 34543
▁басып 34540
▁çekil 34538
▁зовут 34532
▁базе 34531
raw 34529
▁Gidip 34526
▁Gir 34526
▁xizmati 34519
▁Эк 34516
▁Seç 34507
▁благодар 34507
uldu 34506
▁закреп 34499
вор 34498
▁Ge 34498
▁rules 34498
ress 34490
▁бірақ 34485
улган 34481
▁подтвержда 34481
ediğim 34476
▁көбүрөөк 34472
▁strength 34468
зе 34466
▁anlama 34462
▁squ 34462
▁қабыл 34461
▁районы 34459
▁harm 34457
▁состояние 34453
лата 34452
▁arama 34452
lıyorum 34448
cular 34445
▁форма 34441
▁Lee 34438
▁Fethiye 34430
ait 34429
шими 34427
▁gelebilir 34424
▁ozod 34422
▁Fran 34420
▁saved 34420
▁концерт 34418
лердің 34413
▁Mısır 34409
▁ыйт 34405
ocks 34404
▁жылдар 34399
▁үлгү 34399
▁staff 34395
▁complex 34394
▁adalet 34389
▁zorundayım 34388
endim 34386
▁Сыртқы 34381
▁Search 34379
▁hətta 34376
ğu 34372
▁охране 34370
▁имеющих 34369
▁AT 34366
proq 34358
▁club 34353
▁verdin 34353
▁Мӗн 34353
▁prison 34351
lanması 34349
▁ине 34344
▁регионов 34344
▁Otur 34341
рәк 34339
▁interested 34339
▁современ 34338
▁expected 34336
▁çıkıyor 34334
▁Char 34333
▁мәслихат 34330
etic 34328
▁Sak 34326
зер 34323
bon 34319
▁изилдөө 34317
▁şeker 34312
▁olduk 34310
▁yapacaksın 34310
альному 34300
▁xodim 34288
âh 34283
▁Bunların 34283
▁oladi 34283
▁вновь 34283
▁qilishni 34281
▁башлаган 34273
▁жары 34273
▁шетел 34273
▁инвестиционных 34271
▁deng 34267
esp 34265
▁любой 34265
▁Например 34262
▁содержание 34259
гач 34258
ғал 34256
▁arzu 34256
▁смерт 34254
▁осуществ 34251
▁қарыз 34251
▁потребителей 34250
▁meant 34248
▁исполн 34244
▁алғаш 34241
▁проц 34240
▁дороги 34238
▁markaz 34235
▁специаль 34229
асымен 34224
▁давно 34223
енному 34222
▁Restaurant 34218
▁хабарлайды 34218
▁greater 34216
▁ters 34216
▁тапшыр 34216
▁чы 34215
rt 34213
▁Парламента 34210
uru 34209
▁Asia 34206
▁технических 34199
▁ҫывӑх 34199
▁loving 34196
▁onur 34193
▁начал 34193
irli 34192
гү 34190
аем 34188
үт 34186
▁Sab 34186
▁үрнәк 34184
▁тулы 34183
zini 34177
umb 34174
ەن 34174
▁саб 34169
▁бөлшек 34166
▁direction 34164
▁sounds 34161
▁қалай 34158
DA 34156
▁бірқатар 34155
▁приготов 34149
▁құралдарын 34149
ровать 34147
кос 34146
▁Something 34144
лерд 34143
▁определя 34140
▁рәсімдер 34137
тармаққа 34135
▁Therefore 34134
лігін 34133
▁средствами 34130
▁exc 34127
▁ликвидации 34127
▁master 34125
▁demək 34124
▁тради 34123
▁всему 34120
▁көрсетуге 34120
уны 34118
▁сынақ 34110
▁меньше 34108
▁хай 34108
▁серьез 34103
▁созда 34101
▁необходим 34099
рист 34096
ification 34095
▁çıkmak 34091
▁guidance 34085
▁поклон 34076
улу 34070
▁заверш 34070
▁kaldım 34069
▁radio 34067
▁metr 34064
▁mart 34060
amad 34042
▁одино 34040
▁друж 34030
▁acqu 34025
▁тарих 34025
port 34022
▁главы 34021
кор 34017
▁duyuyor 34015
▁ediyorlar 34015
▁science 34005
▁дверь 34005
▁подчин 33999
▁kapalı 33990
▁systems 33986
▁кри 33985
▁бұйрық 33984
▁yilning 33981
▁Matthew 33979
▁anlaşma 33978
▁Hatır 33976
▁нисек 33976
alashtirish 33973
▁меч 33971
▁помог 33968
▁Şöyle 33966
▁Im 33961
сту 33960
<0x60> 33958
ower 33955
▁Union 33955
▁шыв 33954
▁назар 33951
▁meydana 33950
▁өзүн 33950
▁deneyim 33949
▁алатын 33949
▁cal 33946
▁therefore 33946
▁gören 33944
▁Kendine 33943
▁ҫырнӑ 33942
▁бақ 33941
omb 33938
▁anybody 33936
пан 33932
لىق 33929
▁xususiy 33926
▁çekti 33924
▁чыныгы 33919
▁регулиру 33918
▁şükür 33916
▁neyin 33910
▁аңлат 33909
▁İşe 33906
▁тарап 33901
▁Sit 33896
▁пож 33895
алатын 33893
lenme 33890
▁val 33886
▁қо 33885
аптар 33883
Bir 33882
щее 33875
atlarda 33871
▁Bring 33871
▁мөнәсәбәт 33869
▁Күп 33868
▁жинау 33865
▁стрем 33865
▁предлож 33863
ont 33861
▁Dol 33860
▁malik 33860
▁хӗрарӑм 33860
▁организацию 33858
▁practice 33853
▁сағ 33851
▁часа 33851
▁acil 33849
▁gib 33845
▁unutma 33839
▁аер 33837
▁Положение 33830
▁Бұдан 33824
▁конт 33818
көн 33812
асшӑн 33805
▁kayn 33802
▁территорий 33798
▁Henüz 33796
▁yoluna 33794
▁Бюджет 33791
▁negative 33789
▁Фото 33786
▁Otopark 33783
▁görünür 33783
▁Рустэм 33780
рим 33771
▁potential 33767
▁angels 33765
▁below 33765
лиз 33764
▁hum 33762
▁yerdə 33761
▁yarım 33760
▁ochiq 33756
▁Комп 33753
▁Yahud 33752
▁техника 33751
▁внести 33746
▁конференция 33736
▁hujjatlarida 33734
▁sel 33729
▁hujjatlariga 33727
▁Ошондо 33724
masa 33723
▁Brian 33721
▁эксплуатацию 33719
▁edelim 33711
ign 33707
мент 33707
▁Ryan 33707
▁сығ 33707
ymyz 33706
▁teor 33705
▁официаль 33704
▁rah 33703
▁Bunday 33692
▁köş 33686
▁берсе 33686
▁Such 33682
▁селолық 33682
▁суб 33678
▁mənim 33677
▁руб 33676
▁ят 33675
▁cezalandır 33670
очка 33669
ограф 33668
say 33663
ателям 33663
▁led 33657
▁қалпына 33656
mişdi 33655
▁хаҡында 33655
ənlər 33652
▁құралдары 33644
▁оказывается 33643
▁особо 33642
ck 33637
▁zorluk 33636
▁присут 33630
▁әлем 33628
▁саяси 33626
▁Acaba 33625
▁пользования 33625
▁брос 33623
▁келиш 33618
▁выплаты 33616
▁Time 33615
ündeki 33613
▁increased 33613
▁ӳк 33612
مىز 33605
чено 33604
▁sence 33604
▁биздин 33603
▁прог 33600
▁назначен 33595
▁Watch 33593
▁тоқ 33590
ication 33588
▁күнү 33588
ğimde 33584
▁kasab 33584
dadır 33583
▁экономик 33581
che 33580
▁арест 33576
▁внеш 33576
▁Хамитов 33573
▁істеу 33567
lek 33566
енті 33564
▁разработки 33564
▁соответствующ 33562
▁qad 33553
▁rule 33553
▁гамәл 33552
▁şüphesiz 33551
қосымшаға 33547
▁Kes 33544
▁опера 33544
▁постоян 33543
olat 33541
екті 33539
▁Положения 33533
утся 33532
▁tutul 33532
▁внес 33517
▁join 33516
▁surat 33511
ческим 33510
▁шам 33501
▁och 33500
тарма 33499
elt 33498
▁Pas 33495
майтын 33491
▁қызметтің 33491
▁линии 33488
▁ҫыр 33485
masından 33483
▁başıma 33482
▁beyn 33482
ward 33481
▁задачи 33479
▁каг 33472
▁ҫакӑн 33467
▁Сов 33464
чения 33459
alk 33457
lüğ 33456
▁Мисалы 33456
cek 33455
▁düşük 33451
imdi 33449
елю 33449
көл 33449
▁ҫавӑнпа 33446
ақты 33445
▁повышению 33445
▁земля 33443
▁card 33442
▁faol 33442
▁İçilmeyrn 33442
▁кабинет 33440
atini 33437
▁sağlay 33436
▁бірлескен 33436
елов 33435
▁bun 33432
▁Tatlım 33427
▁bell 33423
ured 33420
▁слышал 33420
▁горя 33419
▁Башҡорт 33418
iyiz 33417
diğim 33416
▁kent 33416
▁uyandır 33415
беген 33413
▁investitsiya 33413
▁разряд 33411
▁Club 33410
▁lari 33410
▁Иван 33406
▁нығайту 33406
▁служить 33406
▁ҫап 33406
▁ner 33405
▁метал 33405
лени 33403
бызны 33399
▁borasida 33398
▁justice 33397
▁muydu 33397
▁dönüp 33393
ýarlar 33388
нах 33387
▁söyleyeyim 33386
▁бү 33385
▁Biroq 33379
▁взял 33378
▁китергән 33376
▁әйтеп 33376
пу 33374
▁Sports 33373
▁сосед 33372
арь 33371
▁biliyordu 33369
▁atrof 33368
▁verilm 33366
▁namoyon 33360
▁tree 33359
▁гаилә 33359
osed 33357
▁ýet 33355
▁önüne 33350
кции 33349
▁ban 33344
▁көптөгөн 33341
▁молод 33341
▁che 33340
малы 33339
▁Ес 33333
▁сад 33332
енз 33328
▁aytgan 33327
ленного 33326
▁ilgi 33326
▁society 33326
▁Bobby 33322
▁Uluslararası 33322
▁Мир 33321
▁совмест 33321
▁apply 33318
▁Иегову 33317
мыз 33316
▁Old 33316
aps 33311
▁жүргізеді 33311
inda 33310
▁bilmiyordum 33310
▁yönelik 33309
▁санитарлық 33309
мге 33308
▁Hy 33308
OD 33307
кай 33306
▁үч 33304
ike 33302
▁характер 33299
aff 33298
▁Reb 33298
▁баға 33295
▁aldığı 33285
▁затрат 33285
▁Ste 33284
датель 33282
▁Kel 33280
▁кылат 33280
▁спис 33276
год 33274
▁Kara 33273
▁пойти 33273
▁субъектілер 33273
▁технологии 33271
▁ұш 33270
▁схем 33267
▁представить 33265
▁ислам 33262
chisi 33258
usun 33257
▁Okul 33253
▁muammo 33251
▁экологиялық 33250
▁powerful 33249
ân 33246
▁tahlil 33245
▁ut 33245
▁İy 33243
▁состоя 33241
▁услов 33241
▁vəziyyət 33240
еда 33236
▁komut 33236
рун 33233
▁біліктілік 33232
▁ged 33231
есп 33229
▁әҙер 33228
ені 33227
▁святой 33227
▁sodir 33226
▁Каждый 33226
▁финанс 33225
▁ýüre 33216
▁fat 33215
wards 33209
▁программе 33207
▁kuy 33204
▁восп 33204
alıyız 33202
▁discuss 33202
uff 33199
▁gain 33198
▁правитель 33196
▁çab 33195
масӑр 33194
▁bür 33194
нюю 33192
▁sonsuz 33191
▁нөмір 33191
▁соответствующей 33190
▁daromad 33189
іліп 33185
әзаб 33179
▁Центра 33179
▁учеб 33179
▁ишет 33178
▁санитарно 33178
▁компаний 33177
▁kadını 33175
gor 33174
дите 33174
гля 33167
▁мужчин 33167
▁другое 33162
▁эшләй 33160
▁парня 33146
▁сараптама 33145
▁Господ 33141
▁алын 33135
▁көрсететін 33132
▁çalıştır 33129
▁машины 33129
▁düşünmek 33123
▁ft 33118
эк 33116
▁بىر 33111
атура 33109
▁глава 33099
▁deyilir 33098
▁feelings 33094
ysa 33087
▁сау 33087
▁sell 33085
▁агро 33073
▁fazlasını 33072
▁mez 33071
▁жұмысын 33070
▁zamana 33068
▁meaning 33067
▁сертификат 33066
▁Prezident 33065
▁tarafa 33058
▁Чем 33056
▁sonuna 33052
▁Крас 33052
▁баҫ 33052
▁үлгі 33052
зна 33051
ela 33047
▁күші 33046
▁understanding 33044
▁жылдары 33044
▁accident 33042
▁сельских 33042
▁olabilirim 33037
tadır 33036
дами 33031
▁plant 33030
▁жолдоочулары 33030
евые 33027
▁anlar 33027
▁qeyd 33026
iň 33025
▁Yat 33023
▁nu 33019
бет 33016
▁Kil 33015
▁факт 33013
abilirler 33009
▁пенсион 33009
▁başk 33008
▁carry 33001
▁Boston 33000
▁Пом 32998
учылар 32995
▁merhamet 32995
▁судья 32989
▁удел 32979
▁kendime 32973
▁Luc 32970
▁sesi 32969
▁жагдай 32969
▁количества 32968
▁йылдың 32967
abı 32964
▁вӑр 32959
▁дұрыс 32958
▁Соглашение 32956
▁çap 32955
▁syn 32951
▁вступает 32949
▁жүйелер 32949
ілігін 32945
▁распис 32943
▁Hast 32941
▁activity 32940
јә 32936
luğ 32934
▁Fl 32934
▁ücret 32933
▁үзгәр 32929
▁yourselves 32928
▁Best 32927
▁предоставлении 32927
диң 32926
▁etildi 32926
▁төрағасының 32925
▁айтканда 32922
▁Government 32921
▁раб 32921
ify 32920
рақ 32919
▁рейтинг 32918
▁үлесі 32913
үкт 32912
▁hudud 32912
▁Обеспечение 32909
▁tarzda 32906
▁придется 32906
▁mıyım 32902
ја 32899
▁Mis 32898
▁чемпион 32897
▁ҡабул 32894
▁Вып 32892
▁Unut 32891
▁graph 32888
▁söyleyecek 32885
▁стационар 32882
РА 32878
▁sorumluluk 32872
▁chek 32870
асси 32869
▁apart 32867
ларның 32862
▁рай 32862
▁centre 32861
▁усп 32860
▁Dön 32858
▁тро 32857
▁yatırım 32856
▁моим 32856
▁citizens 32852
stan 32849
ӗнчи 32846
▁oq 32846
▁тери 32846
▁sax 32845
иси 32843
▁qərar 32842
▁düştü 32840
▁gener 32839
▁кешенең 32838
lashtir 32837
▁qaysi 32837
чку 32835
▁kızgın 32834
▁dünyayı 32833
▁iptal 32828
▁билдирет 32826
iling 32823
▁выдача 32821
▁shar 32816
▁туган 32814
▁bus 32809
▁исполнение 32809
▁Нужно 32807
▁Кодекса 32806
▁волн 32806
▁тю 32802
▁reports 32801
▁зданий 32798
▁обязанностей 32797
ированных 32796
▁Сай 32795
▁ilişki 32792
▁скажу 32792
▁Аудандық 32789
ылыҡ 32786
▁видела 32786
▁ЖШС 32785
▁офицер 32784
▁developed 32781
▁дәрігер 32777
gine 32771
▁erkekler 32771
масын 32766
▁xoh 32765
▁şeylere 32765
▁azab 32764
landi 32758
▁Соңғы 32756
▁Italy 32755
▁amaliy 32755
▁четвер 32755
IK 32753
▁органының 32752
▁yaptığımız 32750
ствуют 32748
▁resurs 32748
ғыс 32746
▁нәтижелер 32743
vet 32741
▁валли 32740
kiler 32735
▁kuvvet 32734
▁оцени 32733
▁oluşan 32728
▁çoğ 32726
▁duvar 32724
▁пӗлет 32722
▁План 32715
▁өткөр 32713
жей 32711
оту 32710
▁Birlikte 32710
▁Тот 32709
enc 32708
▁meetings 32704
▁вил 32704
▁решил 32704
▁мү 32703
▁минист 32702
▁honey 32701
▁beğen 32700
▁gelmedi 32697
▁Кеден 32696
▁fiziksel 32687
▁cez 32685
▁отандық 32682
▁muh 32680
▁руководством 32676
▁götüre 32673
▁established 32672
▁органға 32670
▁tw 32668
▁мәктәп 32668
▁гар 32666
▁Андыктан 32663
▁депут 32662
▁кәсіптік 32661
▁herkese 32659
▁түрткү 32659
▁Port 32657
▁Tab 32654
лерді 32644
дес 32637
▁Sürekli 32631
▁нотари 32630
▁нече 32628
▁şəhər 32627
ога 32614
▁Key 32612
▁человечес 32610
▁hariç 32609
▁Still 32607
▁higher 32606
▁Бек 32605
▁белсенді 32604
▁договоров 32598
▁земельных 32595
▁gələn 32591
▁преступления 32590
▁урӑх 32590
şy 32589
▁устанавли 32589
oat 32586
▁uluslararası 32584
ishgan 32582
ализ 32579
▁hallet 32579
▁religious 32576
▁individual 32573
▁мәс 32573
тра 32570
▁жем 32570
▁капитан 32570
▁велич 32569
▁приб 32569
▁әділет 32569
▁yıllar 32566
бург 32560
▁jamo 32560
▁правовой 32560
▁hafif 32559
▁takıl 32555
irin 32552
▁наук 32552
▁geleni 32551
так 32550
▁ihtiyar 32550
sü 32548
▁цех 32548
енд 32544
▁жүрөг 32543
▁dance 32536
▁смерть 32535
▁şeylerin 32531
▁із 32531
▁bıraktı 32530
▁жоспары 32523
▁двиг 32520
ляться 32519
▁ҫирӗп 32516
tle 32515
▁зай 32513
▁лаборатор 32512
▁сих 32511
▁etməy 32509
ждение 32504
чиков 32504
▁imagine 32503
oot 32501
аба 32499
▁moliy 32497
▁Суд 32497
duğumuz 32494
оф 32487
▁Национальная 32487
▁vosit 32485
▁Gec 32482
▁nes 32482
▁хушшинче 32478
abilmek 32475
▁broke 32475
▁устро 32475
▁carried 32470
▁ürün 32469
▁Van 32467
▁teknoloj 32466
▁truly 32466
light 32464
▁ячӗ 32460
▁хабарлама 32458
ологического 32455
▁Des 32455
▁yashash 32454
edu 32453
▁forgive 32451
ләрдә 32448
ией 32442
▁ста 32440
мес 32434
луш 32430
▁insana 32430
▁respond 32430
▁кала 32427
▁hayran 32424
hal 32414
▁Мени 32414
▁әйт 32414
▁изготов 32410
▁уголов 32408
▁Tashqi 32406
▁olduğunuz 32405
▁Research 32403
▁үйрөн 32402
▁элемент 32400
▁gözet 32397
▁восстанов 32396
ention 32392
▁ald 32390
▁tom 32390
▁перечис 32386
▁Аман 32383
рап 32378
▁fır 32378
▁Museum 32377
▁geldiniz 32374
▁mini 32372
имость 32368
▁продуктов 32365
кет 32363
▁убил 32358
▁фер 32358
▁школь 32357
▁Мус 32353
isiyle 32347
▁tour 32347
▁известно 32346
▁mail 32341
▁çıkış 32340
▁принимать 32340
mıyorsun 32335
▁Чер 32334
Ne 32328
kı 32328
ктен 32327
ough 32324
iles 32321
▁List 32321
▁rem 32317
▁структурных 32317
▁umut 32314
сар 32304
▁anahtar 32295
▁говорила 32291
нула 32287
uç 32283
▁kanal 32281
▁məhv 32281
▁клиент 32279
gani 32274
▁шег 32272
ствами 32269
əsinin 32266
▁тяжел 32263
▁başarısız 32262
▁Стратег 32260
▁normativ 32258
▁Башкир 32258
▁акций 32256
▁güvende 32254
▁geceler 32253
▁Прости 32250
▁sweet 32246
▁обратно 32245
▁ҫылӑх 32244
▁Қызылорда 32243
▁ئۇلارنىڭ 32241
▁высшего 32240
▁reached 32239
▁destroyed 32237
▁член 32235
▁Правления 32234
▁көрсөтүп 32233
алай 32232
duğun 32229
▁Villa 32229
деріне 32224
▁track 32224
▁Şübhəsiz 32224
▁Bed 32215
▁matters 32208
▁призн 32208
▁arka 32204
▁vermem 32203
▁kişilerin 32202
▁исполня 32202
▁kandır 32199
▁қабылдайды 32196
▁itibaren 32193
▁kırmızı 32193
▁Dört 32188
▁Прав 32186
▁калыш 32185
▁mek 32184
▁söylemem 32183
▁olduğunuzu 32181
▁книги 32181
▁mün 32176
термен 32174
▁ӗмӗр 32172
▁tutmak 32165
▁Education 32159
▁возраста 32158
ýärler 32157
▁ҡул 32155
▁ikimiz 32149
▁тендер 32145
▁produ 32144
ряд 32143
ированию 32138
▁Saul 32138
енсә 32130
пс 32130
ований 32129
▁Шавкат 32128
▁ши 32121
▁funny 32119
▁regard 32116
▁vaftiz 32116
▁жиынтық 32115
▁prepared 32113
▁Nice 32110
▁Бат 32110
атом 32108
▁гг 32107
OC 32103
▁AR 32100
▁нала 32100
▁спросил 32098
▁quick 32095
▁Resepsiyon 32092
▁baholash 32091
▁начальник 32090
▁storage 32086
▁equ 32084
▁айқындау 32082
▁raised 32080
лӑха 32073
▁Dedektif 32073
▁rob 32072
▁лауазым 32071
rist 32065
стов 32063
▁Анткени 32061
▁qop 32054
▁located 32048
яс 32047
▁Эн 32047
▁әлбәттә 32045
сақ 32043
▁корм 32041
▁введения 32039
▁cases 32037
▁Halk 32031
яд 32023
дание 32022
▁lumot 32021
ваться 32020
▁düşünüyordum 32016
дығын 32013
▁tutum 32013
▁салып 32012
▁earlier 32007
▁Mezmur 32006
▁oyunu 32005
аков 32003
кине 32003
▁вечером 31999
ировал 31996
▁kök 31995
▁əbədi 31995
▁azob 31993
▁графе 31992
▁yığıncaq 31987
лерди 31984
▁meni 31979
▁kül 31977
▁söylemiştin 31977
▁ruxsat 31972
▁blind 31970
▁вред 31969
▁мало 31969
▁Sk 31967
▁Решение 31965
▁территориальных 31964
▁regional 31961
▁counsel 31959
▁жүргізуге 31947
тором 31946
▁тауарларды 31946
ұр 31944
▁пле 31944
▁зерттеулер 31943
▁mec 31939
▁плем 31938
▁pray 31935
▁функций 31929
ىلى 31928
▁кына 31926
▁bə 31925
▁duymak 31924
▁заңнамалық 31922
елерді 31917
айы 31914
▁olmas 31912
▁суйласа 31912
▁шектеулі 31911
▁Twitter 31909
▁Fre 31908
▁olara 31908
▁индивиду 31908
▁Sus 31906
▁Владимир 31905
▁дәл 31904
▁tashkilotlari 31900
▁responsibility 31899
▁Ele 31898
▁September 31895
мана 31894
▁kamyon 31892
larımızın 31890
▁doğrudan 31890
▁Besides 31889
▁ülke 31889
▁ниет 31883
▁передачи 31882
▁ци 31882
▁которому 31878
▁şarap 31876
▁туризм 31874
▁ключ 31872
һа 31870
▁Should 31870
▁жобаларды 31870
▁elbis 31867
▁наде 31867
▁akıllı 31864
▁iyice 31863
лігі 31859
▁көрсетеді 31849
▁çalıştım 31841
▁Шу 31839
▁белгілеу 31839
▁lin 31838
▁eksport 31835
▁нұсқ 31835
çilik 31831
mediğini 31828
▁şiş 31827
▁ýüz 31825
▁teaching 31824
▁атынан 31821
▁глаз 31820
енности 31819
▁ağz 31816
▁судна 31813
▁agree 31812
▁терп 31810
▁karakter 31809
▁йә 31808
▁ih 31807
▁respublika 31804
▁ederken 31801
▁laf 31801
▁Моисей 31798
ersen 31797
tığın 31795
▁CH 31792
▁чыгып 31791
▁аким 31790
▁заключен 31790
▁фермер 31789
▁soň 31787
▁верх 31784
can 31779
reg 31778
omet 31773
▁Мирзиёев 31773
mamıza 31772
mağ 31772
▁заявки 31771
▁mantıklı 31768
An 31767
▁Алардын 31766
▁тәс 31766
unları 31763
▁выдаче 31762
гени 31761
ическую 31761
▁Yazı 31760
▁rəhbər 31757
▁сок 31755
▁впервые 31753
▁iqtisodiyot 31749
▁жәрдем 31748
eyken 31744
▁istiyorsunuz 31741
▁neyi 31739
▁düşündüğ 31736
▁функции 31735
▁қабілетті 31730
▁movie 31727
▁halkı 31726
▁October 31724
▁приложении 31722
▁жаль 31716
▁Көп 31715
▁sons 31714
▁Justice 31711
▁подлежит 31710
▁тәрби 31700
▁разве 31698
▁qator 31697
▁наиболее 31697
▁унтан 31696
▁belgil 31691
ӑлса 31685
▁Birinci 31680
▁Поб 31680
▁буй 31679
▁полно 31679
▁қағид 31678
▁кылуу 31676
▁сделала 31674
▁қалдық 31673
▁согласия 31671
кил 31669
▁Нурсултан 31666
▁olunur 31661
▁шел 31659
▁Lisans 31651
▁столько 31647
▁Дав 31646
▁vücud 31643
▁умӗнче 31643
үе 31641
▁ekip 31639
Ben 31638
▁Өн 31638
▁boshqarish 31637
▁yolculuk 31635
ЕС 31628
▁Jan 31626
әтле 31624
▁planet 31623
▁помещений 31619
▁täsir 31617
▁уведомления 31615
▁Ash 31610
▁Washington 31608
▁айында 31606
▁interesting 31603
▁перек 31603
▁ваша 31602
▁плана 31602
зак 31601
▁istiyorlar 31600
▁topish 31599
▁vazir 31597
andan 31594
isiz 31594
▁вдруг 31594
▁кос 31592
▁департамент 31588
циональ 31586
▁yesterday 31584
enle 31581
▁заем 31580
▁former 31579
lashgan 31578
▁çeneni 31576
▁Уч 31572
▁ikiniz 31571
▁развед 31570
▁убед 31570
▁қайтар 31570
▁Kad 31568
▁наурыздағы 31564
▁Bağ 31563
▁сетей 31563
дох 31562
▁kurtarmak 31562
▁Ankara 31559
▁agent 31558
▁amacı 31558
ственными 31549
▁Dining 31549
▁үтер 31548
▁youth 31547
▁сәуірдегі 31545
▁обеспечивает 31543
▁Құдай 31543
▁принес 31540
▁açıl 31536
зия 31534
▁realize 31530
▁ұйымның 31529
osis 31528
قى 31528
деш 31525
▁чӗн 31525
▁ahlak 31524
▁günä 31524
▁Ру 31523
▁tutar 31522
▁Проведение 31520
маш 31519
ыңды 31518
▁Gizle 31509
▁ax 31509
▁Life 31506
▁говоря 31504
▁видели 31501
▁куәлік 31499
▁Inn 31492
▁ýetir 31492
ımızdan 31491
▁гражданского 31490
▁курса 31490
layabilir 31489
UL 31486
ователь 31486
тардан 31486
пор 31484
▁içində 31484
▁стратегиялық 31483
▁Yazdır 31479
laması 31478
▁өкіл 31478
▁пулман 31477
▁международной 31475
▁отмен 31474
▁nä 31471
▁dostu 31468
▁Fil 31463
чика 31462
ИД 31461
izing 31459
зации 31458
▁ағаш 31458
▁hundred 31457
▁pil 31455
▁отказа 31455
▁комиссиясының 31453
▁цель 31451
▁пут 31448
▁семь 31447
ещ 31446
ills 31443
▁Машаяктын 31439
▁неделю 31437
▁булу 31434
▁imkan 31431
▁nobody 31424
▁қолданылатын 31423
▁bought 31422
OV 31421
▁terrible 31419
аттық 31417
▁gibiydi 31416
▁анализа 31415
▁Поистине 31414
▁фор 31411
▁böl 31404
▁совершенно 31404
нения 31401
▁налогового 31400
ration 31399
▁получение 31398
▁kavga 31393
әш 31390
▁Бо 31385
▁пікір 31383
▁Нов 31381
ema 31377
▁трудно 31376
▁gidin 31374
əc 31373
ched 31368
▁ruhun 31368
▁Ses 31365
▁комиссияның 31363
▁смеш 31362
▁жо 31360
▁ilgisi 31359
▁Toplu 31358
етов 31357
▁sight 31356
▁Wil 31355
▁Зем 31351
▁uchastk 31350
▁туризма 31350
▁смогу 31349
▁followed 31348
▁December 31342
▁Hang 31342
lemiş 31341
▁Fire 31339
▁Arabayla 31337
▁Billy 31337
▁беруш 31336
▁үткән 31334
▁balki 31332
▁башҡа 31331
▁değişiklik 31327
eydim 31325
▁апат 31324
▁Unga 31323
ners 31321
▁Сын 31319
ladığım 31317
ات 31316
▁Жал 31316
ующим 31312
▁gatnaş 31311
▁yapın 31309
مۇ 31305
▁flow 31305
▁alabil 31303
▁gözden 31302
▁эркин 31301
▁Урал 31299
lies 31295
▁sector 31292
▁texnologiy 31292
ящий 31290
▁hatırlıyorum 31289
дандырылған 31285
▁Foreign 31283
▁spoke 31282
▁fikri 31281
etr 31280
▁Гран 31280
▁sürük 31278
▁Сатана 31268
цов 31267
▁идарә 31267
▁fena 31259
▁кайра 31259
ırıq 31252
▁quickly 31248
▁провести 31248
▁Mükemmel 31246
▁writing 31246
▁помощ 31245
▁каким 31243
комп 31242
▁муч 31242
▁günlerde 31241
▁өлшем 31239
▁Иегованын 31238
▁семье 31237
lıyorsun 31233
лақ 31231
▁дамытудың 31231
▁numbers 31229
һына 31223
▁Эсир 31220
▁kendim 31217
▁мұ 31217
▁өч 31217
tures 31215
▁Унӑн 31214
illik 31212
▁qilishi 31212
▁били 31212
▁җирдә 31212
▁fit 31211
▁marry 31210
▁смысле 31210
▁наличие 31209
▁yoldaş 31206
▁Walking 31205
▁выпуск 31199
ilt 31196
▁хотят 31196
▁spread 31193
▁ПО 31193
▁автомобильных 31193
▁салынған 31191
▁Сил 31184
▁лиценз 31183
▁düşünmüştüm 31182
▁obey 31182
field 31180
▁пырса 31180
cil 31177
▁Аллаху 31175
▁жолымен 31173
▁руководство 31173
▁kayb 31172
▁кра 31171
duğunda 31170
▁сӑн 31170
шарт 31166
▁дана 31162
eve 31159
ушылық 31152
▁тело 31148
▁кадр 31146
▁Лука 31145
стары 31141
▁илт 31140
▁yapabilirim 31139
▁vaziyat 31133
▁пожар 31132
▁Bilgi 31126
▁diril 31125
▁веру 31121
▁olabileceğini 31120
ауға 31119
▁Resul 31117
▁поступления 31117
▁рес 31115
▁удал 31115
▁wicked 31114
▁Şef 31113
▁song 31103
▁подход 31103
▁sey 31102
▁основные 31100
▁устав 31097
ýardy 31096
▁Driving 31096
▁cennet 31096
▁қосу 31095
▁expression 31094
▁Строительство 31092
▁иногда 31087
▁материально 31086
▁hörmət 31083
▁ваших 31083
▁тапш 31078
▁наказания 31075
▁правительства 31073
▁Fe 31072
▁поезд 31070
ülen 31069
▁deposit 31069
▁numara 31068
▁Məsələn 31067
▁lakin 31066
▁yarı 31066
▁задерж 31063
▁çev 31061
▁psik 31059
<0xB7> 31058
▁енеді 31054
▁Düş 31053
▁профессор 31052
▁фамилия 31052
▁библей 31048
ılmıştır 31047
▁инсан 31047
▁само 31047
▁sohbet 31044
▁adamla 31043
▁бе 31043
zal 31042
▁положение 31042
▁Hizmet 31040
▁Think 31033
▁Sabah 31029
▁Gen 31027
▁очист 31027
▁ödem 31025
ably 31024
▁үздік 31024
ession 31023
▁finish 31023
чная 31021
▁kons 31017
▁Jam 31016
▁минер 31016
ымын 31013
▁легко 31013
▁kalmadı 31012
▁Дон 31012
▁physical 31007
▁tanın 31006
▁yaptıkları 31003
▁бағдар 31001
онд 30998
▁Majlisi 30998
▁heads 30995
▁Gece 30994
<0x8E> 30991
dak 30988
▁Қазіргі 30986
▁duydun 30982
▁şər 30981
▁meyv 30980
ald 30978
▁careful 30978
adığı 30974
lmagan 30974
роб 30973
▁difference 30973
ruk 30970
тармағының 30969
▁Dec 30969
▁Şehir 30968
ھ 30967
▁Тол 30964
▁Параграф 30961
▁голов 30961
▁həmişə 30960
ersiz 30959
▁руководителей 30959
ök 30956
▁Казах 30954
emiyor 30953
▁sez 30952
▁представитель 30947
▁Qar 30945
cul 30934
▁этап 30934
lga 30931
▁указан 30929
▁ring 30928
▁pal 30927
▁üzv 30927
imle 30925
▁кадәр 30924
▁mustahkamlash 30922
▁enerj 30918
▁budjet 30915
▁yagona 30915
▁утром 30915
порт 30914
▁исә 30910
▁колледж 30910
▁сигнал 30910
▁moliyaviy 30909
▁agreement 30905
▁apaçık 30905
▁Елбасы 30905
▁Республикан 30905
▁mistake 30903
төр 30902
▁роста 30901
bul 30900
▁станции 30899
▁Carl 30898
ilən 30895
▁gerekecek 30895
ekli 30894
▁платеж 30891
▁Agent 30887
▁boyu 30884
▁qilinadi 30882
▁yeme 30880
▁Green 30877
mışsın 30872
▁qismi 30871
cel 30866
▁utan 30863
▁құқықтарын 30863
▁qurish 30862
▁insanlardan 30860
Comment 30859
▁neçə 30857
▁Xalq 30855
ләрендә 30854
▁conference 30851
▁коллек 30851
чение 30850
▁Shunday 30850
▁Kah 30849
iymiş 30844
▁организацией 30842
▁адамды 30840
▁representatives 30839
▁talked 30839
▁genellikle 30837
▁kompleks 30834
▁proper 30830
▁Nəyə 30829
▁предложение 30828
▁саф 30828
▁authority 30825
▁sarf 30825
▁Rol 30823
ырыл 30815
▁осуществляются 30813
зг 30808
▁cat 30806
oses 30805
▁Dünyanın 30805
▁mükafat 30805
▁Кап 30803
▁басқ 30803
▁ürəy 30802
▁jo 30801
▁аудитор 30801
шение 30799
▁vir 30798
▁регистрацию 30798
▁удовлетвор 30798
<0xAB> 30797
мотр 30796
▁link 30796
▁Мам 30796
▁iyileş 30790
▁etmişdi 30789
▁вроде 30782
▁ederiz 30781
щество 30780
▁pot 30774
▁tad 30774
▁Кей 30772
▁appreciate 30771
▁тәэсир 30771
▁karşısında 30767
▁erish 30766
▁vermez 30764
чах 30763
▁независимо 30762
▁subyekt 30760
▁нормативно 30760
▁Aptal 30756
▁шілдедегі 30756
▁урлӑ 30754
▁yasaktır 30752
▁Məgər 30751
▁эст 30751
unk 30748
▁nafar 30746
▁gelmiyor 30745
исти 30744
▁ünlü 30739
ban 30738
▁Мон 30737
елерінің 30736
ests 30735
üst 30734
pet 30732
▁должностных 30731
▁yaparken 30725
сине 30722
▁Biliyorsun 30717
▁ast 30717
▁Add 30715
▁Kalk 30715
▁diýen 30715
Ch 30707
▁обсужд 30705
▁алдан 30702
▁Aynen 30699
▁açıdan 30698
▁korku 30698
▁uzoq 30698
▁çalıştı 30698
▁делу 30698
▁pressure 30695
уса 30690
▁şah 30688
▁Fransız 30687
▁Ki 30687
row 30684
чества 30684
▁сав 30684
atik 30682
▁мага 30679
▁шараларды 30674
▁баян 30673
▁әлеуметт 30673
moq 30672
үгә 30672
▁Doğ 30672
liğine 30669
▁предъяв 30669
mür 30667
ленным 30667
▁Германия 30667
▁Jake 30665
▁image 30664
▁свер 30663
баган 30662
▁soruş 30662
▁көрсетудің 30660
шения 30659
▁ötürü 30658
▁күрделі 30658
▁Улар 30657
ологических 30655
▁учит 30654
umlar 30653
каны 30653
▁iğrenç 30652
çilər 30650
▁выяв 30645
еги 30644
▁выполн 30641
рге 30635
ову 30632
▁инвалидов 30631
▁хан 30629
▁loves 30628
oma 30627
▁istemem 30626
▁olmuştur 30625
▁шуны 30625
▁Kir 30624
▁мәж 30624
▁тәуекел 30624
▁разговор 30620
▁Anything 30608
▁kıy 30608
▁uzaq 30603
▁Düny 30602
▁итәчәк 30601
▁rasmiy 30599
wood 30598
İY 30597
▁arm 30596
kel 30594
▁görmedim 30593
▁çak 30592
ленӗ 30585
ницу 30585
ствии 30585
▁dok 30585
▁кӳ 30583
isa 30582
▁куәл 30581
▁түсін 30581
▁товара 30577
▁families 30576
тыра 30575
▁dangerous 30574
▁наб 30574
like 30573
▁мүмкіндігі 30569
▁вой 30567
▁July 30564
кӑн 30562
▁Dolayısıyla 30562
▁qaytar 30562
▁loss 30561
▁государственную 30560
▁хутшӑн 30555
urken 30552
▁Алтын 30551
ünüzü 30549
оу 30545
▁Müdür 30542
▁благослов 30542
▁Christmas 30540
▁süper 30539
алдар 30538
▁edici 30536
▁bilmez 30535
▁Görev 30531
▁Nur 30531
▁nazik 30526
▁gitsin 30523
чены 30522
▁Herhangi 30521
әнең 30520
▁Tommy 30520
▁машину 30520
▁первую 30510
▁бәр 30506
▁друзья 30505
▁Clark 30501
▁Master 30501
▁nature 30501
▁kardeşler 30497
▁Южно 30496
▁құн 30492
▁İblis 30490
▁binlerce 30489
▁тик 30483
▁келтіру 30481
▁увер 30480
▁söylediği 30479
▁groups 30478
▁rivoj 30478
ğimizde 30477
чис 30471
▁ҫӳ 30469
nes 30466
▁принял 30464
▁распоряж 30464
▁рассказать 30464
▁чӑн 30463
▁сумме 30454
ӑран 30453
▁salon 30453
erg 30452
▁бақылауды 30452
ilərin 30448
▁Görün 30447
▁андай 30447
үлгөн 30445
▁қойнауын 30444
▁sıç 30441
▁семинар 30436
▁фармацевти 30433
IG 30428
▁albatta 30427
▁еліміздің 30424
▁ancient 30423
▁күрһәт 30423
▁приглаш 30423
▁effect 30422
ision 30421
чили 30421
шел 30418
▁Merkez 30417
akk 30416
▁Матф 30416
▁metal 30415
▁blue 30413
▁fruit 30413
sonli 30408
▁персонала 30403
▁видео 30400
▁contin 30399
▁Yönetim 30398
▁проводятся 30396
▁harekete 30395
▁Вид 30395
▁жетек 30394
иваться 30393
▁айтқанда 30391
▁Kevin 30390
▁topluluk 30390
▁кешегә 30385
▁telefonu 30381
▁Эксп 30380
▁tər 30377
▁сах 30377
▁келетін 30376
▁жақсарту 30374
▁Bende 30371
▁Chuck 30368
тет 30367
▁advice 30366
бі 30365
▁quiet 30365
orlar 30364
▁қызметтерді 30364
▁Eh 30361
▁basis 30361
▁huquqiy 30361
▁камер 30361
ктын 30359
▁Davut 30356
▁yerlerde 30356
▁swe 30354
iyeti 30353
▁boss 30353
▁кіріс 30351
▁сүзләре 30351
▁Dal 30343
erve 30340
▁помогает 30340
ционная 30339
▁әкімдігі 30338
▁char 30337
онов 30335
әрекет 30335
▁olamiz 30335
▁ваше 30335
▁площади 30334
ваемых 30332
ıld 30331
▁çağ 30330
▁şeylerden 30330
▁нев 30329
▁Rabbim 30328
▁берүү 30327
▁Amy 30325
лари 30324
▁жатат 30324
▁имею 30323
ull 30322
гой 30322
▁Ob 30322
кун 30321
цеп 30321
▁Ye 30321
▁қарашадағы 30310
▁хабардар 30301
elerle 30296
▁башта 30294
▁prefer 30293
▁бери 30293
▁вра 30293
нить 30290
dikten 30288
▁luck 30288
▁президент 30288
▁Мария 30286
▁Kö 30282
▁вклад 30281
▁ұсынылған 30281
▁gerekirse 30280
елеп 30273
▁араһында 30271
▁жасалады 30270
▁қарамастан 30265
▁qadr 30264
ador 30263
ube 30263
[...]
