<unk>	0
<s>	0
</s>	0
<2alt>	0
<2az>	0
<2ba>	0
<2cjs>	0
<2crh>	0
<2cv>	0
<2gag>	0
<2kaa>	0
<2kjh>	0
<2kk>	0
<2krc>	0
<2kum>	0
<2ky>	0
<2sah>	0
<2slr>	0
<2tk>	0
<2tr>	0
<2tt>	0
<2tyv>	0
<2ug>	0
<2uum>	0
<2uz>	0
<2en>	0
<2ru>	0
<0x00>	0
<0x01>	0
<0x02>	0
<0x03>	0
<0x04>	0
<0x05>	0
<0x06>	0
<0x07>	0
<0x08>	0
<0x09>	0
<0x0A>	0
<0x0B>	0
<0x0C>	0
<0x0D>	0
<0x0E>	0
<0x0F>	0
<0x10>	0
<0x11>	0
<0x12>	0
<0x13>	0
<0x14>	0
<0x15>	0
<0x16>	0
<0x17>	0
<0x18>	0
<0x19>	0
<0x1A>	0
<0x1B>	0
<0x1C>	0
<0x1D>	0
<0x1E>	0
<0x1F>	0
<0x20>	0
<0x21>	0
<0x22>	0
<0x23>	0
<0x24>	0
<0x25>	0
<0x26>	0
<0x27>	0
<0x28>	0
<0x29>	0
<0x2A>	0
<0x2B>	0
<0x2C>	0
<0x2D>	0
<0x2E>	0
<0x2F>	0
<0x30>	0
<0x31>	0
<0x32>	0
<0x33>	0
<0x34>	0
<0x35>	0
<0x36>	0
<0x37>	0
<0x38>	0
<0x39>	0
<0x3A>	0
<0x3B>	0
<0x3C>	0
<0x3D>	0
<0x3E>	0
<0x3F>	0
<0x40>	0
<0x41>	0
<0x42>	0
<0x43>	0
<0x44>	0
<0x45>	0
<0x46>	0
<0x47>	0
<0x48>	0
<0x49>	0
<0x4A>	0
<0x4B>	0
<0x4C>	0
<0x4D>	0
<0x4E>	0
<0x4F>	0
<0x50>	0
<0x51>	0
<0x52>	0
<0x53>	0
<0x54>	0
<0x55>	0
<0x56>	0
<0x57>	0
<0x58>	0
<0x59>	0
<0x5A>	0
<0x5B>	0
<0x5C>	0
<0x5D>	0
<0x5E>	0
<0x5F>	0
<0x60>	0
<0x61>	0
<0x62>	0
<0x63>	0
<0x64>	0
<0x65>	0
<0x66>	0
<0x67>	0
<0x68>	0
<0x69>	0
<0x6A>	0
<0x6B>	0
<0x6C>	0
<0x6D>	0
<0x6E>	0
<0x6F>	0
<0x70>	0
<0x71>	0
<0x72>	0
<0x73>	0
<0x74>	0
<0x75>	0
<0x76>	0
<0x77>	0
<0x78>	0
<0x79>	0
<0x7A>	0
<0x7B>	0
<0x7C>	0
<0x7D>	0
<0x7E>	0
<0x7F>	0
<0x80>	0
<0x81>	0
<0x82>	0
<0x83>	0
<0x84>	0
<0x85>	0
<0x86>	0
<0x87>	0
<0x88>	0
<0x89>	0
<0x8A>	0
<0x8B>	0
<0x8C>	0
<0x8D>	0
<0x8E>	0
<0x8F>	0
<0x90>	0
<0x91>	0
<0x92>	0
<0x93>	0
<0x94>	0
<0x95>	0
<0x96>	0
<0x97>	0
<0x98>	0
<0x99>	0
<0x9A>	0
<0x9B>	0
<0x9C>	0
<0x9D>	0
<0x9E>	0
<0x9F>	0
<0xA0>	0
<0xA1>	0
<0xA2>	0
<0xA3>	0
<0xA4>	0
<0xA5>	0
<0xA6>	0
<0xA7>	0
<0xA8>	0
<0xA9>	0
<0xAA>	0
<0xAB>	0
<0xAC>	0
<0xAD>	0
<0xAE>	0
<0xAF>	0
<0xB0>	0
<0xB1>	0
<0xB2>	0
<0xB3>	0
<0xB4>	0
<0xB5>	0
<0xB6>	0
<0xB7>	0
<0xB8>	0
<0xB9>	0
<0xBA>	0
<0xBB>	0
<0xBC>	0
<0xBD>	0
<0xBE>	0
<0xBF>	0
<0xC0>	0
<0xC1>	0
<0xC2>	0
<0xC3>	0
<0xC4>	0
<0xC5>	0
<0xC6>	0
<0xC7>	0
<0xC8>	0
<0xC9>	0
<0xCA>	0
<0xCB>	0
<0xCC>	0
<0xCD>	0
<0xCE>	0
<0xCF>	0
<0xD0>	0
<0xD1>	0
<0xD2>	0
<0xD3>	0
<0xD4>	0
<0xD5>	0
<0xD6>	0
<0xD7>	0
<0xD8>	0
<0xD9>	0
<0xDA>	0
<0xDB>	0
<0xDC>	0
<0xDD>	0
<0xDE>	0
<0xDF>	0
<0xE0>	0
<0xE1>	0
<0xE2>	0
<0xE3>	0
<0xE4>	0
<0xE5>	0
<0xE6>	0
<0xE7>	0
<0xE8>	0
<0xE9>	0
<0xEA>	0
<0xEB>	0
<0xEC>	0
<0xED>	0
<0xEE>	0
<0xEF>	0
<0xF0>	0
<0xF1>	0
<0xF2>	0
<0xF3>	0
<0xF4>	0
<0xF5>	0
<0xF6>	0
<0xF7>	0
<0xF8>	0
<0xF9>	0
<0xFA>	0
<0xFB>	0
<0xFC>	0
<0xFD>	0
<0xFE>	0
<0xFF>	0
▁.	-0
▁,	-1
in	-2
▁a	-3
▁t	-4
ar	-5
▁b	-6
er	-7
an	-8
ен	-9
ан	-10
ст	-11
▁s	-12
en	-13
ар	-14
am	-15
▁o	-16
▁п	-17
▁d	-18
▁к	-19
▁с	-20
ir	-21
ал	-22
il	-23
▁т	-24
▁б	-25
▁;	-26
ер	-27
▁y	-28
or	-29
at	-30
is	-31
▁m	-32
▁h	-33
▁k	-34
▁th	-35
▁о	-36
▁в	-37
▁g	-38
al	-39
▁н	-40
ет	-41
on	-42
▁и	-43
ат	-44
▁м	-45
▁&	-46
ын	-47
amp	-48
ов	-49
lar	-50
ел	-51
ın	-52
▁?	-53
un	-54
es	-55
ed	-56
▁д	-57
as	-58
▁-	-59
но	-60
im	-61
os	-62
el	-63
▁ж	-64
ра	-65
▁w	-66
et	-67
ay	-68
ak	-69
▁B	-70
да	-71
ou	-72
▁v	-73
го	-74
it	-75
▁the	-76
ол	-77
ad	-78
iy	-79
ot	-80
▁A	-81
ре	-82
▁n	-83
ing	-84
ek	-85
то	-86
iz	-87
▁c	-88
▁_	-89
ны	-90
▁f	-91
▁ap	-92
▁q	-93
ем	-94
ur	-95
ес	-96
ия	-97
ас	-98
ро	-99
ли	-100
▁apos	-101
▁p	-102
ин	-103
▁S	-104
ит	-105
le	-106
ды	-107
▁по	-108
▁у	-109
li	-110
ек	-111
da	-112
▁bir	-113
ыл	-114
▁to	-115
за	-116
▁а	-117
la	-118
▁I	-119
▁қ	-120
▁an	-121
re	-122
▁T	-123
ам	-124
▁i	-125
▁in	-126
ey	-127
ств	-128
▁)	-129
om	-130
не	-131
em	-132
ор	-133
▁ч	-134
▁you	-135
▁of	-136
▁H	-137
▁ol	-138
▁:	-139
▁на	-140
ün	-141
us	-142
um	-143
ко	-144
▁M	-145
ec	-146
▁qu	-147
▁э	-148
▁(	-149
ır	-150
ай	-151
▁is	-152
ін	-153
ler	-154
ри	-155
ки	-156
▁O	-157
id	-158
ım	-159
ени	-160
ol	-161
он	-162
▁quot	-163
ка	-164
▁Y	-165
ла	-166
ab	-167
ah	-168
▁am	-169
▁К	-170
di	-171
ch	-172
▁D	-173
▁ç	-174
▁on	-175
ру	-176
av	-177
ut	-178
ед	-179
▁!	-180
▁de	-181
ul	-182
▁K	-183
▁А	-184
ей	-185
▁r	-186
ом	-187
▁П	-188
▁and	-189
ap	-190
az	-191
ак	-192
ни	-193
▁х	-194
ся	-195
ok	-196
ent	-197
ық	-198
▁«	-199
ул	-200
ил	-201
▁N	-202
▁»	-203
▁не	-204
ik	-205
ци	-206
▁e	-207
ini	-208
стан	-209
▁М	-210
▁ş	-211
▁..	-212
▁l	-213
▁ра	-214
▁E	-215
▁С	-216
▁ve	-217
ion	-218
ow	-219
дар	-220
ish	-221
▁C	-222
▁Б	-223
ac	-224
▁G	-225
▁за	-226
де	-227
▁...	-228
та	-229
aş	-230
ig	-231
▁об	-232
ың	-233
▁ö	-234
ız	-235
ic	-236
▁amp	-237
им	-238
▁P	-239
на	-240
ур	-241
▁со	-242
▁Р	-243
de	-244
әр	-245
iyor	-246
ık	-247
од	-248
▁от	-249
ган	-250
▁ө	-251
▁al	-252
▁W	-253
▁ш	-254
ər	-255
▁про	-256
▁О	-257
ель	-258
от	-259
yor	-260
▁gö	-261
▁я	-262
▁u	-263
ения	-264
ыс	-265
ым	-266
ных	-267
▁Т	-268
ир	-269
du	-270
ті	-271
ış	-272
ыз	-273
▁Н	-274
ыр	-275
▁В	-276
dan	-277
iş	-278
ib	-279
уб	-280
▁bil	-281
▁R	-282
ез	-283
ıl	-284
ой	-285
lik	-286
ov	-287
▁И	-288
ать	-289
▁z	-290
га	-291
сти	-292
ere	-293
▁wh	-294
ти	-295
▁ал	-296
ма	-297
▁—	-298
▁et	-299
▁Th	-300
▁bu	-301
▁з	-302
st	-303
▁iç	-304
ән	-305
ос	-306
ында	-307
▁be	-308
▁го	-309
ce	-310
▁‘	-311
▁re	-312
ür	-313
▁ре	-314
ного	-315
іл	-316
тар	-317
аш	-318
▁that	-319
лар	-320
lan	-321
gan	-322
▁что	-323
ред	-324
ht	-325
ис	-326
ağ	-327
ev	-328
ле	-329
▁г	-330
аб	-331
▁ed	-332
ав	-333
ған	-334
ге	-335
▁ү	-336
▁кө	-337
ож	-338
ді	-339
▁for	-340
ля	-341
ga	-342
▁it	-343
od	-344
ог	-345
дан	-346
ғы	-347
▁sh	-348
alar	-349
▁için	-350
▁ор	-351
▁ar	-352
ға	-353
üz	-354
▁бол	-355
есп	-356
ly	-357
▁L	-358
▁İ	-359
убли	-360
ной	-361
▁F	-362
▁ст	-363
әне	-364
▁’	-365
ers	-366
▁при	-367
▁do	-368
ma	-369
unu	-370
▁те	-371
ап	-372
ine	-373
ының	-374
ми	-375
тер	-376
ып	-377
из	-378
▁Д	-379
▁е	-380
▁мен	-381
▁ne	-382
об	-383
ti	-384
ім	-385
те	-386
аль	-387
аза	-388
рав	-389
▁bo	-390
▁An	-391
▁da	-392
ld	-393
▁Қ	-394
▁pr	-395
ение	-396
ını	-397
end	-398
▁Bu	-399
ığ	-400
са	-401
ген	-402
▁me	-403
сп	-404
ist	-405
▁yap	-406
лек	-407
▁және	-408
ован	-409
▁Al	-410
op	-411
▁st	-412
ən	-413
үн	-414
мен	-415
гі	-416
ист	-417
ты	-418
ие	-419
▁У	-420
ду	-421
лу	-422
▁Респ	-423
ith	-424
ына	-425
▁Республи	-426
▁ф	-427
ra	-428
▁j	-429
▁J	-430
ation	-431
ları	-432
ill	-433
ıyor	-434
ind	-435
се	-436
▁va	-437
iv	-438
ard	-439
▁he	-440
üm	-441
öy	-442
▁as	-443
ter	-444
ствен	-445
еш	-446
and	-447
▁şey	-448
су	-449
ave	-450
алар	-451
ран	-452
art	-453
▁ver	-454
ва	-455
eni	-456
әм	-457
▁we	-458
ить	-459
ında	-460
▁бер	-461
▁это	-462
ana	-463
ip	-464
ич	-465
ша	-466
▁из	-467
gi	-468
▁or	-469
üş	-470
их	-471
▁il	-472
алы	-473
▁ҫ	-474
▁до	-475
est	-476
▁V	-477
▁һ	-478
ess	-479
uk	-480
ау	-481
ще	-482
ча	-483
ун	-484
ке	-485
ni	-486
▁“	-487
ди	-488
во	-489
ük	-490
▁with	-491
▁değ	-492
еп	-493
ta	-494
ыт	-495
ақ	-496
ско	-497
ку	-498
eri	-499
▁ә	-500
сть	-501
лан	-502
ash	-503
▁”	-504
▁Я	-505
▁oldu	-506
▁ар	-507
ции	-508
ің	-509
▁ко	-510
▁gel	-511
▁at	-512
▁ch	-513
▁ist	-514
oc	-515
ların	-516
ilir	-517
ece	-518
uş	-519
eh	-520
дай	-521
th	-522
▁#	-523
▁olm	-524
мет	-525
oy	-526
лы	-527
▁gör	-528
алық	-529
ид	-530
▁бу	-531
ные	-532
ki	-533
▁was	-534
▁ev	-535
каз	-536
lər	-537
үр	-538
оч	-539
▁baş	-540
▁ин	-541
sa	-542
▁вы	-543
өн	-544
▁have	-545
▁var	-546
▁not	-547
уш	-548
ция	-549
оль	-550
ят	-551
uz	-552
▁пред	-553
ust	-554
ida	-555
imiz	-556
ік	-557
▁ad	-558
ий	-559
дер	-560
▁On	-561
▁Ж	-562
for	-563
ут	-564
ір	-565
▁mi	-566
aq	-567
ый	-568
▁are	-569
▁Э	-570
ства	-571
ме	-572
▁her	-573
ую	-574
▁Г	-575
▁раз	-576
оз	-577
▁U	-578
ome	-579
аз	-580
▁this	-581
ob	-582
▁құ	-583
▁орган	-584
▁x	-585
▁un	-586
▁Е	-587
af	-588
▁под	-589
ada	-590
▁пер	-591
▁You	-592
▁your	-593
mek	-594
ub	-595
әс	-596
кт	-597
san	-598
ӗн	-599
дың	-600
сто	-601
ев	-602
▁son	-603
▁Bir	-604
ant	-605
ası	-606
лю	-607
edi	-608
ент	-609
ала	-610
ӑн	-611
ыш	-612
ии	-613
ется	-614
ров	-615
▁And	-616
асы	-617
iniz	-618
ət	-619
▁ben	-620
eb	-621
чен	-622
ight	-623
ge	-624
ағ	-625
se	-626
if	-627
▁–	-628
lah	-629
uy	-630
▁değil	-631
ив	-632
aha	-633
aya	-634
▁mı	-635
lı	-636
ell	-637
ning	-638
итель	-639
ный	-640
▁Wh	-641
ez	-642
тор	-643
інің	-644
ик	-645
▁No	-646
▁iş	-647
▁ком	-648
▁so	-649
mak	-650
den	-651
ould	-652
▁Ç	-653
сы	-654
▁Ал	-655
te	-656
ют	-657
▁да	-658
▁mu	-659
▁ли	-660
▁fr	-661
ном	-662
▁ger	-663
▁Allah	-664
▁The	-665
▁can	-666
▁ki	-667
әт	-668
tir	-669
lam	-670
▁тур	-671
▁Ş	-672
азақ	-673
▁ay	-674
dir	-675
че	-676
əs	-677
▁kad	-678
ına	-679
adi	-680
став	-681
▁his	-682
▁/	-683
▁en	-684
öyle	-685
ans	-686
▁көр	-687
ep	-688
етті	-689
▁olduğ	-690
▁çok	-691
▁пол	-692
aman	-693
▁go	-694
лен	-695
▁ü	-696
▁biz	-697
азақстан	-698
sun	-699
dı	-700
leri	-701
ast	-702
ах	-703
ту	-704
miş	-705
▁бар	-706
ең	-707
eç	-708
▁ай	-709
гә	-710
ның	-711
▁kar	-712
ğr	-713
оп	-714
▁сп	-715
ами	-716
али	-717
▁ан	-718
же	-719
▁my	-720
all	-721
▁Қазақстан	-722
sh	-723
▁ту	-724
▁та	-725
▁su	-726
ate	-727
iq	-728
ayı	-729
▁жыл	-730
▁һәм	-731
▁daha	-732
инист	-733
▁ты	-734
тк	-735
дел	-736
og	-737
▁ау	-738
▁З	-739
ности	-740
iler	-741
▁düş	-742
▁kon	-743
iyorum	-744
▁Х	-745
▁con	-746
мат	-747
інде	-748
esi	-749
өл	-750
▁get	-751
емлек	-752
ək	-753
ect	-754
▁ön	-755
▁sen	-756
▁yok	-757
▁will	-758
ным	-759
или	-760
сем	-761
ег	-762
▁Республики	-763
ӗр	-764
oun	-765
asi	-766
▁для	-767
▁Ben	-768
дарствен	-769
out	-770
▁kn	-771
▁бел	-772
▁Ev	-773
ых	-774
▁us	-775
▁су	-776
▁tr	-777
ark	-778
ud	-779
form	-780
ус	-781
▁ab	-782
ого	-783
▁iy	-784
lari	-785
ызмет	-786
ара	-787
tı	-788
▁бас	-789
әк	-790
▁yer	-791
▁госу	-792
▁ya	-793
дық	-794
▁gün	-795
ibi	-796
азах	-797
▁zaman	-798
цион	-799
▁ка	-800
iç	-801
▁бул	-802
▁кон	-803
▁qil	-804
лер	-805
ше	-806
inde	-807
▁el	-808
дә	-809
ort	-810
атель	-811
man	-812
ата	-813
▁қызмет	-814
ӑр	-815
ков	-816
▁they	-817
▁ex	-818
sın	-819
▁өз	-820
ecek	-821
inin	-822
вер	-823
lab	-824
▁Ch	-825
азахстан	-826
▁й	-827
ман	-828
▁siz	-829
ag	-830
еч	-831
▁р	-832
iga	-833
eden	-834
▁know	-835
▁və	-836
өр	-837
▁all	-838
▁im	-839
yn	-840
▁ұ	-841
▁раб	-842
dır	-843
▁так	-844
іс	-845
еб	-846
ön	-847
вет	-848
aç	-849
ход	-850
▁wor	-851
▁ent	-852
ләр	-853
▁был	-854
уч	-855
▁se	-856
▁оп	-857
her	-858
▁from	-859
▁etm	-860
▁kal	-861
бы	-862
із	-863
▁как	-864
лық	-865
ары	-866
▁bel	-867
▁what	-868
▁Республик	-869
ное	-870
lac	-871
му	-872
mış	-873
ich	-874
▁все	-875
▁бой	-876
▁ме	-877
ining	-878
▁kadar	-879
əy	-880
үз	-881
тан	-882
lat	-883
▁его	-884
tr	-885
▁gibi	-886
▁ес	-887
жд	-888
▁ac	-889
ehov	-890
▁olan	-891
ği	-892
▁bul	-893
тов	-894
ря	-895
▁көрс	-896
▁*	-897
alı	-898
lay	-899
▁ko	-900
üt	-901
ги	-902
▁Sh	-903
ынша	-904
▁Ш	-905
sin	-906
ении	-907
üy	-908
лед	-909
ок	-910
▁он	-911
▁Казахстан	-912
▁tak	-913
der	-914
арт	-915
▁In	-916
ня	-917
ады	-918
атын	-919
ula	-920
eş	-921
▁him	-922
▁We	-923
ования	-924
ost	-925
ине	-926
▁кел	-927
uc	-928
гән	-929
▁государствен	-930
уп	-931
▁Ne	-932
▁li	-933
▁ба	-934
сен	-935
ип	-936
ity	-937
▁them	-938
кан	-939
▁де	-940
▁com	-941
▁Ö	-942
ющ	-943
▁ус	-944
▁le	-945
гіз	-946
▁sa	-947
▁бойынша	-948
▁Ч	-949
osh	-950
еттік	-951
▁tar	-952
ые	-953
eki	-954
еді	-955
ment	-956
▁He	-957
me	-958
laş	-959
▁дол	-960
▁olar	-961
лә	-962
▁say	-963
▁kim	-964
▁çık	-965
ten	-966
▁bur	-967
рат	-968
▁или	-969
оро	-970
▁ат	-971
lara	-972
елер	-973
▁who	-974
лов	-975
isi	-976
▁мемлек	-977
▁sp	-978
▁hay	-979
▁ý	-980
раз	-981
аң	-982
▁бы	-983
▁up	-984
▁ц	-985
eye	-986
дет	-987
ime	-988
əl	-989
еля	-990
бек	-991
▁пос	-992
ri	-993
ичес	-994
▁düşün	-995
▁sev	-996
acak	-997
дам	-998
ски	-999
▁It	-1000
ского	-1001
▁out	-1002
iye	-1003
▁tan	-1004
емес	-1005
uv	-1006
ана	-1007
▁пул	-1008
▁кү	-1009
eler	-1010
қа	-1011
▁yan	-1012
ная	-1013
▁by	-1014
▁дел	-1015
our	-1016
lu	-1017
▁yaş	-1018
прав	-1019
▁But	-1020
ımız	-1021
▁about	-1022
сты	-1023
ive	-1024
▁iyi	-1025
ему	-1026
formula	-1027
əm	-1028
▁ак	-1029
рин	-1030
▁уч	-1031
лам	-1032
▁Ar	-1033
▁баш	-1034
▁bak	-1035
▁lik	-1036
ong	-1037
▁sor	-1038
▁Ama	-1039
tur	-1040
кой	-1041
▁көрсет	-1042
▁Sen	-1043
üyor	-1044
коно	-1045
әй	-1046
▁ос	-1047
▁insan	-1048
lad	-1049
ack	-1050
öz	-1051
ания	-1052
▁без	-1053
▁св	-1054
▁has	-1055
▁çal	-1056
ность	-1057
▁ю	-1058
▁то	-1059
▁теб	-1060
gil	-1061
ğim	-1062
ство	-1063
ear	-1064
esp	-1065
aki	-1066
станов	-1067
ca	-1068
его	-1069
ül	-1070
▁туралы	-1071
erv	-1072
▁ber	-1073
▁слу	-1074
ления	-1075
ose	-1076
ro	-1077
▁Ve	-1078
ык	-1079
стоя	-1080
▁л	-1081
tan	-1082
▁ama	-1083
▁сво	-1084
ry	-1085
one	-1086
ений	-1087
кер	-1088
▁bun	-1089
ӑх	-1090
ore	-1091
▁прав	-1092
▁ру	-1093
ве	-1094
чес	-1095
▁man	-1096
ally	-1097
uyor	-1098
ih	-1099
▁yar	-1100
▁gerek	-1101
▁but	-1102
▁par	-1103
▁Л	-1104
▁dur	-1105
▁geç	-1106
tır	-1107
amam	-1108
олн	-1109
▁there	-1110
ink	-1111
▁Алла	-1112
аты	-1113
ая	-1114
ör	-1115
▁one	-1116
ıs	-1117
ef	-1118
oug	-1119
▁mak	-1120
bir	-1121
тық	-1122
▁hak	-1123
ıy	-1124
▁like	-1125
асының	-1126
▁мы	-1127
▁дру	-1128
жет	-1129
уд	-1130
ery	-1131
▁olduğunu	-1132
▁öz	-1133
ению	-1134
aj	-1135
уж	-1136
▁if	-1137
▁üz	-1138
▁just	-1139
▁дей	-1140
пар	-1141
▁dav	-1142
uh	-1143
oh	-1144
adan	-1145
up	-1146
▁воз	-1147
▁деп	-1148
ешь	-1149
▁үш	-1150
▁пре	-1151
▁бир	-1152
▁их	-1153
ұм	-1154
үл	-1155
asıl	-1156
də	-1157
▁Hay	-1158
▁adam	-1159
ook	-1160
iyat	-1161
▁kö	-1162
▁қол	-1163
дын	-1164
▁исп	-1165
ies	-1166
yň	-1167
ide	-1168
мер	-1169
нӑ	-1170
ğer	-1171
іп	-1172
▁üç	-1173
дал	-1174
ух	-1175
ame	-1176
ından	-1177
▁uy	-1178
▁күн	-1179
▁лю	-1180
▁рас	-1181
ka	-1182
çek	-1183
рам	-1184
▁кар	-1185
ığı	-1186
▁Ф	-1187
ord	-1188
siy	-1189
овор	-1190
си	-1191
лас	-1192
▁What	-1193
▁тех	-1194
▁қар	-1195
▁нас	-1196
уу	-1197
ice	-1198
▁тұ	-1199
erk	-1200
▁har	-1201
acağ	-1202
▁котор	-1203
unda	-1204
▁yol	-1205
▁года	-1206
▁Biz	-1207
ник	-1208
орм	-1209
вод	-1210
ба	-1211
▁olarak	-1212
▁sonra	-1213
▁hiç	-1214
▁want	-1215
ğini	-1216
ax	-1217
rı	-1218
bek	-1219
ach	-1220
▁çalış	-1221
ло	-1222
ова	-1223
▁aç	-1224
▁onu	-1225
▁%	-1226
▁söy	-1227
▁ham	-1228
qu	-1229
▁работ	-1230
ous	-1231
▁hal	-1232
▁uch	-1233
▁жұм	-1234
ығ	-1235
ran	-1236
▁Yehov	-1237
day	-1238
иц	-1239
иза	-1240
лож	-1241
тә	-1242
▁пров	-1243
▁долж	-1244
ели	-1245
sel	-1246
▁kur	-1247
▁söyle	-1248
ными	-1249
idan	-1250
▁тө	-1251
па	-1252
ум	-1253
len	-1254
▁меня	-1255
▁од	-1256
▁эк	-1257
▁Q	-1258
огда	-1259
▁here	-1260
port	-1261
нал	-1262
шы	-1263
рем	-1264
lash	-1265
▁рай	-1266
чи	-1267
аны	-1268
үү	-1269
▁ав	-1270
ской	-1271
▁ет	-1272
▁Это	-1273
ber	-1274
adece	-1275
▁gü	-1276
▁did	-1277
▁Evet	-1278
ının	-1279
▁сал	-1280
▁ҡ	-1281
▁nın	-1282
▁mis	-1283
lık	-1284
▁тү	-1285
юд	-1286
▁қал	-1287
яз	-1288
▁were	-1289
дің	-1290
▁pe	-1291
▁мож	-1292
kin	-1293
▁tek	-1294
▁зна	-1295
ilm	-1296
гер	-1297
▁Do	-1298
▁right	-1299
ются	-1300
▁ни	-1301
▁their	-1302
▁Ә	-1303
▁мо	-1304
▁же	-1305
▁тер	-1306
олько	-1307
▁На	-1308
ӑл	-1309
izm	-1310
alan	-1311
▁тар	-1312
eli	-1313
іне	-1314
ff	-1315
ысы	-1316
▁yet	-1317
ver	-1318
▁em	-1319
▁any	-1320
▁git	-1321
ком	-1322
иль	-1323
орт	-1324
▁had	-1325
▁top	-1326
▁кез	-1327
▁no	-1328
ani	-1329
▁мемлекеттік	-1330
збек	-1331
inden	-1332
лем	-1333
▁mü	-1334
иб	-1335
гы	-1336
там	-1337
▁our	-1338
▁yo	-1339
ew	-1340
рыл	-1341
▁some	-1342
dim	-1343
ınız	-1344
ever	-1345
▁обла	-1346
ылар	-1347
▁сов	-1348
▁~	-1349
▁ис	-1350
▁gid	-1351
асында	-1352
▁ish	-1353
▁bilan	-1354
use	-1355
етін	-1356
▁Ты	-1357
abilir	-1358
ится	-1359
▁Tan	-1360
▁При	-1361
▁gir	-1362
▁ас	-1363
▁жүр	-1364
ci	-1365
mas	-1366
абыл	-1367
үй	-1368
тив	-1369
▁ta	-1370
кім	-1371
▁менен	-1372
▁жол	-1373
ure	-1374
oq	-1375
▁göst	-1376
циаль	-1377
▁di	-1378
ley	-1379
▁kend	-1380
уль	-1381
▁кал	-1382
▁benim	-1383
до	-1384
▁мер	-1385
ением	-1386
iston	-1387
lem	-1388
ее	-1389
әл	-1390
▁кан	-1391
▁En	-1392
▁Pr	-1393
tık	-1394
pr	-1395
▁olac	-1396
▁но	-1397
atlar	-1398
▁St	-1399
▁kor	-1400
▁пар	-1401
▁söyl	-1402
стар	-1403
▁кыл	-1404
▁Z	-1405
▁прин	-1406
▁Bun	-1407
▁пай	-1408
unuz	-1409
▁лиц	-1410
ary	-1411
еж	-1412
іст	-1413
▁район	-1414
уға	-1415
▁По	-1416
ocuk	-1417
дағы	-1418
▁uchun	-1419
әһ	-1420
аттар	-1421
ardım	-1422
▁qo	-1423
na	-1424
▁As	-1425
▁mus	-1426
▁бюд	-1427
ct	-1428
chi	-1429
ople	-1430
▁nasıl	-1431
ilgan	-1432
▁dön	-1433
▁кеш	-1434
ya	-1435
ild	-1436
▁uz	-1437
▁don	-1438
▁tut	-1439
▁бұ	-1440
▁gr	-1441
▁yak	-1442
ществ	-1443
▁would	-1444
ayan	-1445
ры	-1446
▁жөн	-1447
act	-1448
yon	-1449
ста	-1450
▁yüz	-1451
kü	-1452
иш	-1453
▁la	-1454
▁God	-1455
үм	-1456
ӑш	-1457
▁үшін	-1458
▁onun	-1459
▁объ	-1460
ebilir	-1461
ýä	-1462
tü	-1463
ions	-1464
▁Минист	-1465
mam	-1466
мот	-1467
торо	-1468
▁қа	-1469
▁duy	-1470
imi	-1471
eth	-1472
▁iz	-1473
▁büy	-1474
ответ	-1475
▁dev	-1476
▁жер	-1477
▁bana	-1478
▁olur	-1479
dü	-1480
əb	-1481
▁ak	-1482
cı	-1483
ass	-1484
▁kul	-1485
▁when	-1486
▁ен	-1487
ина	-1488
▁бір	-1489
сын	-1490
▁Й	-1491
▁So	-1492
▁dem	-1493
mon	-1494
anın	-1495
oj	-1496
▁Он	-1497
ите	-1498
истан	-1499
рен	-1500
▁yıl	-1501
▁им	-1502
▁she	-1503
нов	-1504
ings	-1505
larını	-1506
bekiston	-1507
рез	-1508
ких	-1509
mem	-1510
▁time	-1511
ылы	-1512
imdi	-1513
▁bar	-1514
▁konuş	-1515
əd	-1516
сь	-1517
▁мне	-1518
ublik	-1519
kil	-1520
ующ	-1521
▁te	-1522
▁think	-1523
қар	-1524
▁Узбек	-1525
▁пом	-1526
▁җ	-1527
▁соответ	-1528
тың	-1529
▁ти	-1530
ang	-1531
espublik	-1532
ound	-1533
▁жар	-1534
▁Ку	-1535
▁people	-1536
dik	-1537
▁во	-1538
сов	-1539
▁gerçek	-1540
▁got	-1541
▁br	-1542
▁Is	-1543
▁алар	-1544
▁qar	-1545
рия	-1546
том	-1547
fer	-1548
way	-1549
пе	-1550
чет	-1551
йым	-1552
▁Иег	-1553
dum	-1554
рет	-1555
reat	-1556
кономи	-1557
▁сред	-1558
еләр	-1559
ӗҫ	-1560
▁бөл	-1561
фи	-1562
яв	-1563
▁san	-1564
▁Hayır	-1565
▁önce	-1566
▁услу	-1567
▁кай	-1568
▁bosh	-1569
▁сам	-1570
▁ile	-1571
to	-1572
ve	-1573
▁кил	-1574
емесе	-1575
ick	-1576
▁үз	-1577
▁ئ	-1578
own	-1579
ять	-1580
▁соответств	-1581
▁göre	-1582
▁немесе	-1583
ence	-1584
ень	-1585
▁need	-1586
alk	-1587
ati	-1588
ную	-1589
▁соб	-1590
▁see	-1591
▁öl	-1592
ase	-1593
род	-1594
сан	-1595
▁бюджет	-1596
▁göz	-1597
▁Узбекистан	-1598
lardan	-1599
сә	-1600
▁Не	-1601
▁Yehova	-1602
▁организа	-1603
--	-1604
есь	-1605
раж	-1606
▁Respublik	-1607
▁чтобы	-1608
eyi	-1609
▁ok	-1610
ünkü	-1611
▁адам	-1612
ию	-1613
▁сказ	-1614
▁az	-1615
▁karş	-1616
▁Баш	-1617
ret	-1618
▁söz	-1619
▁мәс	-1620
eng	-1621
▁bunu	-1622
▁dis	-1623
реб	-1624
ымен	-1625
▁эм	-1626
▁Ad	-1627
ление	-1628
ika	-1629
ıyorum	-1630
ug	-1631
ступ	-1632
▁они	-1633
anı	-1634
ite	-1635
int	-1636
ause	-1637
елей	-1638
larni	-1639
▁кол	-1640
▁been	-1641
ede	-1642
▁beni	-1643
labilir	-1644
of	-1645
іш	-1646
▁This	-1647
pt	-1648
▁уча	-1649
▁work	-1650
дө	-1651
▁X	-1652
ırak	-1653
▁yaz	-1654
кен	-1655
ыть	-1656
ынан	-1657
ank	-1658
исс	-1659
▁жас	-1660
итет	-1661
һы	-1662
▁öld	-1663
ese	-1664
iyorsun	-1665
▁комп	-1666
▁Bur	-1667
▁bec	-1668
▁друг	-1669
▁ek	-1670
▁All	-1671
уы	-1672
▁də	-1673
▁жағ	-1674
▁senin	-1675
oz	-1676
tim	-1677
кого	-1678
ishi	-1679
ade	-1680
ile	-1681
▁Ө	-1682
▁тал	-1683
▁Ы	-1684
▁res	-1685
ыв	-1686
▁Am	-1687
лект	-1688
▁Мы	-1689
ери	-1690
▁мог	-1691
▁Ан	-1692
▁min	-1693
əh	-1694
ken	-1695
кес	-1696
▁said	-1697
▁белән	-1698
arı	-1699
▁kiş	-1700
▁tur	-1701
ви	-1702
▁тебя	-1703
ue	-1704
нар	-1705
▁хӑ	-1706
ольз	-1707
▁es	-1708
▁yardım	-1709
▁ll	-1710
may	-1711
ove	-1712
ыва	-1713
▁ку	-1714
▁эш	-1715
oş	-1716
▁ит	-1717
▁bağ	-1718
▁Республикасының	-1719
▁Ü	-1720
aba	-1721
▁ın	-1722
ough	-1723
▁sür	-1724
тік	-1725
▁тел	-1726
lerini	-1727
▁sah	-1728
una	-1729
щего	-1730
▁реш	-1731
ara	-1732
▁more	-1733
▁Her	-1734
▁действ	-1735
▁öğr	-1736
▁seni	-1737
üzel	-1738
▁вер	-1739
ней	-1740
▁now	-1741
si	-1742
ден	-1743
▁бағ	-1744
aly	-1745
▁hat	-1746
abil	-1747
▁Siz	-1748
▁day	-1749
▁дә	-1750
тен	-1751
ятель	-1752
▁пу	-1753
▁если	-1754
клю	-1755
тал	-1756
▁иш	-1757
нер	-1758
пол	-1759
ире	-1760
имо	-1761
▁Прав	-1762
▁произ	-1763
▁күр	-1764
▁қос	-1765
▁bol	-1766
men	-1767
maya	-1768
▁good	-1769
▁боль	-1770
▁инф	-1771
инистр	-1772
▁hel	-1773
ад	-1774
▁говор	-1775
▁бил	-1776
▁büyük	-1777
▁аудан	-1778
▁жұмыс	-1779
ырыл	-1780
▁How	-1781
▁пов	-1782
▁Гос	-1783
▁Но	-1784
▁қор	-1785
лау	-1786
▁ча	-1787
▁ап	-1788
▁қат	-1789
ram	-1790
▁өтк	-1791
аться	-1792
ents	-1793
ığını	-1794
▁также	-1795
▁ел	-1796
▁öy	-1797
dur	-1798
ций	-1799
ерек	-1800
irish	-1801
ari	-1802
▁how	-1803
дин	-1804
▁dün	-1805
▁tash	-1806
siz	-1807
▁fa	-1808
сене	-1809
▁göster	-1810
▁Kit	-1811
▁ark	-1812
idagi	-1813
▁sağ	-1814
▁comp	-1815
age	-1816
рос	-1817
▁back	-1818
▁İn	-1819
akat	-1820
▁could	-1821
ımı	-1822
быз	-1823
▁kullan	-1824
▁den	-1825
▁мат	-1826
▁doğr	-1827
кон	-1828
▁zor	-1829
▁осу	-1830
▁Республикасы	-1831
lic	-1832
▁part	-1833
нан	-1834
▁Об	-1835
▁там	-1836
▁kap	-1837
▁будет	-1838
▁Son	-1839
резид	-1840
lə	-1841
ıp	-1842
дей	-1843
▁That	-1844
pen	-1845
gün	-1846
ілік	-1847
▁жет	-1848
▁нар	-1849
▁bırak	-1850
▁hakk	-1851
ех	-1852
dən	-1853
▁hu	-1854
▁kız	-1855
▁сәй	-1856
ись	-1857
▁getir	-1858
▁Кудай	-1859
ood	-1860
▁проц	-1861
▁жағдай	-1862
▁себ	-1863
▁быть	-1864
xt	-1865
▁бай	-1866
▁kel	-1867
per	-1868
▁hem	-1869
ren	-1870
▁Про	-1871
ely	-1872
▁тә	-1873
▁Respublikasi	-1874
дік	-1875
ья	-1876
muş	-1877
▁every	-1878
ilik	-1879
▁разв	-1880
жи	-1881
▁çek	-1882
other	-1883
ера	-1884
▁bile	-1885
▁Ý	-1886
endi	-1887
▁fir	-1888
are	-1889
ütün	-1890
▁bit	-1891
lerin	-1892
ряд	-1893
▁Or	-1894
▁зд	-1895
▁жана	-1896
▁İş	-1897
елов	-1898
▁may	-1899
▁Презид	-1900
▁үй	-1901
▁өт	-1902
▁мек	-1903
▁sana	-1904
▁настоя	-1905
лік	-1906
жа	-1907
▁bor	-1908
▁kat	-1909
lü	-1910
ther	-1911
өз	-1912
ете	-1913
чӗ	-1914
тын	-1915
▁sadece	-1916
▁ag	-1917
▁year	-1918
ование	-1919
еге	-1920
тау	-1921
ӗл	-1922
əz	-1923
ili	-1924
ест	-1925
▁Вы	-1926
унк	-1927
daki	-1928
кумен	-1929
ligi	-1930
орма	-1931
inə	-1932
рах	-1933
▁қам	-1934
руд	-1935
▁ок	-1936
олог	-1937
▁those	-1938
ӑм	-1939
раб	-1940
▁Что	-1941
▁kay	-1942
▁ұйым	-1943
▁жылғы	-1944
edim	-1945
▁then	-1946
lig	-1947
ким	-1948
icha	-1949
▁faz	-1950
▁Йәһ	-1951
бер	-1952
▁врем	-1953
▁off	-1954
▁inc	-1955
▁было	-1956
▁вып	-1957
əc	-1958
ульт	-1959
▁neden	-1960
▁Ес	-1961
larda	-1962
itt	-1963
ath	-1964
▁gen	-1965
▁ут	-1966
ект	-1967
кая	-1968
son	-1969
▁наш	-1970
htiy	-1971
▁qilish	-1972
рт	-1973
▁га	-1974
▁way	-1975
▁бал	-1976
▁өчен	-1977
ğin	-1978
▁рег	-1979
▁осуществ	-1980
▁респ	-1981
▁образ	-1982
ими	-1983
▁биз	-1984
dy	-1985
мы	-1986
ated	-1987
▁olacak	-1988
▁Un	-1989
ne	-1990
▁Ү	-1991
мақ	-1992
▁тол	-1993
дары	-1994
▁когда	-1995
▁iki	-1996
▁экономи	-1997
▁мин	-1998
adı	-1999
▁зап	-2000
▁over	-2001
▁ro	-2002
▁кор	-2003
▁меж	-2004
▁нач	-2005
▁which	-2006
▁Tanrı	-2007
tu	-2008
нес	-2009
рал	-2010
фер	-2011
▁представ	-2012
ылық	-2013
▁biri	-2014
оғ	-2015
▁докумен	-2016
енә	-2017
▁Oh	-2018
leş	-2019
▁жүз	-2020
▁сер	-2021
ляется	-2022
мест	-2023
ца	-2024
▁үч	-2025
▁chiq	-2026
▁eder	-2027
iyle	-2028
рас	-2029
ici	-2030
▁should	-2031
мәт	-2032
ləri	-2033
ise	-2034
теп	-2035
▁vard	-2036
ree	-2037
▁өн	-2038
▁ул	-2039
▁ona	-2040
let	-2041
▁bet	-2042
▁ақ	-2043
аг	-2044
ату	-2045
▁üçün	-2046
▁элект	-2047
▁der	-2048
гон	-2049
▁осы	-2050
ven	-2051
▁hap	-2052
larning	-2053
▁look	-2054
▁республи	-2055
▁çocuk	-2056
вед	-2057
▁сог	-2058
thing	-2059
▁деятель	-2060
▁şu	-2061
▁Из	-2062
ilar	-2063
▁İsa	-2064
▁олар	-2065
▁сәйкес	-2066
able	-2067
стро	-2068
ağı	-2069
рок	-2070
инан	-2071
▁They	-2072
▁ma	-2073
ations	-2074
нең	-2075
▁boy	-2076
▁беру	-2077
ора	-2078
azı	-2079
▁Baş	-2080
▁Да	-2081
еспеч	-2082
tar	-2083
▁шар	-2084
▁yapt	-2085
▁только	-2086
les	-2087
іледі	-2088
шь	-2089
▁тем	-2090
аж	-2091
▁po	-2092
ством	-2093
ty	-2094
ника	-2095
▁мӗн	-2096
лет	-2097
▁som	-2098
ыг	-2099
ance	-2100
ента	-2101
зна	-2102
▁tw	-2103
▁Bel	-2104
ush	-2105
asında	-2106
sat	-2107
uda	-2108
▁уб	-2109
▁sal	-2110
ilər	-2111
▁области	-2112
дыр	-2113
▁ruh	-2114
▁мест	-2115
▁том	-2116
ание	-2117
режд	-2118
▁vaz	-2119
ила	-2120
▁қолдан	-2121
enc	-2122
▁нуж	-2123
▁предп	-2124
▁haq	-2125
▁белг	-2126
▁челов	-2127
نى	-2128
▁тәр	-2129
fore	-2130
▁mas	-2131
▁Çok	-2132
▁тебе	-2133
▁министр	-2134
▁Ҫ	-2135
▁мә	-2136
▁din	-2137
парат	-2138
ünü	-2139
хран	-2140
▁мед	-2141
нут	-2142
min	-2143
▁El	-2144
▁есть	-2145
▁үчүн	-2146
ady	-2147
▁onlar	-2148
alari	-2149
ign	-2150
▁musun	-2151
кие	-2152
▁іс	-2153
▁За	-2154
тр	-2155
adaş	-2156
otel	-2157
▁come	-2158
есі	-2159
леу	-2160
еся	-2161
▁нал	-2162
▁түр	-2163
грам	-2164
▁сан	-2165
▁zbekiston	-2166
ech	-2167
fe	-2168
▁dr	-2169
▁ik	-2170
▁Как	-2171
ması	-2172
▁расс	-2173
гө	-2174
uq	-2175
пер	-2176
ğu	-2177
сат	-2178
▁кур	-2179
асын	-2180
ному	-2181
▁bilm	-2182
▁biliyor	-2183
ical	-2184
▁бек	-2185
▁burada	-2186
ildi	-2187
лі	-2188
▁başka	-2189
▁заң	-2190
las	-2191
ýär	-2192
▁енгіз	-2193
▁mon	-2194
▁ilgil	-2195
tin	-2196
▁вед	-2197
▁hayat	-2198
өт	-2199
ось	-2200
▁яв	-2201
▁mil	-2202
ama	-2203
ғын	-2204
▁әкім	-2205
▁boshq	-2206
▁развит	-2207
▁hav	-2208
▁Bunu	-2209
▁serv	-2210
ft	-2211
▁жат	-2212
üre	-2213
▁жел	-2214
▁сдел	-2215
rat	-2216
▁жал	-2217
▁misin	-2218
sız	-2219
▁дип	-2220
хан	-2221
▁әй	-2222
▁Йәһв	-2223
▁тек	-2224
▁make	-2225
larini	-2226
▁böyle	-2227
ond	-2228
▁görün	-2229
▁люб	-2230
so	-2231
лык	-2232
ност	-2233
old	-2234
енных	-2235
▁матери	-2236
ident	-2237
▁üzer	-2238
▁cl	-2239
абар	-2240
▁dol	-2241
▁şek	-2242
гъ	-2243
әб	-2244
maz	-2245
▁между	-2246
▁bek	-2247
иялық	-2248
tor	-2249
alım	-2250
tern	-2251
▁help	-2252
▁tem	-2253
▁tamam	-2254
аса	-2255
ehovah	-2256
sal	-2257
гөн	-2258
▁sav	-2259
▁olabilir	-2260
рон	-2261
▁ter	-2262
ali	-2263
▁call	-2264
щи	-2265
▁дет	-2266
be	-2267
қан	-2268
ахаб	-2269
ылған	-2270
▁стан	-2271
▁Jehovah	-2272
▁обеспеч	-2273
▁дам	-2274
ace	-2275
дем	-2276
▁dedi	-2277
▁etti	-2278
▁орын	-2279
ші	-2280
▁сист	-2281
▁след	-2282
стық	-2283
▁ист	-2284
ума	-2285
▁ил	-2286
stan	-2287
▁Жахаб	-2288
▁str	-2289
▁сот	-2290
gy	-2291
▁new	-2292
▁поряд	-2293
▁производ	-2294
▁aş	-2295
▁ner	-2296
▁жиз	-2297
иться	-2298
ts	-2299
▁kaç	-2300
eceğim	-2301
індегі	-2302
eti	-2303
iya	-2304
▁ort	-2305
▁нам	-2306
▁шеш	-2307
▁Мемлек	-2308
▁bab	-2309
oth	-2310
▁Ay	-2311
▁than	-2312
▁taraf	-2313
cha	-2314
▁кит	-2315
▁нов	-2316
▁plan	-2317
▁öldür	-2318
▁per	-2319
▁дан	-2320
лӗ	-2321
▁баст	-2322
кур	-2323
▁down	-2324
▁дом	-2325
уз	-2326
ью	-2327
▁От	-2328
▁бан	-2329
▁пайдал	-2330
ян	-2331
▁Onu	-2332
▁into	-2333
ial	-2334
siniz	-2335
ething	-2336
▁Министер	-2337
eah	-2338
▁dey	-2339
овать	-2340
▁может	-2341
eck	-2342
▁вс	-2343
ілген	-2344
чит	-2345
▁ви	-2346
датель	-2347
▁bulun	-2348
red	-2349
▁буду	-2350
▁отыр	-2351
gain	-2352
▁воп	-2353
▁эксп	-2354
▁take	-2355
ындағы	-2356
▁получ	-2357
▁karşı	-2358
үмк	-2359
▁fe	-2360
▁od	-2361
▁Tom	-2362
▁этом	-2363
ph	-2364
▁құрыл	-2365
▁тран	-2366
чень	-2367
fter	-2368
тому	-2369
▁поз	-2370
▁шығ	-2371
▁doğru	-2372
ушы	-2373
▁спе	-2374
циональ	-2375
▁ер	-2376
▁пур	-2377
▁hakkında	-2378
▁mah	-2379
вести	-2380
ible	-2381
▁osh	-2382
ons	-2383
▁av	-2384
▁Ger	-2385
ников	-2386
лӑ	-2387
▁only	-2388
▁жүргіз	-2389
гра	-2390
▁рез	-2391
мож	-2392
▁ihtiy	-2393
ory	-2394
ский	-2395
▁финан	-2396
mel	-2397
ırım	-2398
diy	-2399
дыру	-2400
цию	-2401
abul	-2402
▁мүмк	-2403
▁человек	-2404
лав	-2405
▁әр	-2406
▁Ком	-2407
▁она	-2408
uck	-2409
ığın	-2410
▁тӑ	-2411
лат	-2412
лаш	-2413
держ	-2414
wn	-2415
add	-2416
oss	-2417
▁Если	-2418
▁Tamam	-2419
▁güzel	-2420
▁Астан	-2421
▁Eğer	-2422
▁istem	-2423
▁жаз	-2424
▁şeyler	-2425
▁hep	-2426
▁two	-2427
▁чем	-2428
idir	-2429
▁Kaz	-2430
▁тор	-2431
olog	-2432
▁вас	-2433
ities	-2434
▁есеп	-2435
▁tell	-2436
йр	-2437
лих	-2438
▁dir	-2439
▁мет	-2440
ализа	-2441
▁other	-2442
▁которые	-2443
dım	-2444
▁кто	-2445
larga	-2446
▁geldi	-2447
low	-2448
▁ад	-2449
aları	-2450
алары	-2451
ork	-2452
еҙ	-2453
ern	-2454
▁рес	-2455
рак	-2456
▁соз	-2457
▁доп	-2458
▁fazla	-2459
▁стран	-2460
гов	-2461
▁exp	-2462
сыз	-2463
дау	-2464
▁жаң	-2465
▁amal	-2466
▁государственной	-2467
ince	-2468
▁құқ	-2469
▁учрежд	-2470
ىل	-2471
▁Ц	-2472
raf	-2473
▁пере	-2474
▁установ	-2475
meye	-2476
▁şeyi	-2477
▁under	-2478
есе	-2479
нен	-2480
яй	-2481
өм	-2482
ющих	-2483
▁құж	-2484
▁again	-2485
гда	-2486
▁let	-2487
бо	-2488
ымша	-2489
▁хот	-2490
ама	-2491
ук	-2492
▁жүзеге	-2493
▁вз	-2494
орто	-2495
▁Bil	-2496
▁обл	-2497
ition	-2498
▁biraz	-2499
ках	-2500
▁Ый	-2501
▁Yah	-2502
▁систем	-2503
▁oy	-2504
▁ек	-2505
▁dan	-2506
▁связ	-2507
aber	-2508
▁app	-2509
▁haz	-2510
▁горо	-2511
▁something	-2512
▁вид	-2513
ində	-2514
пы	-2515
▁ма	-2516
ıyorsun	-2517
abi	-2518
▁istiyorum	-2519
▁ук	-2520
▁оказ	-2521
▁время	-2522
öl	-2523
үг	-2524
▁таб	-2525
mi	-2526
ivers	-2527
▁слов	-2528
▁She	-2529
▁указ	-2530
ather	-2531
▁durum	-2532
кән	-2533
▁wr	-2534
amaz	-2535
▁If	-2536
esin	-2537
▁мил	-2538
▁going	-2539
▁arkadaş	-2540
▁Bay	-2541
ful	-2542
lish	-2543
▁For	-2544
ought	-2545
▁There	-2546
▁информа	-2547
ily	-2548
cak	-2549
▁мас	-2550
▁арнал	-2551
▁постанов	-2552
edir	-2553
ӑна	-2554
лог	-2555
ünde	-2556
ody	-2557
нде	-2558
eceğ	-2559
▁Dav	-2560
din	-2561
igan	-2562
▁fark	-2563
▁Well	-2564
▁geri	-2565
▁соглас	-2566
üç	-2567
▁ғ	-2568
ütf	-2569
ива	-2570
асыз	-2571
▁сақ	-2572
onna	-2573
▁Onun	-2574
▁ая	-2575
▁хоч	-2576
▁bas	-2577
▁тап	-2578
▁законо	-2579
мә	-2580
шен	-2581
eg	-2582
▁yön	-2583
гел	-2584
рес	-2585
dagi	-2586
▁ağ	-2587
лары	-2588
▁Har	-2589
▁пайдалан	-2590
▁hiss	-2591
▁inv	-2592
иң	-2593
▁ask	-2594
▁rah	-2595
▁ее	-2596
ству	-2597
▁служ	-2598
▁ҳ	-2599
▁er	-2600
тары	-2601
▁does	-2602
ода	-2603
lere	-2604
▁опред	-2605
ness	-2606
ҫҫ	-2607
ращ	-2608
▁яр	-2609
▁Kar	-2610
▁көз	-2611
▁inan	-2612
ris	-2613
улар	-2614
esini	-2615
▁стро	-2616
..	-2617
ene	-2618
▁Ol	-2619
ха	-2620
ens	-2621
▁того	-2622
▁=	-2623
ular	-2624
▁edil	-2625
▁acc	-2626
▁Benim	-2627
▁Br	-2628
▁kom	-2629
▁sur	-2630
▁first	-2631
ock	-2632
▁Şimdi	-2633
ских	-2634
▁Так	-2635
yz	-2636
▁Ұ	-2637
tım	-2638
▁yem	-2639
▁случа	-2640
▁değiş	-2641
tain	-2642
▁diye	-2643
ирован	-2644
▁арналған	-2645
▁кыз	-2646
ковод	-2647
▁etmek	-2648
ортостан	-2649
▁програм	-2650
дык	-2651
▁нес	-2652
▁life	-2653
▁mat	-2654
ну	-2655
iyim	-2656
огов	-2657
▁исполн	-2658
üs	-2659
akh	-2660
ерт	-2661
тори	-2662
▁сем	-2663
ұл	-2664
▁состав	-2665
▁использ	-2666
▁соответствии	-2667
bet	-2668
get	-2669
▁Ин	-2670
▁tüm	-2671
рай	-2672
▁ди	-2673
стыру	-2674
any	-2675
▁нет	-2676
▁отно	-2677
▁bütün	-2678
▁never	-2679
ain	-2680
руп	-2681
▁план	-2682
озяй	-2683
▁ilk	-2684
▁провед	-2685
we	-2686
▁мар	-2687
▁қабыл	-2688
ail	-2689
▁these	-2690
пен	-2691
▁San	-2692
malı	-2693
▁pay	-2694
otgan	-2695
▁kit	-2696
▁very	-2697
▁булган	-2698
▁которо	-2699
уге	-2700
▁gu	-2701
ilde	-2702
öv	-2703
кое	-2704
▁ед	-2705
adigan	-2706
▁Кон	-2707
mez	-2708
▁reg	-2709
imizi	-2710
калық	-2711
▁вә	-2712
▁Can	-2713
кин	-2714
▁yeni	-2715
▁um	-2716
▁ур	-2717
▁асы	-2718
▁нич	-2719
▁зем	-2720
▁çıkar	-2721
кол	-2722
стер	-2723
▁üst	-2724
mək	-2725
▁car	-2726
▁керек	-2727
▁before	-2728
ار	-2729
▁сай	-2730
▁açık	-2731
▁düny	-2732
▁эле	-2733
larına	-2734
acağım	-2735
▁Gen	-2736
▁öyle	-2737
▁Hey	-2738
▁терри	-2739
ısı	-2740
ӗм	-2741
▁ой	-2742
▁rel	-2743
▁кей	-2744
▁тво	-2745
sunuz	-2746
нолог	-2747
▁find	-2748
▁kork	-2749
▁қай	-2750
endir	-2751
▁onları	-2752
mey	-2753
▁cr	-2754
▁num	-2755
▁Иис	-2756
әсіп	-2757
▁мол	-2758
▁coun	-2759
▁басш	-2760
onun	-2761
ателя	-2762
▁окру	-2763
▁Çünkü	-2764
▁законодатель	-2765
гу	-2766
ina	-2767
tel	-2768
▁where	-2769
▁деген	-2770
aro	-2771
▁рет	-2772
▁тұр	-2773
▁айт	-2774
▁комисс	-2775
▁эп	-2776
лаго	-2777
ась	-2778
ox	-2779
ogram	-2780
▁must	-2781
▁yarat	-2782
▁Bana	-2783
▁kaz	-2784
ителя	-2785
▁anlam	-2786
▁istiyor	-2787
кар	-2788
▁yax	-2789
air	-2790
▁ob	-2791
▁really	-2792
▁өл	-2793
▁sak	-2794
▁gonna	-2795
▁birlik	-2796
▁направ	-2797
▁Dr	-2798
▁эти	-2799
▁Госу	-2800
▁этого	-2801
kat	-2802
▁пӗр	-2803
ütfen	-2804
▁Йәһвә	-2805
▁байлан	-2806
deş	-2807
tik	-2808
▁tel	-2809
▁уже	-2810
düğ	-2811
▁би	-2812
елен	-2813
▁кат	-2814
led	-2815
und	-2816
есс	-2817
ть	-2818
▁хӑй	-2819
▁после	-2820
▁мл	-2821
аптар	-2822
▁içinde	-2823
▁деятельности	-2824
dür	-2825
▁even	-2826
▁Kazakh	-2827
дов	-2828
▁поч	-2829
▁Yeah	-2830
▁bizi	-2831
▁önem	-2832
кә	-2833
ova	-2834
про	-2835
▁mut	-2836
▁име	-2837
▁измен	-2838
ает	-2839
self	-2840
eleri	-2841
ement	-2842
▁Дж	-2843
▁tas	-2844
▁At	-2845
▁ун	-2846
▁Bak	-2847
▁hazır	-2848
ting	-2849
▁alt	-2850
▁ayn	-2851
▁prob	-2852
ительства	-2853
▁talk	-2854
lus	-2855
▁bah	-2856
раждан	-2857
▁ответ	-2858
▁istedi	-2859
▁сказал	-2860
сер	-2861
▁size	-2862
ілетін	-2863
▁organ	-2864
▁tashkil	-2865
enin	-2866
дарлам	-2867
▁Sadece	-2868
əq	-2869
ое	-2870
rar	-2871
▁сил	-2872
▁ah	-2873
▁bl	-2874
ткән	-2875
інен	-2876
▁помо	-2877
▁child	-2878
▁болып	-2879
бай	-2880
alık	-2881
▁davlat	-2882
ключ	-2883
работ	-2884
▁kötü	-2885
▁hiçbir	-2886
стве	-2887
▁sır	-2888
▁Иегов	-2889
▁управ	-2890
ational	-2891
▁қамтам	-2892
▁Tr	-2893
орош	-2894
▁nin	-2895
▁söyledi	-2896
▁İy	-2897
ates	-2898
asını	-2899
ça	-2900
ілер	-2901
▁Seni	-2902
▁объек	-2903
▁because	-2904
ors	-2905
▁guy	-2906
▁beli	-2907
ori	-2908
ета	-2909
▁eş	-2910
ater	-2911
стру	-2912
andır	-2913
▁also	-2914
▁Ab	-2915
▁Sp	-2916
▁см	-2917
кции	-2918
▁ваш	-2919
▁қамтамасыз	-2920
▁Нет	-2921
iew	-2922
mad	-2923
əyə	-2924
angi	-2925
▁yil	-2926
▁выс	-2927
ремен	-2928
ala	-2929
▁чер	-2930
готов	-2931
▁сель	-2932
▁şekilde	-2933
iyy	-2934
▁erk	-2935
anlar	-2936
inc	-2937
▁Tur	-2938
▁района	-2939
üc	-2940
▁суб	-2941
ӗсем	-2942
▁Kim	-2943
erson	-2944
▁love	-2945
▁необ	-2946
▁ediyor	-2947
ош	-2948
▁nə	-2949
tür	-2950
▁gön	-2951
▁Sana	-2952
вар	-2953
elik	-2954
▁rec	-2955
▁ris	-2956
▁things	-2957
үп	-2958
lim	-2959
▁pre	-2960
луч	-2961
▁Onlar	-2962
▁пек	-2963
▁dost	-2964
▁расп	-2965
▁аш	-2966
атор	-2967
▁вӑл	-2968
▁алып	-2969
▁обяз	-2970
ake	-2971
▁сек	-2972
үк	-2973
tirish	-2974
▁muh	-2975
▁өс	-2976
ittle	-2977
▁мемлекет	-2978
өй	-2979
▁dış	-2980
▁жак	-2981
ool	-2982
амб	-2983
уры	-2984
▁saat	-2985
ұр	-2986
▁зан	-2987
▁мал	-2988
істер	-2989
▁Peki	-2990
ire	-2991
iss	-2992
аның	-2993
қы	-2994
▁•	-2995
▁нә	-2996
▁басқар	-2997
▁too	-2998
▁Аллаһ	-2999
▁My	-3000
▁fik	-3001
▁Бу	-3002
enden	-3003
▁olmak	-3004
лт	-3005
eep	-3006
▁них	-3007
▁well	-3008
ыми	-3009
ığım	-3010
▁met	-3011
▁sab	-3012
▁еще	-3013
lum	-3014
▁made	-3015
▁оның	-3016
▁просто	-3017
үш	-3018
atch	-3019
trol	-3020
жен	-3021
▁Mü	-3022
ayım	-3023
еке	-3024
иту	-3025
▁Со	-3026
ицин	-3027
sınız	-3028
▁years	-3029
▁ла	-3030
▁mes	-3031
▁güven	-3032
lib	-3033
▁кең	-3034
▁xizm	-3035
▁yoki	-3036
▁негіз	-3037
▁ب	-3038
elim	-3039
ничес	-3040
▁участ	-3041
▁onlara	-3042
ök	-3043
▁pol	-3044
▁жүй	-3045
▁нед	-3046
▁kadın	-3047
▁тең	-3048
▁Ст	-3049
▁үл	-3050
aret	-3051
▁тен	-3052
би	-3053
ves	-3054
ıyla	-3055
▁день	-3056
▁кешеләр	-3057
бор	-3058
▁жоб	-3059
▁соң	-3060
aat	-3061
рек	-3062
▁вам	-3063
▁ilgili	-3064
▁olduğu	-3065
▁болгон	-3066
▁граждан	-3067
▁лет	-3068
asyon	-3069
ием	-3070
ыны	-3071
▁Ну	-3072
ladı	-3073
▁мам	-3074
мал	-3075
▁sc	-3076
▁men	-3077
▁tam	-3078
▁onların	-3079
▁dil	-3080
▁verdi	-3081
▁стать	-3082
▁территори	-3083
▁Kon	-3084
▁sec	-3085
▁алу	-3086
▁пат	-3087
▁Daha	-3088
izmet	-3089
▁настоящ	-3090
dın	-3091
ekk	-3092
вал	-3093
▁Öz	-3094
▁ним	-3095
▁ə	-3096
üçük	-3097
▁sizin	-3098
▁социаль	-3099
ılı	-3100
▁сон	-3101
igh	-3102
ral	-3103
▁ро	-3104
▁эт	-3105
▁thr	-3106
▁проек	-3107
▁Иегова	-3108
pp	-3109
оже	-3110
ublic	-3111
ayotgan	-3112
▁треб	-3113
▁здесь	-3114
▁Allahın	-3115
lk	-3116
eve	-3117
ендә	-3118
иров	-3119
▁seç	-3120
▁Senin	-3121
▁руковод	-3122
▁Now	-3123
▁des	-3124
▁кем	-3125
▁Beni	-3126
▁edir	-3127
ілім	-3128
малар	-3129
▁gerçekten	-3130
ehow	-3131
▁ass	-3132
▁düz	-3133
▁bilen	-3134
бе	-3135
▁өзгер	-3136
со	-3137
ормат	-3138
▁şimdi	-3139
luk	-3140
▁вос	-3141
▁мақ	-3142
arlar	-3143
▁bize	-3144
▁яз	-3145
eyim	-3146
irit	-3147
▁koy	-3148
▁yal	-3149
▁основ	-3150
▁little	-3151
▁Yani	-3152
▁средств	-3153
час	-3154
▁De	-3155
▁ол	-3156
сион	-3157
▁более	-3158
als	-3159
mayı	-3160
▁перв	-3161
gar	-3162
▁сөз	-3163
▁оқ	-3164
▁nä	-3165
▁Why	-3166
▁қатыс	-3167
ӑк	-3168
▁ҫав	-3169
▁были	-3170
▁world	-3171
LA	-3172
mat	-3173
імен	-3174
▁сто	-3175
▁технолог	-3176
oğ	-3177
▁инвести	-3178
str	-3179
лин	-3180
▁ӗҫ	-3181
siya	-3182
▁көп	-3183
arak	-3184
▁тата	-3185
▁Are	-3186
▁Тур	-3187
ileri	-3188
▁ауыл	-3189
▁шешім	-3190
▁көрсету	-3191
gun	-3192
ляет	-3193
▁bizim	-3194
▁бағдарлам	-3195
▁Don	-3196
ER	-3197
ены	-3198
▁Res	-3199
дардың	-3200
▁кандай	-3201
асындағы	-3202
дарды	-3203
uth	-3204
▁sm	-3205
▁ҚР	-3206
▁Осы	-3207
ящ	-3208
ота	-3209
unun	-3210
▁ҫин	-3211
▁tomon	-3212
▁города	-3213
müş	-3214
▁qay	-3215
▁sat	-3216
kaz	-3217
▁РК	-3218
▁olsun	-3219
ıç	-3220
шер	-3221
▁Hotel	-3222
▁Государствен	-3223
яб	-3224
▁Mar	-3225
▁тов	-3226
yp	-3227
тел	-3228
▁нәр	-3229
номоч	-3230
аралық	-3231
▁Neden	-3232
▁Ýehow	-3233
▁ihtiyac	-3234
ەر	-3235
кий	-3236
▁du	-3237
▁ib	-3238
▁іш	-3239
lgan	-3240
lease	-3241
▁inter	-3242
▁очень	-3243
▁финансов	-3244
пис	-3245
ower	-3246
▁ann	-3247
▁дал	-3248
▁id	-3249
▁söyley	-3250
▁необход	-3251
рияти	-3252
bat	-3253
ена	-3254
▁Com	-3255
▁сез	-3256
sen	-3257
▁Ac	-3258
adır	-3259
htir	-3260
▁mer	-3261
▁shun	-3262
▁қаул	-3263
alq	-3264
▁аң	-3265
orat	-3266
▁New	-3267
ындай	-3268
▁hisob	-3269
▁night	-3270
▁материал	-3271
▁kendi	-3272
▁реализа	-3273
▁Ok	-3274
ылау	-3275
▁hoş	-3276
▁nec	-3277
▁yük	-3278
▁İyi	-3279
▁бекі	-3280
▁artık	-3281
lace	-3282
ләре	-3283
▁etish	-3284
ырга	-3285
▁ail	-3286
▁vak	-3287
ителей	-3288
өк	-3289
▁ск	-3290
▁hol	-3291
▁yat	-3292
▁была	-3293
lerine	-3294
▁Алмат	-3295
gr	-3296
▁доб	-3297
▁ему	-3298
▁give	-3299
▁much	-3300
▁обще	-3301
ait	-3302
inizi	-3303
▁ق	-3304
asın	-3305
алык	-3306
▁чис	-3307
▁сооб	-3308
она	-3309
▁Mr	-3310
erek	-3311
▁kol	-3312
▁süre	-3313
▁бөлім	-3314
▁халық	-3315
ати	-3316
▁кир	-3317
ələr	-3318
malar	-3319
▁start	-3320
nız	-3321
urs	-3322
▁Şu	-3323
alik	-3324
ılan	-3325
▁mem	-3326
▁рух	-3327
lak	-3328
iden	-3329
вержд	-3330
▁mean	-3331
enn	-3332
ekkür	-3333
▁заяв	-3334
▁anlat	-3335
▁услуги	-3336
üne	-3337
дня	-3338
▁қой	-3339
▁ister	-3340
▁хабар	-3341
чно	-3342
▁mar	-3343
▁ден	-3344
циялар	-3345
ize	-3346
алау	-3347
▁Con	-3348
eşekkür	-3349
▁установлен	-3350
ızı	-3351
дән	-3352
▁ош	-3353
ился	-3354
▁Come	-3355
▁last	-3356
нӗ	-3357
ув	-3358
▁nor	-3359
▁нужно	-3360
▁медицин	-3361
eya	-3362
рақ	-3363
тің	-3364
▁Gr	-3365
▁böl	-3366
esine	-3367
▁trans	-3368
▁Kazakhstan	-3369
gel	-3370
гент	-3371
енең	-3372
▁Did	-3373
asına	-3374
▁конкур	-3375
ҙә	-3376
ope	-3377
urt	-3378
ост	-3379
ром	-3380
▁haf	-3381
▁eden	-3382
егодня	-3383
▁amalga	-3384
duğ	-3385
гінің	-3386
ыстар	-3387
▁қарж	-3388
▁ұсын	-3389
▁çünkü	-3390
▁tart	-3391
▁благо	-3392
▁Аллаһы	-3393
▁+	-3394
нам	-3395
▁Ak	-3396
▁devam	-3397
ered	-3398
▁аки	-3399
lında	-3400
ӗт	-3401
▁İs	-3402
рият	-3403
▁послед	-3404
аҡ	-3405
лад	-3406
ынды	-3407
остав	-3408
▁olmalı	-3409
ins	-3410
▁ле	-3411
овер	-3412
▁Они	-3413
▁услов	-3414
tif	-3415
вид	-3416
еле	-3417
чение	-3418
▁geçir	-3419
▁бастап	-3420
лән	-3421
▁тан	-3422
▁Lord	-3423
▁after	-3424
▁bunun	-3425
▁yicha	-3426
▁менән	-3427
▁Астана	-3428
▁комитет	-3429
сед	-3430
▁great	-3431
ль	-3432
ела	-3433
асына	-3434
aw	-3435
яр	-3436
▁Ex	-3437
umuz	-3438
▁кам	-3439
usu	-3440
реш	-3441
ouse	-3442
▁авто	-3443
▁insanlar	-3444
▁году	-3445
abb	-3446
▁ph	-3447
▁май	-3448
▁kimi	-3449
ekt	-3450
iyi	-3451
imes	-3452
▁naz	-3453
▁Кит	-3454
реп	-3455
▁happen	-3456
баев	-3457
▁дай	-3458
▁хозяй	-3459
вор	-3460
eral	-3461
▁olun	-3462
gul	-3463
сін	-3464
ыту	-3465
eter	-3466
▁Пав	-3467
▁шарт	-3468
▁thing	-3469
▁vazir	-3470
нет	-3471
▁бо	-3472
▁бақ	-3473
▁дня	-3474
▁away	-3475
▁контр	-3476
ложение	-3477
▁att	-3478
дарын	-3479
▁маш	-3480
▁хал	-3481
asida	-3482
▁жөніндегі	-3483
оде	-3484
▁aynı	-3485
▁comm	-3486
▁Belki	-3487
ie	-3488
▁özel	-3489
циялық	-3490
теу	-3491
▁должны	-3492
odu	-3493
ple	-3494
▁Be	-3495
ingd	-3496
ники	-3497
▁заб	-3498
ственных	-3499
гін	-3500
ship	-3501
▁Она	-3502
larının	-3503
uman	-3504
▁prov	-3505
ığımız	-3506
maq	-3507
ric	-3508
medi	-3509
▁мерз	-3510
▁цент	-3511
▁eğ	-3512
ілді	-3513
▁дейін	-3514
ального	-3515
دى	-3516
ars	-3517
▁fam	-3518
▁вст	-3519
▁жаш	-3520
▁пир	-3521
▁сум	-3522
▁long	-3523
▁Bunun	-3524
çe	-3525
ton	-3526
айды	-3527
▁feel	-3528
▁государ	-3529
▁порядке	-3530
eks	-3531
▁отк	-3532
▁проб	-3533
енного	-3534
emi	-3535
тыр	-3536
ктан	-3537
▁doğ	-3538
▁fri	-3539
▁над	-3540
▁gece	-3541
▁show	-3542
▁пунк	-3543
langan	-3544
▁yaşam	-3545
▁many	-3546
▁басқа	-3547
düm	-3548
▁работы	-3549
ym	-3550
...	-3551
kan	-3552
ward	-3553
əcək	-3554
▁зар	-3555
редит	-3556
▁всех	-3557
▁birlikte	-3558
тыру	-3559
▁far	-3560
▁mum	-3561
uvchi	-3562
ices	-3563
▁sil	-3564
▁tal	-3565
▁реда	-3566
lariga	-3567
▁больше	-3568
▁Ю	-3569
чер	-3570
cept	-3571
▁own	-3572
▁co	-3573
▁dik	-3574
▁meet	-3575
аларды	-3576
▁still	-3577
ических	-3578
мотр	-3579
▁dif	-3580
▁friend	-3581
▁person	-3582
▁düşünüyor	-3583
âl	-3584
ner	-3585
likle	-3586
лттық	-3587
ult	-3588
land	-3589
▁Em	-3590
нерг	-3591
▁Hiç	-3592
▁Par	-3593
▁del	-3594
▁вне	-3595
▁sahip	-3596
▁ı	-3597
▁kan	-3598
▁Гай	-3599
▁izin	-3600
▁құжаттар	-3601
▁put	-3602
▁совер	-3603
▁Мемлекеттік	-3604
уй	-3605
ари	-3606
▁ul	-3607
▁бө	-3608
анын	-3609
▁why	-3610
çi	-3611
акыт	-3612
альных	-3613
▁Çocuk	-3614
▁кәсіп	-3615
▁жаңа	-3616
▁интер	-3617
вы	-3618
онд	-3619
▁km	-3620
▁old	-3621
▁ҫын	-3622
народ	-3623
▁edin	-3624
▁себя	-3625
▁،	-3626
iydi	-3627
▁sık	-3628
ia	-3629
arım	-3630
▁вод	-3631
▁öğren	-3632
▁kardeş	-3633
▁ақпарат	-3634
▁дер	-3635
▁отнош	-3636
ало	-3637
▁Kitab	-3638
қос	-3639
▁dec	-3640
▁Пер	-3641
▁турында	-3642
тап	-3643
elop	-3644
форм	-3645
▁sub	-3646
▁всё	-3647
aý	-3648
▁ве	-3649
▁When	-3650
sek	-3651
особ	-3652
▁буй	-3653
сіз	-3654
▁Fr	-3655
▁аб	-3656
▁end	-3657
▁Башҡ	-3658
▁проду	-3659
деу	-3660
▁ең	-3661
▁год	-3662
▁пен	-3663
endim	-3664
▁sizi	-3665
▁развития	-3666
ҫҫӗ	-3667
▁сондай	-3668
▁трансп	-3669
вол	-3670
лик	-3671
▁To	-3672
edik	-3673
▁луч	-3674
ейчас	-3675
▁құқық	-3676
▁Ə	-3677
ağa	-3678
щее	-3679
▁Bab	-3680
▁Mer	-3681
▁güç	-3682
▁дополн	-3683
uğ	-3684
има	-3685
уын	-3686
▁zar	-3687
▁ог	-3688
esus	-3689
▁ins	-3690
▁жағдайда	-3691
duk	-3692
иру	-3693
▁ür	-3694
iyet	-3695
▁məs	-3696
▁Пос	-3697
▁room	-3698
▁hatır	-3699
▁davran	-3700
ebil	-3701
атив	-3702
▁тӑр	-3703
uştur	-3704
▁Just	-3705
▁cons	-3706
▁küçük	-3707
zbekiston	-3708
umu	-3709
инг	-3710
tion	-3711
▁kes	-3712
▁mod	-3713
▁орт	-3714
▁Huda	-3715
▁diğer	-3716
▁толық	-3717
▁Алматы	-3718
дү	-3719
ҙы	-3720
ona	-3721
нәр	-3722
ылды	-3723
iladi	-3724
ıma	-3725
▁жо	-3726
▁уй	-3727
▁kaf	-3728
▁аза	-3729
▁тір	-3730
▁сообщ	-3731
yny	-3732
ілі	-3733
▁ör	-3734
шего	-3735
▁gəl	-3736
▁sist	-3737
▁него	-3738
▁Hudaý	-3739
▁vardı	-3740
▁Иисус	-3741
eme	-3742
utsal	-3743
▁veya	-3744
▁tarih	-3745
▁Кудайдын	-3746
мағ	-3747
▁Tek	-3748
ating	-3749
bu	-3750
ұқ	-3751
kor	-3752
▁huj	-3753
гез	-3754
▁wom	-3755
▁Мәс	-3756
▁мін	-3757
aning	-3758
▁dest	-3759
gin	-3760
енз	-3761
▁табыл	-3762
daş	-3763
ned	-3764
▁Av	-3765
▁oğ	-3766
▁Car	-3767
iness	-3768
чин	-3769
rıca	-3770
тері	-3771
▁Turk	-3772
▁real	-3773
▁Jesus	-3774
▁асыру	-3775
▁город	-3776
▁нәрсә	-3777
ши	-3778
▁Ya	-3779
▁аз	-3780
▁Amer	-3781
▁счет	-3782
▁қара	-3783
▁показ	-3784
▁bin	-3785
▁ҳәм	-3786
▁Gerçek	-3787
▁который	-3788
чу	-3789
▁its	-3790
▁sol	-3791
▁жос	-3792
▁üçin	-3793
kaç	-3794
ıcı	-3795
▁deb	-3796
▁suç	-3797
▁пал	-3798
▁Hadi	-3799
▁asos	-3800
▁görüş	-3801
▁милли	-3802
▁много	-3803
▁ye	-3804
eyin	-3805
ском	-3806
шӗн	-3807
▁buy	-3808
▁ету	-3809
iyyət	-3810
лении	-3811
▁ölüm	-3812
▁demek	-3813
полномоч	-3814
ee	-3815
тү	-3816
mət	-3817
мун	-3818
опас	-3819
ункт	-3820
үндө	-3821
кімет	-3822
▁анық	-3823
ілікті	-3824
▁problem	-3825
▁предостав	-3826
ээ	-3827
yst	-3828
уаш	-3829
емых	-3830
▁Ona	-3831
▁перед	-3832
▁мүмкін	-3833
dəs	-3834
ван	-3835
най	-3836
▁Ул	-3837
elen	-3838
▁yen	-3839
▁hamda	-3840
axs	-3841
bor	-3842
▁aý	-3843
▁İşte	-3844
▁countr	-3845
ilish	-3846
▁keep	-3847
▁Pek	-3848
▁Пол	-3849
▁орн	-3850
алған	-3851
ылады	-3852
▁электрон	-3853
ead	-3854
ысқа	-3855
▁add	-3856
▁проф	-3857
▁арқ	-3858
▁жен	-3859
▁тұл	-3860
▁hand	-3861
минист	-3862
▁hizmet	-3863
▁yüzden	-3864
▁Жахаба	-3865
улай	-3866
▁Раз	-3867
ollow	-3868
▁disc	-3869
▁faol	-3870
▁mumkin	-3871
раф	-3872
▁dak	-3873
▁vur	-3874
▁пӗл	-3875
▁Sonra	-3876
цен	-3877
ways	-3878
undan	-3879
терді	-3880
▁bilər	-3881
▁boshqa	-3882
ual	-3883
воз	-3884
тора	-3885
циал	-3886
▁где	-3887
ындау	-3888
▁kill	-3889
▁being	-3890
▁мәсел	-3891
▁gönder	-3892
мещ	-3893
ура	-3894
▁Дав	-3895
▁дек	-3896
керлер	-3897
rib	-3898
ығы	-3899
ісім	-3900
anday	-3901
indən	-3902
esinde	-3903
▁kabul	-3904
qəd	-3905
▁Ön	-3906
onom	-3907
▁uzak	-3908
▁xalq	-3909
لى	-3910
лап	-3911
ылган	-3912
▁нәти	-3913
▁Fakat	-3914
ӑп	-3915
lif	-3916
бас	-3917
дөр	-3918
▁taş	-3919
▁көш	-3920
▁ныс	-3921
артам	-3922
орошо	-3923
▁эмне	-3924
▁İnsan	-3925
met	-3926
дый	-3927
слу	-3928
тарды	-3929
▁өткіз	-3930
▁ала	-3931
▁дней	-3932
ира	-3933
нине	-3934
▁жан	-3935
▁cour	-3936
▁uzun	-3937
▁тәрті	-3938
туу	-3939
deki	-3940
oper	-3941
▁Bar	-3942
▁orada	-3943
▁возмож	-3944
▁предус	-3945
▁dok	-3946
▁форм	-3947
▁place	-3948
▁through	-3949
ahk	-3950
ская	-3951
▁kam	-3952
▁qur	-3953
▁hujj	-3954
▁әлеу	-3955
▁oluyor	-3956
▁организации	-3957
its	-3958
mal	-3959
zım	-3960
▁İç	-3961
етер	-3962
▁акт	-3963
▁iman	-3964
▁such	-3965
▁önemli	-3966
▁biliyorum	-3967
ger	-3968
لار	-3969
▁жив	-3970
▁bazı	-3971
орматив	-3972
▁бақылау	-3973
оо	-3974
lama	-3975
▁Yap	-3976
▁fin	-3977
год	-3978
aten	-3979
edin	-3980
ался	-3981
▁чыг	-3982
ystem	-3983
аларын	-3984
▁vardır	-3985
ыла	-3986
▁ayr	-3987
▁Все	-3988
▁тру	-3989
▁didn	-3990
▁дела	-3991
ностью	-3992
▁verir	-3993
dık	-3994
▁Dün	-3995
▁sin	-3996
▁дума	-3997
dün	-3998
▁Let	-3999
▁Pre	-4000
▁ise	-4001
▁kas	-4002
▁пож	-4003
▁сотруд	-4004
ýän	-4005
ует	-4006
▁нем	-4007
▁будут	-4008
htirish	-4009
дарының	-4010
никалық	-4011
▁tomonidan	-4012
▁государственных	-4013
ying	-4014
▁tap	-4015
▁found	-4016
акан	-4017
▁yür	-4018
арлар	-4019
▁thought	-4020
рех	-4021
▁Ак	-4022
mesi	-4023
▁Gör	-4024
▁аны	-4025
lıyor	-4026
истра	-4027
▁шығар	-4028
dun	-4029
гей	-4030
▁Yes	-4031
▁told	-4032
▁жылы	-4033
ото	-4034
спек	-4035
▁Кар	-4036
▁тип	-4037
чения	-4038
▁doing	-4039
цы	-4040
van	-4041
▁өк	-4042
▁won	-4043
▁тот	-4044
ğimiz	-4045
▁доро	-4046
▁olmad	-4047
▁çev	-4048
▁önc	-4049
▁зас	-4050
▁Burada	-4051
▁болады	-4052
isini	-4053
ысының	-4054
▁кейін	-4055
ирования	-4056
нь	-4057
▁уп	-4058
▁кап	-4059
ünden	-4060
▁Изге	-4061
âlâ	-4062
ога	-4063
фика	-4064
▁ilə	-4065
qəddəs	-4066
▁актив	-4067
▁рабоч	-4068
▁случае	-4069
aviy	-4070
▁Kend	-4071
isin	-4072
▁Gel	-4073
▁Not	-4074
▁Биб	-4075
▁Мне	-4076
алады	-4077
лихат	-4078
ристи	-4079
▁через	-4080
иг	-4081
▁bus	-4082
▁def	-4083
▁Мин	-4084
▁necə	-4085
larımız	-4086
▁yalnız	-4087
▁белгіл	-4088
ирек	-4089
ысты	-4090
▁газ	-4091
▁өнді	-4092
oyd	-4093
▁кв	-4094
лген	-4095
ılmış	-4096
▁Your	-4097
▁better	-4098
▁провод	-4099
ete	-4100
кел	-4101
▁жеке	-4102
▁şöyle	-4103
рады	-4104
▁dep	-4105
▁oyn	-4106
▁нер	-4107
▁Ыйык	-4108
ушылар	-4109
▁состоя	-4110
▁результ	-4111
енті	-4112
▁May	-4113
▁фор	-4114
ersin	-4115
▁haber	-4116
▁sorun	-4117
▁жизни	-4118
▁Башҡортостан	-4119
▁Er	-4120
▁Öy	-4121
arth	-4122
ании	-4123
▁Dur	-4124
▁Who	-4125
▁tür	-4126
тілер	-4127
▁herk	-4128
▁kind	-4129
ительно	-4130
▁belgil	-4131
lov	-4132
tiv	-4133
▁jam	-4134
▁Без	-4135
▁anything	-4136
▁реализации	-4137
ann	-4138
мыш	-4139
▁дв	-4140
айте	-4141
▁Bec	-4142
▁Тар	-4143
▁kişi	-4144
▁этот	-4145
еления	-4146
цев	-4147
▁Ош	-4148
lerde	-4149
▁belir	-4150
▁қызметті	-4151
uç	-4152
оды	-4153
ших	-4154
▁mən	-4155
▁итә	-4156
▁других	-4157
▁указан	-4158
▁шаруаш	-4159
lo	-4160
▁cle	-4161
▁pat	-4162
▁арт	-4163
▁баз	-4164
▁hast	-4165
▁play	-4166
▁знаю	-4167
▁кеше	-4168
▁Президент	-4169
ыу	-4170
ayın	-4171
▁жау	-4172
▁пло	-4173
▁хез	-4174
▁gelen	-4175
▁облысы	-4176
▁program	-4177
til	-4178
▁уақ	-4179
▁pres	-4180
▁unut	-4181
▁qanday	-4182
üph	-4183
▁ef	-4184
▁зн	-4185
iyiz	-4186
стік	-4187
▁çox	-4188
▁суд	-4189
▁каче	-4190
▁друго	-4191
▁должен	-4192
▁Үкімет	-4193
▁безопас	-4194
▁Приложение	-4195
▁Ко	-4196
елері	-4197
▁людей	-4198
▁специаль	-4199
▁Бог	-4200
▁сат	-4201
istan	-4202
▁home	-4203
▁list	-4204
▁стар	-4205
▁children	-4206
▁действие	-4207
ущ	-4208
ute	-4209
нің	-4210
орта	-4211
▁Min	-4212
▁gec	-4213
▁yani	-4214
▁один	-4215
▁турган	-4216
еф	-4217
liğ	-4218
▁stand	-4219
иф	-4220
emek	-4221
do	-4222
ix	-4223
üb	-4224
üğ	-4225
яс	-4226
liği	-4227
▁Mus	-4228
кі	-4229
ние	-4230
оров	-4231
▁ever	-4232
▁Алар	-4233
ism	-4234
лон	-4235
▁Ah	-4236
magan	-4237
▁mark	-4238
үб	-4239
ümüz	-4240
оғам	-4241
▁giv	-4242
▁пот	-4243
▁меся	-4244
asining	-4245
▁норматив	-4246
IN	-4247
▁taq	-4248
▁сар	-4249
▁most	-4250
lerden	-4251
▁karar	-4252
▁вопро	-4253
удь	-4254
▁әз	-4255
▁gar	-4256
▁tad	-4257
▁внут	-4258
▁тыся	-4259
ял	-4260
них	-4261
efon	-4262
▁dar	-4263
▁görə	-4264
ланған	-4265
▁болған	-4266
qt	-4267
тәр	-4268
▁сүз	-4269
▁Check	-4270
▁адамдар	-4271
▁faoliyat	-4272
lığ	-4273
▁ser	-4274
▁left	-4275
iyoruz	-4276
▁кызмат	-4277
ину	-4278
раш	-4279
stit	-4280
кция	-4281
▁Pav	-4282
▁Мен	-4283
▁benz	-4284
▁girl	-4285
▁bilir	-4286
▁област	-4287
yl	-4288
ited	-4289
▁sch	-4290
▁иде	-4291
▁процес	-4292
▁является	-4293
ress	-4294
▁set	-4295
▁Под	-4296
▁наз	-4297
▁сүй	-4298
▁хат	-4299
▁білім	-4300
▁Министерства	-4301
əbb	-4302
ьер	-4303
▁пуҫ	-4304
lendir	-4305
▁жоспар	-4306
▁работа	-4307
ях	-4308
▁Ис	-4309
▁tah	-4310
lacak	-4311
▁işte	-4312
▁эмес	-4313
▁стандар	-4314
▁tarafından	-4315
лӑх	-4316
рид	-4317
ween	-4318
овых	-4319
▁мак	-4320
▁создан	-4321
ious	-4322
інші	-4323
▁art	-4324
▁mal	-4325
▁йыл	-4326
▁сап	-4327
▁word	-4328
▁прош	-4329
▁lazım	-4330
eceğini	-4331
▁пултар	-4332
yla	-4333
елем	-4334
▁hik	-4335
ction	-4336
▁приз	-4337
▁сфер	-4338
▁qonun	-4339
▁shall	-4340
▁полож	-4341
artment	-4342
larından	-4343
▁проблем	-4344
▁Ph	-4345
hing	-4346
lion	-4347
▁хезмәт	-4348
▁органов	-4349
yg	-4350
бу	-4351
рӗ	-4352
tal	-4353
▁ач	-4354
▁юл	-4355
emez	-4356
▁hər	-4357
▁lov	-4358
▁қау	-4359
▁might	-4360
▁another	-4361
▁develop	-4362
чах	-4363
ture	-4364
нова	-4365
▁Xud	-4366
addes	-4367
імдер	-4368
▁прив	-4369
ёт	-4370
ohn	-4371
ron	-4372
▁ый	-4373
▁kil	-4374
▁buraya	-4375
▁tekrar	-4376
▁уполномоч	-4377
вать	-4378
овой	-4379
ууга	-4380
▁жаб	-4381
▁same	-4382
▁документов	-4383
▁образования	-4384
▁көрсетілетін	-4385
▁Ақ	-4386
итар	-4387
▁сый	-4388
▁төр	-4389
▁физ	-4390
▁тиіс	-4391
ürk	-4392
▁çağ	-4393
▁сын	-4394
▁арқылы	-4395
▁әлеумет	-4396
ele	-4397
▁Every	-4398
▁услуг	-4399
▁always	-4400
ишь	-4401
уса	-4402
ange	-4403
tive	-4404
▁tat	-4405
▁tay	-4406
▁сом	-4407
▁сторо	-4408
▁chiqar	-4409
eý	-4410
азар	-4411
еден	-4412
▁kıs	-4413
▁war	-4414
▁Rabb	-4415
▁банк	-4416
▁прод	-4417
▁xizmat	-4418
şı	-4419
әш	-4420
ilen	-4421
▁тесе	-4422
▁труд	-4423
ection	-4424
ukaddes	-4425
▁мекемес	-4426
рд	-4427
яд	-4428
ane	-4429
ima	-4430
лом	-4431
▁Қар	-4432
▁утвержд	-4433
үт	-4434
izi	-4435
ырт	-4436
▁joy	-4437
▁seb	-4438
▁Пред	-4439
ованию	-4440
bar	-4441
еть	-4442
▁өң	-4443
вого	-4444
▁жоғ	-4445
▁кул	-4446
▁follow	-4447
ital	-4448
▁тау	-4449
▁Adam	-4450
▁head	-4451
▁prot	-4452
ламент	-4453
▁around	-4454
▁сегодня	-4455
▁международ	-4456
ird	-4457
ики	-4458
ним	-4459
ught	-4460
абыз	-4461
вает	-4462
▁tes	-4463
▁уров	-4464
▁ker	-4465
▁tra	-4466
▁каж	-4467
жения	-4468
▁name	-4469
имости	-4470
▁вопрос	-4471
my	-4472
ск	-4473
ics	-4474
sak	-4475
гыз	-4476
body	-4477
дагы	-4478
очно	-4479
▁fun	-4480
▁мон	-4481
ingiz	-4482
ристиан	-4483
biy	-4484
ýar	-4485
лей	-4486
мах	-4487
нее	-4488
ларын	-4489
▁реги	-4490
mod	-4491
larla	-4492
▁otur	-4493
▁resp	-4494
▁субъ	-4495
альной	-4496
ji	-4497
аша	-4498
▁riv	-4499
▁uğr	-4500
▁şeh	-4501
▁Бұл	-4502
ındaki	-4503
мотрен	-4504
▁комиссия	-4505
▁Мо	-4506
▁зат	-4507
▁stud	-4508
талған	-4509
▁энерг	-4510
AN	-4511
нул	-4512
نىڭ	-4513
▁шек	-4514
ansı	-4515
▁Кор	-4516
larım	-4517
▁аның	-4518
▁внес	-4519
лением	-4520
▁регистра	-4521
ەن	-4522
▁Sor	-4523
▁foyd	-4524
▁yalan	-4525
▁ішінде	-4526
▁between	-4527
üp	-4528
уст	-4529
юсь	-4530
скер	-4531
▁bey	-4532
строй	-4533
▁құрал	-4534
▁arasında	-4535
acı	-4536
cek	-4537
ift	-4538
▁yur	-4539
ull	-4540
ожд	-4541
▁yı	-4542
line	-4543
▁kır	-4544
▁Böyle	-4545
▁Ayrıca	-4546
orr	-4547
анӑ	-4548
ене	-4549
ayet	-4550
▁Мар	-4551
▁көм	-4552
ligini	-4553
▁götür	-4554
▁қосымша	-4555
ям	-4556
moq	-4557
▁sun	-4558
▁нап	-4559
▁сак	-4560
▁фак	-4561
▁бағы	-4562
▁lütfen	-4563
ان	-4564
ысында	-4565
▁erkek	-4566
▁барлық	-4567
▁oshirish	-4568
uma	-4569
рағ	-4570
▁уш	-4571
osit	-4572
абин	-4573
asini	-4574
▁норм	-4575
▁нысан	-4576
▁Because	-4577
дәр	-4578
уют	-4579
▁ax	-4580
калар	-4581
ılık	-4582
▁Бан	-4583
▁важ	-4584
▁всем	-4585
▁даже	-4586
▁пери	-4587
▁Китеп	-4588
▁беруш	-4589
▁примен	-4590
▁believe	-4591
тех	-4592
лять	-4593
след	-4594
▁Kur	-4595
жу	-4596
әп	-4597
suz	-4598
аров	-4599
▁Türk	-4600
▁etmək	-4601
▁берген	-4602
▁geliyor	-4603
şam	-4604
жай	-4605
кую	-4606
мин	-4607
▁maq	-4608
▁пӑх	-4609
lamak	-4610
▁savaş	-4611
▁three	-4612
▁қайта	-4613
▁ҫинчен	-4614
▁ұйымда	-4615
ического	-4616
уң	-4617
yna	-4618
езд	-4619
▁Яз	-4620
алды	-4621
айтын	-4622
лению	-4623
▁анын	-4624
▁point	-4625
▁башка	-4626
▁yapıyor	-4627
▁gerekiyor	-4628
ӑт	-4629
▁Ар	-4630
▁мұ	-4631
etti	-4632
▁защ	-4633
▁род	-4634
ующих	-4635
ӗсене	-4636
▁olduk	-4637
мас	-4638
▁ию	-4639
abii	-4640
есін	-4641
▁diý	-4642
▁tab	-4643
▁күп	-4644
▁ном	-4645
▁came	-4646
▁proj	-4647
▁ввод	-4648
▁могу	-4649
▁стол	-4650
▁ҫине	-4651
usunda	-4652
ілетті	-4653
▁hayır	-4654
▁жауап	-4655
ционных	-4656
▁import	-4657
ets	-4658
мон	-4659
▁ey	-4660
▁Ау	-4661
amiz	-4662
▁Yar	-4663
▁spe	-4664
▁Мож	-4665
▁көн	-4666
ilmiş	-4667
▁хочу	-4668
▁money	-4669
▁Kutsal	-4670
▁differ	-4671
larining	-4672
әх	-4673
рит	-4674
▁--	-4675
▁Gün	-4676
▁boş	-4677
▁kun	-4678
▁emin	-4679
▁могут	-4680
▁опера	-4681
▁отдел	-4682
гү	-4683
lük	-4684
вест	-4685
▁Hep	-4686
▁best	-4687
▁form	-4688
ӑв	-4689
lul	-4690
▁Ка	-4691
▁ум	-4692
▁өткен	-4693
▁выполн	-4694
▁Правительства	-4695
це	-4696
var	-4697
ыра	-4698
eyse	-4699
uvch	-4700
erkez	-4701
ishga	-4702
▁book	-4703
ляются	-4704
ственного	-4705
▁söylüyor	-4706
AT	-4707
nom	-4708
газ	-4709
esih	-4710
▁Fran	-4711
▁ради	-4712
▁değer	-4713
kı	-4714
oli	-4715
цип	-4716
ayacak	-4717
▁geliş	-4718
▁Библи	-4719
▁кезде	-4720
▁please	-4721
▁келген	-4722
риз	-4723
лады	-4724
▁кет	-4725
▁мой	-4726
ствия	-4727
▁науч	-4728
▁Nasıl	-4729
----	-4730
▁boz	-4731
▁Вот	-4732
▁мероп	-4733
▁Yahova	-4734
▁ederim	-4735
▁değiştir	-4736
ято	-4737
ткан	-4738
▁Dev	-4739
▁Şey	-4740
нован	-4741
▁емес	-4742
alarni	-4743
ователь	-4744
ант	-4745
йти	-4746
▁Ор	-4747
▁His	-4748
▁Заң	-4749
▁дең	-4750
▁ост	-4751
ләрен	-4752
ife	-4753
лич	-4754
нем	-4755
▁Uz	-4756
imin	-4757
stand	-4758
▁Then	-4759
▁Госп	-4760
▁функ	-4761
▁heart	-4762
▁Когда	-4763
▁yapmak	-4764
lantirish	-4765
еко	-4766
▁ки	-4767
adem	-4768
ыбыз	-4769
ября	-4770
▁use	-4771
▁школ	-4772
▁готов	-4773
▁потому	-4774
▁которых	-4775
▁христиан	-4776
др	-4777
bol	-4778
луш	-4779
▁ij	-4780
▁öd	-4781
ektr	-4782
▁fuck	-4783
қосымша	-4784
▁invest	-4785
dığı	-4786
ынса	-4787
▁qiy	-4788
▁sar	-4789
▁нико	-4790
риятия	-4791
▁yakın	-4792
▁everything	-4793
▁Би	-4794
ject	-4795
▁Dir	-4796
leştir	-4797
▁Bayan	-4798
▁подготов	-4799
ON	-4800
ai	-4801
anda	-4802
ekli	-4803
ling	-4804
rist	-4805
▁bat	-4806
▁pey	-4807
тарын	-4808
▁shah	-4809
▁göstər	-4810
yr	-4811
▁lim	-4812
▁rep	-4813
▁тоб	-4814
▁тут	-4815
▁культ	-4816
▁қорға	-4817
ической	-4818
▁сейчас	-4819
▁ي	-4820
lış	-4821
quq	-4822
ули	-4823
ator	-4824
елік	-4825
▁маң	-4826
ğinde	-4827
▁rest	-4828
▁була	-4829
▁орта	-4830
колько	-4831
▁etmiş	-4832
▁мәслихат	-4833
bur	-4834
ied	-4835
ike	-4836
▁ағ	-4837
▁мө	-4838
▁col	-4839
▁inf	-4840
▁kid	-4841
▁Поч	-4842
▁мың	-4843
▁неп	-4844
▁топ	-4845
adaki	-4846
press	-4847
▁Bible	-4848
▁olacağ	-4849
▁бизнес	-4850
▁kontrol	-4851
▁ј	-4852
gər	-4853
əti	-4854
meyi	-4855
oloj	-4856
ымды	-4857
▁Get	-4858
▁Sam	-4859
▁big	-4860
▁lot	-4861
▁сел	-4862
▁ener	-4863
сті	-4864
▁Ни	-4865
aydı	-4866
ıldı	-4867
него	-4868
ылык	-4869
ятся	-4870
etler	-4871
▁Look	-4872
▁ulaş	-4873
▁остав	-4874
▁family	-4875
▁дамыту	-4876
▁nothing	-4877
▁келісім	-4878
vv	-4879
xn	-4880
ucu	-4881
▁loy	-4882
pport	-4883
▁выда	-4884
ilishi	-4885
▁Гайсә	-4886
алардың	-4887
▁провер	-4888
кы	-4889
дир	-4890
▁Es	-4891
▁əm	-4892
▁офи	-4893
сының	-4894
ылығы	-4895
▁жалпы	-4896
▁обязатель	-4897
cil	-4898
əsi	-4899
ева	-4900
anet	-4901
цией	-4902
▁sir	-4903
▁high	-4904
▁Od	-4905
әнең	-4906
▁муж	-4907
еттер	-4908
▁особ	-4909
риятий	-4910
▁mısın	-4911
▁нәтиж	-4912
ale	-4913
ata	-4914
▁Pro	-4915
▁bay	-4916
lantı	-4917
▁asla	-4918
▁аппар	-4919
▁иткән	-4920
▁азамат	-4921
▁лиценз	-4922
▁сельского	-4923
хи	-4924
dor	-4925
вой	-4926
▁Ro	-4927
▁ra	-4928
алдық	-4929
▁John	-4930
▁stop	-4931
indeki	-4932
zident	-4933
▁shaxs	-4934
▁контрол	-4935
▁teşekkür	-4936
▁аудандық	-4937
oat	-4938
вис	-4939
гал	-4940
ские	-4941
үүгө	-4942
▁Yer	-4943
▁nun	-4944
▁өйр	-4945
ғанда	-4946
▁rivoj	-4947
▁Müqəddəs	-4948
аһ	-4949
жда	-4950
жив	-4951
лак	-4952
▁idi	-4953
▁пут	-4954
▁реб	-4955
acağız	-4956
стырыл	-4957
▁olmaz	-4958
▁rahat	-4959
▁Аллах	-4960
▁Язмалар	-4961
dd	-4962
ӗш	-4963
ейт	-4964
ита	-4965
▁уәк	-4966
▁груп	-4967
▁Kitap	-4968
▁назна	-4969
▁ничего	-4970
▁against	-4971
▁Mukaddes	-4972
щё	-4973
sul	-4974
дәм	-4975
ний	-4976
чеб	-4977
қты	-4978
▁Go	-4979
алыш	-4980
ести	-4981
▁muv	-4982
▁алын	-4983
▁Президента	-4984
eld	-4985
amız	-4986
▁Нұр	-4987
▁уни	-4988
▁әрі	-4989
▁әлеуметтік	-4990
▁Ann	-4991
▁giz	-4992
▁pek	-4993
▁тас	-4994
▁тыт	-4995
дырыл	-4996
▁можно	-4997
▁тамож	-4998
ща	-4999
тип	-5000
▁Di	-5001
▁Для	-5002
▁tush	-5003
▁пока	-5004
▁ресур	-5005
ион	-5006
▁Tüm	-5007
▁cin	-5008
▁Бер	-5009
▁төл	-5010
aştır	-5011
gether	-5012
▁birkaç	-5013
▁together	-5014
ҙа	-5015
әү	-5016
еди	-5017
роп	-5018
чак	-5019
▁II	-5020
▁её	-5021
reak	-5022
един	-5023
▁Hem	-5024
▁bad	-5025
▁job	-5026
▁итеп	-5027
▁hemen	-5028
▁kazan	-5029
▁закон	-5030
▁yerine	-5031
▁жардам	-5032
▁олардың	-5033
▁официаль	-5034
▁талаптар	-5035
еү	-5036
ӗп	-5037
ham	-5038
дегі	-5039
үнүн	-5040
▁Eng	-5041
▁diy	-5042
▁mol	-5043
▁vil	-5044
ләргә	-5045
▁bahs	-5046
▁қоғам	-5047
▁техничес	-5048
чил	-5049
▁Ey	-5050
роме	-5051
стран	-5052
▁bilg	-5053
▁hour	-5054
▁свою	-5055
ingdek	-5056
▁boyun	-5057
▁системы	-5058
▁Жахабанын	-5059
▁министрлі	-5060
cc	-5061
▁Pa	-5062
коль	-5063
▁cer	-5064
amber	-5065
▁cent	-5066
▁ереж	-5067
▁встре	-5068
▁пайдалану	-5069
▁организаций	-5070
мо	-5071
фф	-5072
ём	-5073
lis	-5074
еме	-5075
лыш	-5076
lığı	-5077
▁ret	-5078
▁общ	-5079
▁чын	-5080
▁days	-5081
▁sure	-5082
▁этой	-5083
▁іске	-5084
▁больш	-5085
▁көлем	-5086
▁связи	-5087
▁қажет	-5088
▁bildir	-5089
▁foydalan	-5090
çı	-5091
будь	-5092
▁поп	-5093
▁used	-5094
▁либо	-5095
▁ишени	-5096
▁асырыл	-5097
ال	-5098
رى	-5099
yil	-5100
істі	-5101
madan	-5102
шілік	-5103
▁sent	-5104
▁Chris	-5105
▁всего	-5106
▁тұрғын	-5107
▁предусмотрен	-5108
ват	-5109
тат	-5110
▁sit	-5111
риним	-5112
▁anda	-5113
▁Alloh	-5114
▁отырып	-5115
▁решения	-5116
▁учреждения	-5117
зу	-5118
луб	-5119
▁Ап	-5120
▁kav	-5121
▁mur	-5122
▁nam	-5123
aklar	-5124
елгән	-5125
▁open	-5126
selves	-5127
▁Biraz	-5128
▁oshir	-5129
▁міндет	-5130
▁қолданысқа	-5131
АН	-5132
oke	-5133
lang	-5134
уска	-5135
▁sim	-5136
▁түш	-5137
▁ӑна	-5138
malıy	-5139
▁атқар	-5140
▁жария	-5141
▁nerede	-5142
▁number	-5143
sam	-5144
куп	-5145
лес	-5146
▁prom	-5147
ылатын	-5148
▁компания	-5149
yk	-5150
oot	-5151
adın	-5152
▁Иса	-5153
▁дав	-5154
▁дух	-5155
▁сау	-5156
▁arab	-5157
▁today	-5158
▁настоящего	-5159
lıq	-5160
дат	-5161
рей	-5162
▁ir	-5163
▁му	-5164
▁ян	-5165
ırdı	-5166
ергә	-5167
нуть	-5168
ентов	-5169
▁done	-5170
▁млрд	-5171
гля	-5172
eydi	-5173
▁Büy	-5174
▁күш	-5175
ались	-5176
lerinin	-5177
▁ishlab	-5178
▁следующ	-5179
▁üzerinde	-5180
lyk	-5181
ues	-5182
val	-5183
ено	-5184
руз	-5185
▁пл	-5186
▁ата	-5187
▁оны	-5188
▁yere	-5189
itness	-5190
▁produ	-5191
▁Сторо	-5192
abı	-5193
яти	-5194
▁ئۇ	-5195
ющие	-5196
▁bal	-5197
▁law	-5198
▁sad	-5199
▁yas	-5200
▁деле	-5201
▁gelir	-5202
▁olish	-5203
▁dikkat	-5204
▁способ	-5205
by	-5206
pl	-5207
ces	-5208
елә	-5209
жащ	-5210
ило	-5211
ылан	-5212
▁gur	-5213
ально	-5214
▁edən	-5215
▁өтін	-5216
▁жұмыстар	-5217
ец	-5218
екс	-5219
пас	-5220
eket	-5221
▁isə	-5222
▁soh	-5223
▁ziy	-5224
oning	-5225
ители	-5226
▁dist	-5227
▁spec	-5228
▁olması	-5229
▁согласно	-5230
▁ответствен	-5231
▁территории	-5232
tle	-5233
ини	-5234
осс	-5235
▁па	-5236
sanız	-5237
▁Цент	-5238
▁раст	-5239
▁өсөн	-5240
eceğiz	-5241
ention	-5242
▁наход	-5243
▁кредит	-5244
▁Sanırım	-5245
formation	-5246
qa	-5247
вел	-5248
▁ын	-5249
енной	-5250
▁stay	-5251
▁торм	-5252
▁yaklaş	-5253
▁размер	-5254
▁кезінде	-5255
fa	-5256
▁ded	-5257
▁işi	-5258
▁vis	-5259
labil	-5260
lərin	-5261
▁wait	-5262
▁zaten	-5263
▁мӗнле	-5264
▁салық	-5265
▁Prezident	-5266
ӗнче	-5267
▁mor	-5268
▁mov	-5269
▁поб	-5270
▁olmuş	-5271
▁кезең	-5272
▁разработ	-5273
akk	-5274
cret	-5275
гамб	-5276
▁saf	-5277
▁млн	-5278
▁рам	-5279
▁ҫак	-5280
дарға	-5281
▁Tanr	-5282
▁конт	-5283
ессион	-5284
▁kerak	-5285
▁qaror	-5286
▁народ	-5287
ительство	-5288
▁результат	-5289
liq	-5290
oup	-5291
инде	-5292
▁qol	-5293
▁чув	-5294
mamız	-5295
▁mill	-5296
▁read	-5297
▁house	-5298
▁капит	-5299
▁поддерж	-5300
▁специал	-5301
инди	-5302
рать	-5303
▁qal	-5304
▁гла	-5305
▁сен	-5306
ститу	-5307
▁Okay	-5308
▁агент	-5309
▁жизнь	-5310
▁белгілен	-5311
иче	-5312
▁Ос	-5313
▁Any	-5314
▁maj	-5315
▁run	-5316
челәр	-5317
▁alın	-5318
▁вара	-5319
▁жетк	-5320
▁görmek	-5321
▁деңгей	-5322
▁прилож	-5323
▁сақтау	-5324
ES	-5325
ҡа	-5326
ҙар	-5327
▁сә	-5328
рист	-5329
қсан	-5330
▁һәр	-5331
▁плат	-5332
▁görev	-5333
тандыру	-5334
▁tartib	-5335
▁wanted	-5336
ительных	-5337
▁Од	-5338
ized	-5339
▁ide	-5340
▁бор	-5341
▁лар	-5342
▁пони	-5343
▁далее	-5344
ections	-5345
iyorlar	-5346
▁ауданы	-5347
br	-5348
ıq	-5349
bul	-5350
▁Le	-5351
рукт	-5352
▁мәл	-5353
▁Yeni	-5354
▁almak	-5355
▁gitti	-5356
▁power	-5357
▁uning	-5358
▁yoksa	-5359
▁мақсат	-5360
▁жүргізу	-5361
▁вводится	-5362
▁konusunda	-5363
▁байланысты	-5364
EN	-5365
кими	-5366
▁fact	-5367
▁bundan	-5368
▁мерзім	-5369
▁внутрен	-5370
ble	-5371
çok	-5372
үнө	-5373
▁Re	-5374
over	-5375
▁Rep	-5376
▁түс	-5377
tadır	-5378
ходов	-5379
лихата	-5380
▁бағыт	-5381
ывается	-5382
▁участи	-5383
▁Националь	-5384
▁националь	-5385
▁insanların	-5386
▁tə	-5387
anyň	-5388
ided	-5389
▁həm	-5390
▁val	-5391
▁вал	-5392
▁рын	-5393
ранич	-5394
▁para	-5395
▁kimse	-5396
alarini	-5397
▁никогда	-5398
دۇ	-5399
айт	-5400
▁Ай	-5401
emin	-5402
ымал	-5403
▁sən	-5404
▁prof	-5405
▁öğret	-5406
▁страх	-5407
▁бекіті	-5408
▁Aslında	-5409
▁буйынса	-5410
ıya	-5411
уча	-5412
▁uç	-5413
▁Ав	-5414
▁зв	-5415
▁Mil	-5416
bilir	-5417
overn	-5418
▁Pres	-5419
▁iliş	-5420
▁kurt	-5421
▁parç	-5422
▁turn	-5423
▁маңыз	-5424
▁қорғау	-5425
▁Ұлттық	-5426
bi	-5427
яж	-5428
ӗс	-5429
rik	-5430
аул	-5431
юда	-5432
ақта	-5433
▁Dep	-5434
▁spirit	-5435
▁торгов	-5436
▁business	-5437
▁табылады	-5438
▁xo	-5439
ason	-5440
azir	-5441
▁бұл	-5442
▁тух	-5443
▁люди	-5444
▁болот	-5445
▁детей	-5446
▁полит	-5447
▁тексер	-5448
▁халықаралық	-5449
ged	-5450
нән	-5451
rsat	-5452
▁Man	-5453
ution	-5454
▁eğer	-5455
▁tane	-5456
▁yeter	-5457
▁басшысы	-5458
▁мемлекетт	-5459
▁управления	-5460
AR	-5461
ҙе	-5462
▁І	-5463
ört	-5464
руг	-5465
сир	-5466
▁Fac	-5467
▁tav	-5468
▁сол	-5469
▁сро	-5470
ились	-5471
▁conf	-5472
▁lead	-5473
▁Bütün	-5474
▁earth	-5475
▁декаб	-5476
ıt	-5477
udi	-5478
▁kut	-5479
▁два	-5480
▁час	-5481
meden	-5482
▁olay	-5483
▁şans	-5484
▁атап	-5485
▁облы	-5486
ıyoruz	-5487
▁уақыт	-5488
▁енгізу	-5489
▁оч	-5490
akin	-5491
ющей	-5492
▁Say	-5493
▁nar	-5494
▁sın	-5495
▁başar	-5496
▁miyim	-5497
▁отчет	-5498
idd	-5499
дон	-5500
▁уг	-5501
amak	-5502
atur	-5503
ğine	-5504
оруд	-5505
▁Пат	-5506
▁нег	-5507
▁hear	-5508
▁quest	-5509
▁wrong	-5510
▁farklı	-5511
▁безопасности	-5512
amı	-5513
lin	-5514
uch	-5515
▁ot	-5516
▁пря	-5517
ğiniz	-5518
▁Char	-5519
▁else	-5520
▁took	-5521
оговор	-5522
▁günah	-5523
▁telefon	-5524
▁Мемлекет	-5525
▁Yehovanın	-5526
ەت	-5527
ted	-5528
üst	-5529
дель	-5530
▁det	-5531
▁hız	-5532
▁ten	-5533
▁tuz	-5534
томоб	-5535
▁test	-5536
нибудь	-5537
▁помощ	-5538
▁тепер	-5539
irk	-5540
нос	-5541
үкт	-5542
▁са	-5543
▁One	-5544
▁York	-5545
▁went	-5546
▁парт	-5547
masını	-5548
▁bring	-5549
▁ничек	-5550
▁тенге	-5551
▁system	-5552
▁кылган	-5553
▁собствен	-5554
mur	-5555
ədə	-5556
ети	-5557
▁Sc	-5558
▁алд	-5559
▁ран	-5560
▁each	-5561
▁дирек	-5562
▁поступ	-5563
▁boshqar	-5564
жат	-5565
сон	-5566
▁яш	-5567
дері	-5568
▁gaz	-5569
▁Его	-5570
▁Artık	-5571
▁belki	-5572
▁заңнам	-5573
▁админист	-5574
▁Gerçekten	-5575
▁маслихата	-5576
UR	-5577
lən	-5578
ысын	-5579
▁kah	-5580
▁tər	-5581
▁Сов	-5582
▁film	-5583
▁hard	-5584
▁лица	-5585
▁Почему	-5586
▁теперь	-5587
mer	-5588
▁ях	-5589
▁қо	-5590
▁cev	-5591
▁həy	-5592
▁sok	-5593
▁жин	-5594
▁қаз	-5595
▁buna	-5596
▁care	-5597
▁course	-5598
▁Ýehowa	-5599
▁көрсөт	-5600
▁субъек	-5601
▁проведения	-5602
com	-5603
уда	-5604
oint	-5605
алан	-5606
улық	-5607
▁тіз	-5608
▁kims	-5609
▁Башк	-5610
▁кажд	-5611
lərini	-5612
тердің	-5613
▁anlaş	-5614
▁hafta	-5615
▁алган	-5616
▁country	-5617
▁организация	-5618
rin	-5619
tın	-5620
ший	-5621
▁Yet	-5622
▁güc	-5623
borot	-5624
lerle	-5625
енным	-5626
▁başk	-5627
▁увер	-5628
▁част	-5629
▁пункт	-5630
▁числе	-5631
▁understand	-5632
ətir	-5633
▁nef	-5634
▁red	-5635
▁ülk	-5636
▁кер	-5637
▁Бога	-5638
ремьер	-5639
larında	-5640
▁belgilan	-5641
▁республикан	-5642
OR	-5643
ladi	-5644
онда	-5645
▁Men	-5646
▁köp	-5647
ually	-5648
алығы	-5649
ларды	-5650
маған	-5651
▁sayı	-5652
uyorum	-5653
▁yerde	-5654
▁dakika	-5655
▁kurtar	-5656
▁государства	-5657
елю	-5658
ofiq	-5659
ılır	-5660
ация	-5661
▁Kap	-5662
▁fır	-5663
▁mul	-5664
▁пит	-5665
▁пок	-5666
▁түз	-5667
енные	-5668
ключа	-5669
▁предприним	-5670
vet	-5671
▁aj	-5672
ализ	-5673
ющий	-5674
▁вла	-5675
ladım	-5676
ублик	-5677
этому	-5678
▁дост	-5679
▁вакыт	-5680
▁Minist	-5681
▁потреб	-5682
▁gereken	-5683
▁сказать	-5684
ақы	-5685
▁Uy	-5686
▁ün	-5687
▁ци	-5688
anks	-5689
anız	-5690
lərə	-5691
madı	-5692
ünüz	-5693
▁işe	-5694
▁kez	-5695
▁Ҫав	-5696
▁Doğr	-5697
▁guys	-5698
landır	-5699
▁creat	-5700
▁комплек	-5701
▁сотрудни	-5702
gın	-5703
mun	-5704
uyu	-5705
ҙәр	-5706
▁Kız	-5707
▁Mat	-5708
▁sel	-5709
▁ким	-5710
▁хак	-5711
▁etdi	-5712
▁юрид	-5713
▁gətir	-5714
▁ведом	-5715
ционной	-5716
atı	-5717
bər	-5718
ҙың	-5719
▁müm	-5720
▁сая	-5721
ствие	-5722
▁Herk	-5723
▁sign	-5724
lerinden	-5725
▁течение	-5726
imize	-5727
▁etkil	-5728
▁условия	-5729
avi	-5730
ica	-5731
əli	-5732
▁Top	-5733
▁key	-5734
▁Пар	-5735
▁иму	-5736
asiga	-5737
▁глав	-5738
chilik	-5739
ilerin	-5740
ording	-5741
ığında	-5742
▁место	-5743
▁тысяч	-5744
▁başladı	-5745
▁транспорт	-5746
▁информации	-5747
dar	-5748
par	-5749
ләү	-5750
alth	-5751
▁веч	-5752
▁тарт	-5753
муника	-5754
ческих	-5755
▁Павел	-5756
▁сатып	-5757
▁тәртіб	-5758
▁Казахстана	-5759
ӑҫ	-5760
nat	-5761
şey	-5762
жан	-5763
люд	-5764
тах	-5765
енно	-5766
▁Rus	-5767
▁çoc	-5768
▁вза	-5769
вается	-5770
▁китер	-5771
▁хорошо	-5772
▁изменения	-5773
oci	-5774
oph	-5775
ани	-5776
▁Eur	-5777
▁ули	-5778
manın	-5779
▁жерг	-5780
▁себе	-5781
ателей	-5782
▁Ancak	-5783
▁fikir	-5784
▁охран	-5785
▁called	-5786
▁Комитет	-5787
өө	-5788
ote	-5789
ног	-5790
сәт	-5791
eniz	-5792
▁beh	-5793
▁few	-5794
▁silah	-5795
▁справ	-5796
▁harika	-5797
▁yanlış	-5798
▁ularning	-5799
▁Башкортостан	-5800
ny	-5801
osy	-5802
▁Me	-5803
▁Эп	-5804
eyen	-5805
osed	-5806
▁Yol	-5807
▁вот	-5808
▁тие	-5809
ектив	-5810
▁корп	-5811
▁теңге	-5812
▁коммун	-5813
▁органа	-5814
▁жөнүндө	-5815
etr	-5816
kar	-5817
лыҡ	-5818
руш	-5819
сез	-5820
▁əs	-5821
▁mun	-5822
▁Бас	-5823
▁чух	-5824
ision	-5825
▁приш	-5826
▁тоже	-5827
▁huquq	-5828
▁qilib	-5829
▁qilin	-5830
▁жаткан	-5831
▁программ	-5832
▁осуществляется	-5833
rip	-5834
очь	-5835
▁жи	-5836
eder	-5837
инар	-5838
▁Hav	-5839
▁city	-5840
▁sing	-5841
▁leave	-5842
ilities	-5843
lerinde	-5844
▁Lütfen	-5845
▁muvofiq	-5846
▁автомоб	-5847
▁kendiler	-5848
ternational	-5849
mit	-5850
rew	-5851
▁Af	-5852
▁Our	-5853
▁rev	-5854
▁teh	-5855
▁Бул	-5856
▁мом	-5857
ларда	-5858
▁Cent	-5859
▁günü	-5860
▁прек	-5861
▁тұлғ	-5862
▁эпир	-5863
▁өзге	-5864
▁bugün	-5865
▁loyih	-5866
▁пулнӑ	-5867
▁спорт	-5868
uf	-5869
ced	-5870
nak	-5871
дик	-5872
▁Во	-5873
▁кӑ	-5874
eýle	-5875
ider	-5876
odiy	-5877
▁Məs	-5878
▁hük	-5879
▁дев	-5880
idmət	-5881
▁этим	-5882
▁temiz	-5883
▁қауіп	-5884
▁жоғары	-5885
▁период	-5886
▁подраз	-5887
▁bakalım	-5888
▁someone	-5889
▁предлож	-5890
▁tashkilot	-5891
diq	-5892
urn	-5893
▁вни	-5894
▁оцен	-5895
ностей	-5896
▁shart	-5897
▁takip	-5898
▁without	-5899
▁определя	-5900
ору	-5901
▁By	-5902
▁үҙ	-5903
ӑмах	-5904
▁bax	-5905
▁хуш	-5906
▁чет	-5907
▁indi	-5908
▁faith	-5909
▁indir	-5910
▁отмет	-5911
▁school	-5912
▁қаулыс	-5913
▁оказания	-5914
▁совершен	-5915
ıyı	-5916
рии	-5917
сыр	-5918
▁сұ	-5919
leme	-5920
▁ещё	-5921
▁изб	-5922
▁ман	-5923
▁ней	-5924
ahkam	-5925
mişti	-5926
▁etme	-5927
▁надо	-5928
▁truth	-5929
▁while	-5930
▁Turkey	-5931
▁рамках	-5932
▁م	-5933
▁Tar	-5934
ative	-5935
месте	-5936
▁силу	-5937
▁срок	-5938
▁член	-5939
ığınız	-5940
▁своей	-5941
▁жабдық	-5942
▁оборуд	-5943
гәр	-5944
▁Kr	-5945
ayıp	-5946
işim	-5947
емые	-5948
▁Rom	-5949
▁ско	-5950
▁сөй	-5951
▁beri	-5952
▁lgan	-5953
▁mind	-5954
▁урын	-5955
альные	-5956
▁month	-5957
▁всегда	-5958
▁adamlar	-5959
▁требования	-5960
ks	-5961
уск	-5962
▁pis	-5963
▁yuk	-5964
▁жур	-5965
▁Mark	-5966
▁bekl	-5967
▁един	-5968
делген	-5969
мышлен	-5970
▁булып	-5971
▁лучше	-5972
▁төлем	-5973
▁части	-5974
▁değilim	-5975
▁басқару	-5976
чь	-5977
ahat	-5978
erse	-5979
ried	-5980
▁Зна	-5981
тармақ	-5982
▁demiş	-5983
▁kolay	-5984
▁коман	-5985
▁түгел	-5986
▁boyunca	-5987
▁zorunda	-5988
py	-5989
вин	-5990
▁Аз	-5991
▁Құ	-5992
▁ӗн	-5993
adım	-5994
итор	-5995
▁Pat	-5996
▁bag	-5997
▁böy	-5998
▁Рас	-5999
▁ска	-6000
lemek	-6001
өмкин	-6002
▁both	-6003
▁düzen	-6004
▁Назар	-6005
▁father	-6006
▁проект	-6007
▁görünüyor	-6008
sy	-6009
чә	-6010
тай	-6011
▁уж	-6012
ides	-6013
▁Gal	-6014
▁Mon	-6015
▁hey	-6016
▁цел	-6017
▁язы	-6018
ected	-6019
▁eski	-6020
korlik	-6021
▁remem	-6022
▁населения	-6023
уі	-6024
osp	-6025
sad	-6026
ому	-6027
ғаш	-6028
▁sw	-6029
▁qor	-6030
ратив	-6031
▁genç	-6032
▁okay	-6033
▁бұйр	-6034
▁икән	-6035
▁болуп	-6036
▁ресми	-6037
▁misiniz	-6038
ню	-6039
бес	-6040
кын	-6041
ола	-6042
сте	-6043
▁Ge	-6044
▁оң	-6045
▁сы	-6046
etim	-6047
лығы	-6048
▁Mən	-6049
▁екі	-6050
енный	-6051
▁опер	-6052
▁Иеговы	-6053
ped	-6054
ants	-6055
ific	-6056
▁Pol	-6057
▁ush	-6058
▁Пет	-6059
▁дәр	-6060
▁җир	-6061
miyor	-6062
шылар	-6063
▁Büyük	-6064
▁birbir	-6065
▁мөмкин	-6066
▁vazirligi	-6067
AL	-6068
▁ك	-6069
бір	-6070
▁Jo	-6071
▁уҡ	-6072
atan	-6073
əqiq	-6074
▁Kal	-6075
▁alan	-6076
▁conc	-6077
▁күні	-6078
atlari	-6079
ческой	-6080
▁fiyat	-6081
▁өндір	-6082
▁important	-6083
dak	-6084
бар	-6085
око	-6086
▁мү	-6087
anna	-6088
▁nok	-6089
▁saç	-6090
▁мөл	-6091
▁пог	-6092
ector	-6093
ылары	-6094
▁olsa	-6095
▁texn	-6096
ıyordu	-6097
▁yaptı	-6098
ностран	-6099
▁налогов	-6100
▁hujjatlar	-6101
▁енгізіледі	-6102
▁техникалық	-6103
lud	-6104
▁Ed	-6105
▁kı	-6106
ıştır	-6107
▁dair	-6108
▁date	-6109
▁Зако	-6110
щества	-6111
▁должна	-6112
▁Christi	-6113
ıx	-6114
еде	-6115
▁Ев	-6116
▁Мә	-6117
▁giy	-6118
ology	-6119
ordam	-6120
матри	-6121
ходит	-6122
▁семь	-6123
▁учет	-6124
оохран	-6125
▁death	-6126
▁повыш	-6127
▁содерж	-6128
▁Премьер	-6129
без	-6130
▁ox	-6131
▁ри	-6132
▁ыр	-6133
irdi	-6134
▁зак	-6135
▁смер	-6136
▁мәлім	-6137
▁талап	-6138
▁организ	-6139
▁President	-6140
▁different	-6141
aga	-6142
кеу	-6143
avaş	-6144
▁Yok	-6145
▁Раб	-6146
▁Сог	-6147
▁sonr	-6148
▁water	-6149
▁жакшы	-6150
▁кирәк	-6151
▁edecek	-6152
▁enough	-6153
▁интерес	-6154
▁interest	-6155
▁арасында	-6156
xon	-6157
▁Ут	-6158
atda	-6159
орын	-6160
▁aff	-6161
▁iss	-6162
▁med	-6163
ready	-6164
жетті	-6165
▁Bugün	-6166
▁qabul	-6167
▁üzere	-6168
▁сфере	-6169
▁қатар	-6170
АР	-6171
omb	-6172
теү	-6173
чик	-6174
emiz	-6175
kent	-6176
▁жақ	-6177
▁пас	-6178
▁рұқ	-6179
▁тон	-6180
▁гран	-6181
екотор	-6182
▁Genel	-6183
▁жасау	-6184
▁ediyorum	-6185
▁хозяйства	-6186
▁ұйымдастыру	-6187
kün	-6188
оне	-6189
ives	-6190
▁baj	-6191
▁məh	-6192
▁ust	-6193
▁yuz	-6194
▁çöz	-6195
▁вӗр	-6196
▁код	-6197
ingan	-6198
iving	-6199
yicha	-6200
▁bank	-6201
▁içer	-6202
▁oyun	-6203
▁poss	-6204
▁обращ	-6205
▁польз	-6206
▁xidmət	-6207
▁одного	-6208
▁помощи	-6209
вен	-6210
лия	-6211
тым	-6212
шая	-6213
порт	-6214
▁Tel	-6215
▁keç	-6216
▁loc	-6217
▁sam	-6218
▁реж	-6219
▁says	-6220
▁walk	-6221
▁даль	-6222
ıyorlar	-6223
▁elektr	-6224
▁second	-6225
▁совмест	-6226
▁иностран	-6227
▁профессион	-6228
sw	-6229
ещ	-6230
ora	-6231
outh	-6232
▁cap	-6233
▁лес	-6234
isine	-6235
ғының	-6236
▁Otel	-6237
▁char	-6238
▁mudd	-6239
▁Vazir	-6240
▁акима	-6241
▁налич	-6242
▁қалып	-6243
▁yordam	-6244
▁приказ	-6245
▁remember	-6246
▁подраздел	-6247
емен	-6248
▁Sal	-6249
▁hon	-6250
сында	-6251
▁herh	-6252
▁until	-6253
▁ветер	-6254
▁телеф	-6255
▁ярдәм	-6256
▁постав	-6257
caq	-6258
ole	-6259
haba	-6260
oung	-6261
елле	-6262
▁Mas	-6263
▁edi	-6264
▁кір	-6265
лаган	-6266
▁Buna	-6267
▁next	-6268
▁счит	-6269
▁акимат	-6270
▁регион	-6271
▁shuningdek	-6272
oms	-6273
əyi	-6274
дес	-6275
арак	-6276
▁ҫит	-6277
▁ateş	-6278
▁edip	-6279
▁mess	-6280
▁miss	-6281
▁yine	-6282
▁Турӑ	-6283
▁двух	-6284
imizin	-6285
▁order	-6286
▁пирӗн	-6287
▁шулай	-6288
▁million	-6289
▁көрсетілген	-6290
cu	-6291
▁ت	-6292
asy	-6293
lie	-6294
гын	-6295
ches	-6296
here	-6297
ield	-6298
less	-6299
▁Fir	-6300
▁kir	-6301
▁Кто	-6302
▁рәс	-6303
▁теп	-6304
lacağ	-6305
thers	-6306
▁From	-6307
▁Serv	-6308
▁замест	-6309
▁позвол	-6310
▁gelecek	-6311
▁сделать	-6312
yş	-6313
ges	-6314
med	-6315
sem	-6316
▁Kö	-6317
▁ur	-6318
▁уз	-6319
ased	-6320
lice	-6321
▁Yak	-6322
▁dal	-6323
▁esa	-6324
▁saw	-6325
ishda	-6326
▁halk	-6327
▁tkaz	-6328
▁Росс	-6329
▁yemek	-6330
▁маман	-6331
acağını	-6332
sı	-6333
aph	-6334
azar	-6335
стыр	-6336
▁Ser	-6337
▁equ	-6338
struc	-6339
ведом	-6340
▁belə	-6341
▁клас	-6342
▁конц	-6343
tiğini	-6344
▁kömək	-6345
▁продол	-6346
▁статьи	-6347
▁қаласы	-6348
▁Hudaýyň	-6349
IS	-6350
эр	-6351
shi	-6352
ects	-6353
ющим	-6354
▁cur	-6355
▁İst	-6356
▁кий	-6357
▁hala	-6358
▁hudu	-6359
▁among	-6360
▁uygul	-6361
▁Davlat	-6362
▁birini	-6363
▁почему	-6364
▁efendim	-6365
▁балалар	-6366
▁департам	-6367
шӑн	-6368
▁Geç	-6369
▁ago	-6370
▁heç	-6371
▁koş	-6372
▁жай	-6373
▁три	-6374
ющего	-6375
▁rsat	-6376
▁экен	-6377
▁Бирок	-6378
▁нинди	-6379
▁своих	-6380
▁төмен	-6381
▁partic	-6382
▁rivojlantirish	-6383
дь	-6384
emem	-6385
▁eng	-6386
▁Бар	-6387
▁Вӑл	-6388
▁Кел	-6389
▁айқ	-6390
▁heav	-6391
▁şüph	-6392
▁хран	-6393
▁diyor	-6394
▁жылға	-6395
▁подпис	-6396
▁структ	-6397
▁декабря	-6398
▁опублик	-6399
sə	-6400
иле	-6401
aşır	-6402
лама	-6403
өнья	-6404
▁Mes	-6405
▁çar	-6406
▁тик	-6407
рован	-6408
▁kirit	-6409
▁хӑйӗн	-6410
▁құрам	-6411
▁ик	-6412
ised	-6413
реть	-6414
▁İki	-6415
▁іст	-6416
▁ҫул	-6417
modda	-6418
терін	-6419
▁Rəbb	-6420
▁Öyle	-6421
▁женщ	-6422
▁зада	-6423
тоқсан	-6424
▁kesin	-6425
▁zarar	-6426
▁maqsad	-6427
▁жылдың	-6428
▁yourself	-6429
▁Министров	-6430
▁сотрудниче	-6431
▁Se	-6432
▁Wi	-6433
▁eg	-6434
alet	-6435
▁ces	-6436
▁cho	-6437
▁mom	-6438
▁mıy	-6439
▁shu	-6440
▁кли	-6441
▁муз	-6442
▁мүл	-6443
▁пош	-6444
günüm	-6445
ракти	-6446
стоян	-6447
asının	-6448
isodiy	-6449
▁hissed	-6450
▁mother	-6451
▁сохран	-6452
igi	-6453
▁üm	-6454
▁бү	-6455
▁оку	-6456
▁исем	-6457
▁coming	-6458
▁времени	-6459
▁органдар	-6460
ke	-6461
ӑй	-6462
діл	-6463
мей	-6464
улы	-6465
▁Um	-6466
ison	-6467
ğimi	-6468
▁ref	-6469
▁supp	-6470
▁мына	-6471
▁Кабин	-6472
▁төрағ	-6473
▁құжат	-6474
▁Christ	-6475
▁dostum	-6476
▁onunla	-6477
▁already	-6478
▁happened	-6479
эн	-6480
дум	-6481
▁эр	-6482
әргә	-6483
▁Kom	-6484
▁lig	-6485
▁sey	-6486
▁Сам	-6487
▁арк	-6488
▁әзір	-6489
тардың	-6490
▁woman	-6491
▁инспек	-6492
▁kendini	-6493
чай	-6494
▁ec	-6495
ışık	-6496
▁öyr	-6497
алось	-6498
терге	-6499
▁свои	-6500
▁akşam	-6501
larınız	-6502
▁переда	-6503
cy	-6504
ğe	-6505
сс	-6506
▁na	-6507
▁әм	-6508
▁liv	-6509
▁sap	-6510
▁wag	-6511
▁Şah	-6512
ering	-6513
mayın	-6514
▁İsra	-6515
▁Where	-6516
▁halde	-6517
iversit	-6518
▁Правил	-6519
▁мөлшер	-6520
orn	-6521
ayıt	-6522
reet	-6523
▁хеҙ	-6524
алась	-6525
▁With	-6526
▁olib	-6527
альный	-6528
ционер	-6529
▁минут	-6530
acaksın	-6531
▁değildi	-6532
▁س	-6533
оны	-6534
▁өм	-6535
andı	-6536
ками	-6537
стау	-6538
част	-6539
ӗсен	-6540
▁baz	-6541
▁ear	-6542
▁hed	-6543
▁дви	-6544
▁ғыл	-6545
торая	-6546
емелер	-6547
▁Bizim	-6548
▁bilgi	-6549
▁masal	-6550
▁ишеним	-6551
▁әкімді	-6552
▁основан	-6553
▁первого	-6554
▁башкалар	-6555
имен	-6556
найы	-6557
▁эпӗ	-6558
▁otel	-6559
▁bağlı	-6560
▁speak	-6561
▁ескер	-6562
▁такой	-6563
▁хотел	-6564
▁страны	-6565
▁meeting	-6566
rak	-6567
бан	-6568
гин	-6569
рау	-6570
ғал	-6571
ined	-6572
▁Dok	-6573
▁gul	-6574
▁ýaş	-6575
▁кый	-6576
▁хӗр	-6577
санын	-6578
▁aniq	-6579
▁wife	-6580
▁даму	-6581
▁тиеш	-6582
▁фили	-6583
langıç	-6584
▁ushbu	-6585
▁көмек	-6586
▁слова	-6587
▁Pavlus	-6588
▁алабыз	-6589
arda	-6590
стью	-6591
▁дем	-6592
▁пой	-6593
илась	-6594
▁dead	-6595
▁учеб	-6596
masına	-6597
▁berish	-6598
▁dışarı	-6599
▁айткан	-6600
▁күрсәт	-6601
▁olmayan	-6602
▁договор	-6603
▁необходим	-6604
Fi	-6605
рь	-6606
diş	-6607
шие	-6608
▁Gö	-6609
acaq	-6610
лись	-6611
ылай	-6612
▁бли	-6613
▁цен	-6614
▁قىل	-6615
ırlar	-6616
ферен	-6617
▁взаим	-6618
ственно	-6619
▁Pekala	-6620
▁қызметкерлер	-6621
ümü	-6622
▁аг	-6623
▁ху	-6624
▁döv	-6625
▁аст	-6626
▁мод	-6627
▁ekan	-6628
▁hotel	-6629
▁болуш	-6630
▁kaybet	-6631
▁мүмкүн	-6632
▁редакции	-6633
▁человека	-6634
▁уәкілетті	-6635
əf	-6636
тин	-6637
ғай	-6638
▁Өф	-6639
ount	-6640
ымыз	-6641
▁Sev	-6642
▁бик	-6643
▁тӗл	-6644
▁pass	-6645
▁виде	-6646
▁Başka	-6647
▁ondan	-6648
▁sorum	-6649
▁откры	-6650
▁продукции	-6651
uğu	-6652
шар	-6653
▁ей	-6654
izim	-6655
ünün	-6656
▁Rob	-6657
▁exc	-6658
▁leg	-6659
▁бат	-6660
unday	-6661
çilər	-6662
▁After	-6663
▁fakat	-6664
▁защит	-6665
▁region	-6666
▁üzerine	-6667
ительного	-6668
▁желтоқсан	-6669
oni	-6670
oya	-6671
▁Per	-6672
▁вой	-6673
▁дин	-6674
▁тыс	-6675
▁seem	-6676
▁этих	-6677
▁здрав	-6678
ффектив	-6679
▁yaptık	-6680
▁понима	-6681
▁объектов	-6682
▁соответствующ	-6683
mo	-6684
СТ	-6685
кус	-6686
▁Та	-6687
utes	-6688
▁gez	-6689
▁gök	-6690
▁ага	-6691
▁дум	-6692
▁кун	-6693
▁сип	-6694
▁aldı	-6695
▁ular	-6696
▁ярат	-6697
▁given	-6698
▁teach	-6699
▁вӗсем	-6700
▁become	-6701
▁birçok	-6702
▁эксплу	-6703
lag	-6704
yan	-6705
лос	-6706
▁яң	-6707
bers	-6708
oriy	-6709
▁eks	-6710
▁hab	-6711
▁mad	-6712
▁Сол	-6713
▁выр	-6714
lerim	-6715
▁gave	-6716
▁park	-6717
▁ведь	-6718
▁дело	-6719
▁күрә	-6720
laştır	-6721
▁bajar	-6722
▁others	-6723
▁saldır	-6724
ban	-6725
res	-6726
ynda	-6727
▁lar	-6728
▁yox	-6729
▁кни	-6730
▁неф	-6731
▁таң	-6732
erken	-6733
лений	-6734
▁dast	-6735
▁иман	-6736
▁конс	-6737
mesini	-6738
ующего	-6739
▁механ	-6740
▁musunuz	-6741
▁рассказ	-6742
▁istiyorsun	-6743
öh	-6744
ох	-6745
кем	-6746
лӗх	-6747
рев	-6748
сут	-6749
лага	-6750
▁dam	-6751
ments	-6752
▁oper	-6753
▁yolu	-6754
▁şunu	-6755
▁altında	-6756
▁araştır	-6757
▁орталық	-6758
▁қабылдау	-6759
жы	-6760
▁gl	-6761
▁Уф	-6762
ardı	-6763
diyi	-6764
▁Din	-6765
▁ega	-6766
▁лич	-6767
▁мис	-6768
eceği	-6769
малла	-6770
▁upon	-6771
▁став	-6772
ждения	-6773
▁bağış	-6774
▁talab	-6775
▁times	-6776
▁viloy	-6777
▁çağır	-6778
▁наруш	-6779
▁пурӑн	-6780
экономи	-6781
▁другие	-6782
ственной	-6783
AS	-6784
cul	-6785
бап	-6786
▁La	-6787
ists	-6788
▁Col	-6789
▁Gre	-6790
▁Tam	-6791
▁quy	-6792
▁sig	-6793
▁фай	-6794
▁шан	-6795
▁inde	-6796
▁sand	-6797
▁поли	-6798
▁исключ	-6799
▁количе	-6800
▁edebilir	-6801
▁программы	-6802
▁саласындағы	-6803
asa	-6804
▁ге	-6805
itim	-6806
ации	-6807
▁Kan	-6808
▁Maj	-6809
▁Rez	-6810
diler	-6811
▁evet	-6812
▁hold	-6813
▁проп	-6814
▁Mesih	-6815
▁алғаш	-6816
▁депут	-6817
▁засед	-6818
▁чыгар	-6819
▁істер	-6820
▁report	-6821
▁заключ	-6822
▁органы	-6823
iversity	-6824
▁бюджета	-6825
чем	-6826
▁AL	-6827
▁Ел	-6828
▁Isa	-6829
▁зал	-6830
ивать	-6831
түстік	-6832
▁incre	-6833
▁tanış	-6834
▁hisset	-6835
▁Господ	-6836
▁аларга	-6837
▁getting	-6838
ологиялық	-6839
▁редакция	-6840
▁ауданының	-6841
تى	-6842
деб	-6843
рим	-6844
чәк	-6845
▁AB	-6846
ағид	-6847
граф	-6848
▁пор	-6849
earch	-6850
meler	-6851
леген	-6852
▁rece	-6853
▁дигән	-6854
▁совет	-6855
▁tadbir	-6856
▁делать	-6857
▁оларды	-6858
▁рұқсат	-6859
▁специалист	-6860
▁постановления	-6861
joy	-6862
пӑр	-6863
▁Ek	-6864
верс	-6865
▁Ner	-6866
▁ald	-6867
▁beş	-6868
▁gib	-6869
▁sif	-6870
▁zam	-6871
▁итү	-6872
▁лау	-6873
▁ҡар	-6874
ently	-6875
етель	-6876
▁Paul	-6877
▁fikr	-6878
▁kanı	-6879
▁увид	-6880
▁истор	-6881
▁связан	-6882
▁регистрации	-6883
ys	-6884
цу	-6885
ага	-6886
дав	-6887
уну	-6888
▁Aç	-6889
ayla	-6890
imum	-6891
алыҡ	-6892
ское	-6893
әгән	-6894
▁Mal	-6895
▁Nor	-6896
▁Söz	-6897
▁çıx	-6898
▁check	-6899
▁hansı	-6900
▁means	-6901
▁since	-6902
▁пулӑш	-6903
▁тормыш	-6904
▁çocuklar	-6905
чы	-6906
оло	-6907
уга	-6908
шим	-6909
▁Co	-6910
ults	-6911
дени	-6912
▁Göz	-6913
▁Ter	-6914
▁Сер	-6915
diniz	-6916
ратег	-6917
тырыл	-6918
▁өтті	-6919
▁break	-6920
▁Может	-6921
▁milyon	-6922
els	-6923
▁Of	-6924
▁ئى	-6925
ably	-6926
▁бес	-6927
▁Good	-6928
▁stat	-6929
▁прос	-6930
alarda	-6931
ований	-6932
▁думаю	-6933
▁başına	-6934
▁негізгі	-6935
▁орынбас	-6936
▁тасымал	-6937
▁yapabilir	-6938
elt	-6939
каза	-6940
өлөр	-6941
▁siy	-6942
дания	-6943
▁Mary	-6944
▁Size	-6945
▁muht	-6946
▁подп	-6947
▁clear	-6948
▁бұдан	-6949
▁менее	-6950
▁транс	-6951
▁destek	-6952
▁gördüğ	-6953
▁ortaya	-6954
▁вместе	-6955
▁времен	-6956
▁работу	-6957
▁средства	-6958
ony	-6959
ауы	-6960
▁жі	-6961
echn	-6962
ests	-6963
▁imk	-6964
▁sud	-6965
▁Биз	-6966
▁Фед	-6967
▁case	-6968
▁keng	-6969
▁lear	-6970
▁бесп	-6971
▁қаты	-6972
▁практи	-6973
▁разреш	-6974
▁тапсыр	-6975
▁тиісті	-6976
▁axborot	-6977
ОВ	-6978
еу	-6979
alt	-6980
ifi	-6981
uff	-6982
▁Te	-6983
▁иг	-6984
илер	-6985
тағы	-6986
ікті	-6987
іміз	-6988
▁Ast	-6989
▁fac	-6990
▁koc	-6991
▁nom	-6992
▁деді	-6993
▁яхшы	-6994
▁doesn	-6995
▁holda	-6996
▁kitab	-6997
▁tanım	-6998
▁қорыт	-6999
▁председ	-7000
▁комиссии	-7001
lashtirish	-7002
▁экономики	-7003
ms	-7004
yo	-7005
ұс	-7006
han	-7007
кат	-7008
таж	-7009
точ	-7010
▁гор	-7011
▁йөр	-7012
otlar	-7013
ганда	-7014
▁....	-7015
▁land	-7016
▁vaxt	-7017
лардың	-7018
▁allow	-7019
▁cevap	-7020
▁центр	-7021
▁beraber	-7022
▁biliyorsun	-7023
ET	-7024
liy	-7025
▁ыш	-7026
үбүз	-7027
▁pop	-7028
▁Маш	-7029
нымен	-7030
ового	-7031
▁cont	-7032
▁ders	-7033
▁Патш	-7034
▁акыл	-7035
▁серд	-7036
ымдағы	-7037
▁light	-7038
▁Rezerv	-7039
▁tayyor	-7040
▁земель	-7041
▁Назарбаев	-7042
рун	-7043
ымш	-7044
diği	-7045
ласа	-7046
▁air	-7047
▁ayt	-7048
▁bed	-7049
▁mam	-7050
▁ses	-7051
▁Бай	-7052
▁Жер	-7053
▁вӑх	-7054
▁send	-7055
▁пись	-7056
▁polit	-7057
▁объем	-7058
▁сайын	-7059
alarını	-7060
IC	-7061
zi	-7062
юн	-7063
ert	-7064
lack	-7065
екен	-7066
ылып	-7067
▁cou	-7068
▁dua	-7069
▁saq	-7070
▁tez	-7071
▁Воз	-7072
▁қан	-7073
▁Əgər	-7074
▁саны	-7075
larida	-7076
▁yapar	-7077
▁алдын	-7078
▁чухне	-7079
▁өтініш	-7080
▁басқарм	-7081
▁товаров	-7082
▁мәселелер	-7083
▁belgilangan	-7084
▁information	-7085
baş	-7086
lav	-7087
lım	-7088
uss	-7089
şah	-7090
что	-7091
үйн	-7092
▁пӗ	-7093
енер	-7094
▁Jam	-7095
▁Kah	-7096
▁Деп	-7097
▁тағ	-7098
▁хәб	-7099
▁шух	-7100
inchi	-7101
▁dünya	-7102
▁examp	-7103
▁least	-7104
▁whole	-7105
▁потом	-7106
▁Tanrım	-7107
▁herkes	-7108
▁public	-7109
▁qilgan	-7110
▁seninle	-7111
▁Үкіметінің	-7112
тө	-7113
шу	-7114
مى	-7115
ыры	-7116
▁хә	-7117
ıntı	-7118
етел	-7119
стра	-7120
▁Hat	-7121
▁mey	-7122
▁İlk	-7123
▁Бал	-7124
▁Сен	-7125
ither	-7126
▁actu	-7127
▁live	-7128
▁true	-7129
lərinə	-7130
▁build	-7131
▁falan	-7132
▁hangi	-7133
▁state	-7134
▁обслу	-7135
▁основе	-7136
▁Vazirlar	-7137
▁обеспечения	-7138
▁Ол	-7139
▁ох	-7140
вращ	-7141
▁cid	-7142
▁fot	-7143
▁yor	-7144
▁пон	-7145
ендар	-7146
▁жүрг	-7147
▁ancak	-7148
▁Şeytan	-7149
▁данных	-7150
▁Merhaba	-7151
▁gidiyor	-7152
▁Republic	-7153
▁стандарт	-7154
▁постановлением	-7155
ilə	-7156
исп	-7157
▁ва	-7158
▁эл	-7159
▁эч	-7160
аний	-7161
арын	-7162
▁Iso	-7163
▁eve	-7164
▁ich	-7165
▁mab	-7166
bette	-7167
ishni	-7168
luluk	-7169
oğraf	-7170
▁week	-7171
▁Одна	-7172
▁своб	-7173
▁өкіл	-7174
esinin	-7175
ложить	-7176
▁fight	-7177
▁дости	-7178
▁тарту	-7179
▁против	-7180
▁орындал	-7181
▁шаруашылығы	-7182
ЕН	-7183
eci	-7184
▁mo	-7185
▁ыт	-7186
ledi	-7187
алла	-7188
ағын	-7189
▁gal	-7190
▁qad	-7191
▁yağ	-7192
▁жум	-7193
▁ҫап	-7194
велич	-7195
▁young	-7196
▁заңды	-7197
▁Onları	-7198
▁некотор	-7199
▁принцип	-7200
▁автомобиль	-7201
▁осуществля	-7202
ице	-7203
улер	-7204
▁yig	-7205
ленных	-7206
▁Tabii	-7207
▁anlay	-7208
▁yakal	-7209
▁право	-7210
▁журнал	-7211
▁benimle	-7212
▁yanında	-7213
overnment	-7214
▁календар	-7215
eği	-7216
лай	-7217
ҙең	-7218
▁Ag	-7219
▁TV	-7220
стит	-7221
▁meh	-7222
▁ави	-7223
▁асп	-7224
▁док	-7225
addas	-7226
adşah	-7227
atsiy	-7228
ılmaz	-7229
стары	-7230
▁odam	-7231
▁кого	-7232
▁Allaha	-7233
▁обязан	-7234
▁қатысты	-7235
▁әкімінің	-7236
щик	-7237
▁Эй	-7238
▁ир	-7239
▁hök	-7240
▁нрав	-7241
▁само	-7242
▁чего	-7243
▁human	-7244
▁sabah	-7245
▁watch	-7246
▁можем	-7247
▁мәсих	-7248
▁қарсы	-7249
▁haqida	-7250
▁support	-7251
зб	-7252
aut	-7253
bay	-7254
lex	-7255
nek	-7256
лив	-7257
шин	-7258
▁Bo	-7259
▁af	-7260
ream	-7261
сына	-7262
▁hes	-7263
▁йәш	-7264
lidir	-7265
нечно	-7266
▁requ	-7267
▁құру	-7268
▁берет	-7269
▁еңбек	-7270
мағында	-7271
▁хеҙмәт	-7272
▁которая	-7273
▁yüzünden	-7274
▁культуры	-7275
▁рассмотр	-7276
▁барысында	-7277
▁өзгерістер	-7278
gı	-7279
ədər	-7280
ости	-7281
▁bud	-7282
▁rem	-7283
▁бүл	-7284
▁haqq	-7285
▁seen	-7286
ession	-7287
▁David	-7288
▁nedir	-7289
▁women	-7290
ісі	-7291
duğu	-7292
iful	-7293
manı	-7294
імді	-7295
▁Sar	-7296
▁mav	-7297
▁tom	-7298
▁бей	-7299
▁жый	-7300
▁ник	-7301
▁area	-7302
▁nice	-7303
▁восп	-7304
▁одна	-7305
▁завер	-7306
▁прием	-7307
▁хәбәр	-7308
▁İsrail	-7309
▁жеткіз	-7310
▁миллион	-7311
▁эксплуата	-7312
▁редакцияда	-7313
▁development	-7314
зы	-7315
▁ھ	-7316
ette	-7317
торы	-7318
▁pur	-7319
▁Ман	-7320
▁Рәс	-7321
ләгән	-7322
▁Book	-7323
▁daki	-7324
▁hell	-7325
▁vide	-7326
▁Bence	-7327
▁Maybe	-7328
▁kitap	-7329
▁reach	-7330
▁тобой	-7331
▁tasdiq	-7332
▁арнайы	-7333
ционного	-7334
▁экономикалық	-7335
рӑн	-7336
▁ru	-7337
▁яҡ	-7338
amay	-7339
ency	-7340
lary	-7341
леге	-7342
▁muy	-7343
▁qat	-7344
▁Бел	-7345
▁Қаз	-7346
▁ҫӗр	-7347
kinci	-7348
истер	-7349
ымдық	-7350
▁кара	-7351
▁болса	-7352
▁сӑмах	-7353
▁merkez	-7354
▁рабочих	-7355
▁вопросам	-7356
üf	-7357
dük	-7358
fic	-7359
сих	-7360
ımızı	-7361
һында	-7362
▁alır	-7363
▁conv	-7364
▁free	-7365
▁зерт	-7366
atsiya	-7367
▁алған	-7368
▁отрас	-7369
▁труда	-7370
▁Комисс	-7371
▁мектеп	-7372
▁жергілікті	-7373
еда	-7374
▁Acc	-7375
▁Bey	-7376
▁Fin	-7377
▁jum	-7378
▁oil	-7379
▁pul	-7380
▁вол	-7381
▁шут	-7382
▁kısm	-7383
əsində	-7384
имость	-7385
▁dolar	-7386
▁üstün	-7387
▁Doktor	-7388
▁участие	-7389
▁облыстық	-7390
▁проектов	-7391
▁районного	-7392
▁қорытынды	-7393
▁мәслихатының	-7394
abr	-7395
биз	-7396
вая	-7397
кіш	-7398
рой	-7399
▁bog	-7400
▁dah	-7401
▁gun	-7402
▁арх	-7403
▁син	-7404
▁Tosh	-7405
▁ayır	-7406
▁обсу	-7407
▁Orada	-7408
▁ремон	-7409
фикации	-7410
▁Program	-7411
▁қажетті	-7412
▁değildir	-7413
▁Ýehowanyň	-7414
▁установленном	-7415
ğəm	-7416
ерь	-7417
ынч	-7418
▁Ap	-7419
▁АҚ	-7420
▁Ун	-7421
▁иң	-7422
angu	-7423
ures	-7424
уына	-7425
▁alm	-7426
▁yiy	-7427
▁чак	-7428
ділет	-7429
есяти	-7430
ывает	-7431
▁полу	-7432
ission	-7433
ğəmbər	-7434
▁dedim	-7435
▁hours	-7436
▁neler	-7437
▁Стать	-7438
▁голов	-7439
▁жібер	-7440
▁ishtir	-7441
верситет	-7442
▁service	-7443
▁учреждение	-7444
ba	-7445
юб	-7446
▁ӳ	-7447
ney	-7448
▁Ver	-7449
▁arr	-7450
▁cez	-7451
▁Жал	-7452
▁ход	-7453
▁answ	-7454
▁учас	-7455
iyordu	-7456
▁Child	-7457
▁Hayat	-7458
▁аумақ	-7459
▁болсо	-7460
▁сипат	-7461
ические	-7462
▁within	-7463
▁экспер	-7464
▁мынадай	-7465
▁орындау	-7466
▁решение	-7467
▁ishtirok	-7468
сі	-7469
уг	-7470
едь	-7471
һим	-7472
▁Ağ	-7473
▁ша	-7474
▁Әм	-7475
uzur	-7476
анию	-7477
фици	-7478
▁Ark	-7479
▁mük	-7480
▁sek	-7481
▁күз	-7482
▁пох	-7483
▁Park	-7484
▁emas	-7485
▁terr	-7486
атисти	-7487
▁sonuç	-7488
▁догов	-7489
▁тогда	-7490
ıyordum	-7491
▁mahsul	-7492
▁службы	-7493
▁certain	-7494
nun	-7495
sil	-7496
ірі	-7497
ӗпе	-7498
▁Gü	-7499
band	-7500
gini	-7501
imde	-7502
meli	-7503
ткен	-7504
умай	-7505
▁Рег	-7506
▁апр	-7507
ility	-7508
▁Cour	-7509
▁Musa	-7510
▁näme	-7511
▁tanı	-7512
▁дома	-7513
▁ситу	-7514
▁спас	-7515
дарына	-7516
▁Güzel	-7517
▁çevir	-7518
ческого	-7519
▁включа	-7520
▁aslında	-7521
▁постоян	-7522
▁промышлен	-7523
▁здравоохран	-7524
▁предприятия	-7525
▁деятельность	-7526
ицы	-7527
нев	-7528
рик	-7529
урал	-7530
ыгыз	-7531
▁бет	-7532
▁бұз	-7533
▁наде	-7534
▁неза	-7535
▁слыш	-7536
idence	-7537
енными	-7538
▁katıl	-7539
▁maybe	-7540
▁şeýle	-7541
▁болай	-7542
▁имени	-7543
▁кеден	-7544
ization	-7545
▁risidagi	-7546
LAR	-7547
tum	-7548
дүн	-7549
ями	-7550
▁До	-7551
htim	-7552
▁fay	-7553
▁mag	-7554
▁Нам	-7555
çiler	-7556
ләрне	-7557
▁full	-7558
▁ibad	-7559
▁есеб	-7560
▁лишь	-7561
▁genel	-7562
▁hayal	-7563
▁Центр	-7564
▁Türkiye	-7565
▁görüyor	-7566
▁looking	-7567
▁белгіленген	-7568
çy	-7569
net	-7570
rag	-7571
елі	-7572
фик	-7573
шем	-7574
▁kr	-7575
▁ni	-7576
▁sk	-7577
▁Аб	-7578
▁Max	-7579
▁ext	-7580
▁kıy	-7581
▁рав	-7582
▁knew	-7583
▁drink	-7584
▁hepsi	-7585
▁hüküm	-7586
▁yetiş	-7587
▁шухӑш	-7588
▁tarihi	-7589
▁friends	-7590
▁алдында	-7591
▁огранич	-7592
▁контроля	-7593
▁эффектив	-7594
▁Республика	-7595
▁республикалық	-7596
кам	-7597
леп	-7598
щад	-7599
▁Ot	-7600
▁yi	-7601
▁Üz	-7602
dust	-7603
▁Gid	-7604
▁dek	-7605
▁try	-7606
medim	-7607
redit	-7608
ларга	-7609
обрет	-7610
▁writ	-7611
▁нашей	-7612
▁morning	-7613
▁shunday	-7614
▁olduğuna	-7615
bs	-7616
cü	-7617
ён	-7618
ety	-7619
сак	-7620
тык	-7621
ыйк	-7622
▁ха	-7623
usal	-7624
ynyň	-7625
▁Day	-7626
▁Жар	-7627
▁иск	-7628
layan	-7629
▁свид	-7630
▁сесс	-7631
▁Yahov	-7632
▁вӑхӑт	-7633
▁сарап	-7634
▁түшүн	-7635
▁январ	-7636
▁Europe	-7637
▁bunlar	-7638
▁yüksek	-7639
▁brother	-7640
▁акционер	-7641
▁istemiyorum	-7642
ude	-7643
ибо	-7644
маг	-7645
реж	-7646
чис	-7647
avob	-7648
дать	-7649
унун	-7650
ылуу	-7651
▁Ayn	-7652
▁lum	-7653
▁Мат	-7654
▁қаң	-7655
образ	-7656
▁Some	-7657
▁forg	-7658
▁салу	-7659
▁ayrıl	-7660
▁heard	-7661
▁həyat	-7662
▁wants	-7663
▁risida	-7664
▁saying	-7665
▁Аллаха	-7666
▁здоров	-7667
▁процед	-7668
▁azından	-7669
▁говорит	-7670
▁официального	-7671
ont	-7672
rup	-7673
▁Gu	-7674
▁TH	-7675
▁ҫӳ	-7676
▁Өз	-7677
ятия	-7678
▁bes	-7679
▁lab	-7680
▁біз	-7681
▁Plan	-7682
▁cond	-7683
▁кров	-7684
▁мақс	-7685
▁силь	-7686
▁юсти	-7687
инской	-7688
▁blood	-7689
▁mutlu	-7690
▁olmam	-7691
▁Мәсих	-7692
▁түрде	-7693
▁Herkes	-7694
▁believ	-7695
▁mümkün	-7696
▁отправ	-7697
▁электр	-7698
▁қаржылан	-7699
▁қауіпсіз	-7700
иғ	-7701
tiq	-7702
дәш	-7703
▁Az	-7704
etty	-7705
məyə	-7706
▁müz	-7707
▁soy	-7708
▁тил	-7709
▁уго	-7710
▁усп	-7711
mamış	-7712
ocial	-7713
▁duyg	-7714
▁дүйн	-7715
gamber	-7716
lanadi	-7717
lanish	-7718
▁munos	-7719
▁polis	-7720
▁квали	-7721
▁метал	-7722
▁проис	-7723
▁қаржы	-7724
▁normal	-7725
▁trying	-7726
▁пулсан	-7727
▁present	-7728
▁юстиции	-7729
▁yardımcı	-7730
ەم	-7731
loq	-7732
ung	-7733
uya	-7734
рым	-7735
усь	-7736
aydi	-7737
есть	-7738
▁isn	-7739
▁jal	-7740
irler	-7741
жение	-7742
▁bizə	-7743
▁idea	-7744
▁целя	-7745
▁Məsih	-7746
▁vermek	-7747
▁вниман	-7748
▁вопросы	-7749
▁University	-7750
he	-7751
қим	-7752
▁əz	-7753
▁Ат	-7754
▁ئا	-7755
ibar	-7756
ндег	-7757
овал	-7758
ғана	-7759
▁Yüz	-7760
▁uni	-7761
▁каб	-7762
▁hâlâ	-7763
▁tarz	-7764
▁подт	-7765
есінің	-7766
▁hayot	-7767
▁жерде	-7768
▁doktor	-7769
▁hayvan	-7770
▁Соглаш	-7771
▁durumda	-7772
▁working	-7773
▁предприниматель	-7774
▁ä	-7775
oğu	-7776
баб	-7777
зер	-7778
лиш	-7779
▁Ko	-7780
▁Ün	-7781
▁тӳ	-7782
ozim	-7783
алуй	-7784
дуст	-7785
тама	-7786
▁Yaş	-7787
▁fav	-7788
▁şah	-7789
семпе	-7790
▁зако	-7791
аларға	-7792
▁sorry	-7793
▁words	-7794
▁пайда	-7795
uyorsun	-7796
▁having	-7797
▁бөлімі	-7798
▁Onların	-7799
▁complet	-7800
▁акимата	-7801
▁определ	-7802
▁actually	-7803
▁herhangi	-7804
▁действия	-7805
▁документа	-7806
miy	-7807
not	-7808
орд	-7809
▁ах	-7810
▁yum	-7811
ığına	-7812
айтан	-7813
▁Even	-7814
▁Jack	-7815
▁face	-7816
▁tekn	-7817
▁Егер	-7818
▁годы	-7819
▁тура	-7820
▁Peter	-7821
▁group	-7822
▁görür	-7823
▁kayıt	-7824
▁второ	-7825
▁потер	-7826
▁резер	-7827
▁ынтым	-7828
asından	-7829
▁Please	-7830
▁kaldır	-7831
▁Toshkent	-7832
ано	-7833
иро	-7834
▁Cr	-7835
▁Qu	-7836
▁sı	-7837
ages	-7838
раил	-7839
▁teg	-7840
▁Кан	-7841
▁печ	-7842
▁хам	-7843
▁җит	-7844
inize	-7845
ledge	-7846
ениях	-7847
▁свой	-7848
ements	-7849
изации	-7850
ющихся	-7851
▁mesaj	-7852
▁кабар	-7853
▁yoktur	-7854
iladigan	-7855
▁технология	-7856
ғыз	-7857
▁oq	-7858
▁җы	-7859
оруж	-7860
хода	-7861
▁Düş	-7862
▁Lis	-7863
▁Sağ	-7864
▁eff	-7865
▁жок	-7866
▁куб	-7867
▁мир	-7868
▁эта	-7869
▁body	-7870
▁метр	-7871
ститут	-7872
▁sifat	-7873
▁номер	-7874
eceksin	-7875
▁своего	-7876
▁тіркеу	-7877
maktadır	-7878
▁мекемесі	-7879
▁жарияланған	-7880
▁опубликования	-7881
ыч	-7882
ita	-7883
yüz	-7884
тик	-7885
▁UN	-7886
▁uh	-7887
inci	-7888
ster	-7889
▁acı	-7890
▁dər	-7891
▁est	-7892
▁yes	-7893
▁Öğr	-7894
▁Теп	-7895
▁оқу	-7896
▁dört	-7897
▁proc	-7898
▁shar	-7899
вержда	-7900
▁болуы	-7901
▁дерек	-7902
▁zamanı	-7903
▁знаешь	-7904
ида	-7905
▁Oğ	-7906
атты	-7907
дить	-7908
ырыш	-7909
ғына	-7910
▁Kor	-7911
▁near	-7912
▁били	-7913
lanmış	-7914
▁живот	-7915
▁заман	-7916
▁машин	-7917
▁Astana	-7918
▁contin	-7919
▁minutes	-7920
▁olmadığını	-7921
▁административ	-7922
vel	-7923
ыты	-7924
ımda	-7925
▁Him	-7926
▁cre	-7927
▁ols	-7928
▁имя	-7929
▁кич	-7930
▁мең	-7931
▁пӗт	-7932
layın	-7933
▁свед	-7934
▁uygun	-7935
▁includ	-7936
▁округа	-7937
▁қаңтар	-7938
▁которой	-7939
ashtirish	-7940
▁bilmiyorum	-7941
▁арасындағы	-7942
▁мақсатында	-7943
▁производства	-7944
ij	-7945
ıb	-7946
жал	-7947
ыма	-7948
▁oz	-7949
beli	-7950
итов	-7951
латы	-7952
▁Sır	-7953
▁Ник	-7954
ishli	-7955
▁мной	-7956
▁knows	-7957
▁yarar	-7958
▁истеч	-7959
▁econom	-7960
▁tehlik	-7961
▁sanırım	-7962
▁коммуника	-7963
▁несколько	-7964
ats	-7965
изм	-7966
сеп	-7967
шей	-7968
▁öğ	-7969
▁Git	-7970
▁Был	-7971
▁жоқ	-7972
▁киш	-7973
▁көб	-7974
налас	-7975
▁inst	-7976
ушының	-7977
▁bilim	-7978
▁evlen	-7979
▁vosit	-7980
▁лауаз	-7981
▁change	-7982
▁десяти	-7983
▁хочешь	-7984
▁ұлттық	-7985
▁Teşekkür	-7986
өш	-7987
зад	-7988
ины	-7989
ләш	-7990
▁Sa	-7991
ived	-7992
▁Сон	-7993
▁Таш	-7994
▁Теб	-7995
▁выб	-7996
ladan	-7997
▁peri	-7998
▁soru	-7999
▁позд	-8000
▁свет	-8001
▁шығы	-8002
ternet	-8003
ителем	-8004
саулық	-8005
▁bitir	-8006
▁tizim	-8007
▁şeyin	-8008
▁Управ	-8009
▁кийин	-8010
▁обрат	-8011
▁тұрақ	-8012
▁during	-8013
▁кантип	-8014
▁орында	-8015
▁увелич	-8016
▁орынбасары	-8017
▁здравоохранения	-8018
ye	-8019
za	-8020
ňa	-8021
ПО	-8022
idi	-8023
oul	-8024
руж	-8025
уна	-8026
ымы	-8027
▁aw	-8028
▁жа	-8029
▁ял	-8030
▁ӑн	-8031
евер	-8032
▁Muh	-8033
▁Tak	-8034
▁fil	-8035
▁kuş	-8036
▁ито	-8037
▁моя	-8038
▁мүш	-8039
ember	-8040
▁Mess	-8041
▁fear	-8042
▁спор	-8043
▁тума	-8044
▁унӑн	-8045
əqiqət	-8046
▁böyük	-8047
▁danış	-8048
▁javob	-8049
▁kapat	-8050
▁makes	-8051
▁məsih	-8052
▁басты	-8053
▁такое	-8054
▁Online	-8055
▁dastur	-8056
▁gördüm	-8057
▁началь	-8058
qtisodiy	-8059
▁бағалау	-8060
âr	-8061
тӗ	-8062
erif	-8063
omat	-8064
елек	-8065
ирӗн	-8066
▁təs	-8067
▁çat	-8068
▁Бир	-8069
▁вра	-8070
▁тіл	-8071
▁okul	-8072
▁past	-8073
▁huzur	-8074
▁hızlı	-8075
▁offer	-8076
▁oraya	-8077
▁назад	-8078
▁ауылдық	-8079
▁санитар	-8080
TS	-8081
чү	-8082
LAH	-8083
лый	-8084
чан	-8085
▁Cl	-8086
▁То	-8087
▁къ	-8088
үгін	-8089
▁тоқ	-8090
moqda	-8091
uqaro	-8092
рекет	-8093
▁anne	-8094
▁nima	-8095
▁обуч	-8096
станав	-8097
▁incel	-8098
▁numar	-8099
▁исслед	-8100
▁платеж	-8101
▁регули	-8102
аларының	-8103
▁органом	-8104
▁қалалық	-8105
▁insanları	-8106
▁Ma	-8107
▁Us	-8108
ines	-8109
shir	-8110
▁Bas	-8111
▁Yön	-8112
▁fut	-8113
lakat	-8114
▁Have	-8115
▁Yine	-8116
▁hope	-8117
▁shak	-8118
▁Özel	-8119
▁қала	-8120
никами	-8121
▁yangi	-8122
stanbul	-8123
▁Buraya	-8124
▁sistem	-8125
▁zamanda	-8126
▁күнінен	-8127
ilayotgan	-8128
Казахстан	-8129
▁Департам	-8130
▁асырылады	-8131
▁социальной	-8132
ӗк	-8133
мар	-8134
əcəy	-8135
адно	-8136
аков	-8137
▁adı	-8138
▁peş	-8139
▁yoz	-8140
ences	-8141
ength	-8142
uthor	-8143
маган	-8144
шения	-8145
▁Geor	-8146
▁алды	-8147
▁ғана	-8148
stitut	-8149
альное	-8150
▁qədər	-8151
▁айнал	-8152
▁ребен	-8153
▁хатын	-8154
▁целях	-8155
тарының	-8156
▁killed	-8157
▁kurtul	-8158
▁listen	-8159
▁другой	-8160
ительной	-8161
▁General	-8162
▁special	-8163
▁şeyleri	-8164
ье	-8165
qiq	-8166
ету	-8167
ика	-8168
aban	-8169
leep	-8170
xona	-8171
əbər	-8172
ским	-8173
▁div	-8174
▁xat	-8175
▁наб	-8176
▁ҫыр	-8177
ınızı	-8178
ондой	-8179
▁pray	-8180
maları	-8181
▁Sizin	-8182
▁endiş	-8183
▁benden	-8184
▁making	-8185
▁matter	-8186
▁nefret	-8187
▁olabil	-8188
▁Статья	-8189
▁перевоз	-8190
▁ihtiyacım	-8191
▁календарных	-8192
иў	-8193
cel	-8194
iri	-8195
▁ид	-8196
ping	-8197
ӑнса	-8198
▁Dom	-8199
▁Код	-8200
▁лек	-8201
▁туу	-8202
▁тӗр	-8203
кадем	-8204
▁Show	-8205
▁şirk	-8206
▁сент	-8207
▁dayan	-8208
▁sound	-8209
▁Агент	-8210
▁безгә	-8211
▁минист	-8212
▁причин	-8213
▁fucking	-8214
▁орналас	-8215
▁телефон	-8216
▁ветеринар	-8217
nal	-8218
дөн	-8219
▁хы	-8220
eful	-8221
pres	-8222
▁Hak	-8223
▁teş	-8224
▁Орт	-8225
▁Там	-8226
▁эту	-8227
tract	-8228
▁Oliy	-8229
▁once	-8230
▁алыш	-8231
▁генә	-8232
▁екен	-8233
▁пире	-8234
▁суда	-8235
икалық	-8236
▁Doğru	-8237
▁dönüş	-8238
▁ettim	-8239
▁пирки	-8240
▁сауда	-8241
▁Mahkam	-8242
▁пример	-8243
▁сөздөр	-8244
▁января	-8245
▁әйткән	-8246
▁дальней	-8247
▁tegishli	-8248
AM	-8249
miz	-8250
ело	-8251
жит	-8252
түү	-8253
▁пы	-8254
▁эс	-8255
▁Әй	-8256
▁cor	-8257
▁orq	-8258
▁çab	-8259
▁ноч	-8260
▁Bizi	-8261
▁Bosh	-8262
▁news	-8263
▁whom	-8264
▁сюда	-8265
▁These	-8266
▁Trans	-8267
▁deyil	-8268
▁güçlü	-8269
ствовать	-8270
▁преступ	-8271
▁проекта	-8272
▁құқықтық	-8273
▁ынтымақта	-8274
fak	-8275
por	-8276
tun	-8277
ura	-8278
төр	-8279
▁ам	-8280
ards	-8281
vvəl	-8282
алим	-8283
амен	-8284
екте	-8285
тору	-8286
ғаны	-8287
▁hok	-8288
▁ton	-8289
▁аяқ	-8290
▁гар	-8291
ekler	-8292
тарға	-8293
ousand	-8294
▁kanıt	-8295
▁muhim	-8296
▁small	-8297
▁İngil	-8298
▁şehir	-8299
▁режим	-8300
арактер	-8301
▁Odalar	-8302
▁though	-8303
▁öğrenc	-8304
▁түрлер	-8305
▁аппараты	-8306
▁қабылдан	-8307
▁изменений	-8308
▁көзделген	-8309
co	-8310
үң	-8311
▁Иб	-8312
дешь	-8313
▁hus	-8314
▁pun	-8315
▁qan	-8316
▁rol	-8317
▁жой	-8318
▁тав	-8319
▁шат	-8320
ality	-8321
light	-8322
▁deal	-8323
▁main	-8324
▁высо	-8325
▁даяр	-8326
▁өңір	-8327
ective	-8328
▁өзара	-8329
asidagi	-8330
▁proper	-8331
▁площад	-8332
▁discuss	-8333
▁talking	-8334
▁әкімдігінің	-8335
OU	-8336
хо	-8337
bil	-8338
вое	-8339
лий	-8340
огу	-8341
рип	-8342
▁ut	-8343
ired	-8344
әкин	-8345
▁int	-8346
▁pal	-8347
▁yay	-8348
▁бос	-8349
▁ирт	-8350
▁сур	-8351
ately	-8352
ыртқы	-8353
▁ones	-8354
▁Адам	-8355
▁бири	-8356
▁маан	-8357
▁очер	-8358
▁қоса	-8359
isinin	-8360
▁gidip	-8361
▁yaxşı	-8362
▁çocuğ	-8363
▁кӑтар	-8364
▁отказ	-8365
▁Bunlar	-8366
▁каланӑ	-8367
uvchilar	-8368
ирование	-8369
▁ережелер	-8370
▁медициналық	-8371
AK	-8372
dız	-8373
ian	-8374
гам	-8375
яты	-8376
ғыш	-8377
әмә	-8378
▁Et	-8379
ağın	-8380
әттә	-8381
▁лай	-8382
▁чык	-8383
tiler	-8384
ындал	-8385
▁Arab	-8386
▁Bazı	-8387
▁Отан	-8388
▁жили	-8389
ration	-8390
▁возду	-8391
▁карап	-8392
▁кылып	-8393
▁должно	-8394
▁buradan	-8395
▁gerekir	-8396
▁sonunda	-8397
▁question	-8398
▁көрсеткіш	-8399
дук	-8400
▁Mc	-8401
▁ий	-8402
tığı	-8403
ımın	-8404
гіне	-8405
емся	-8406
инов	-8407
лана	-8408
ырға	-8409
▁Air	-8410
▁Hen	-8411
▁dog	-8412
▁suv	-8413
ersen	-8414
maydi	-8415
яться	-8416
▁yosh	-8417
▁през	-8418
станай	-8419
ушылық	-8420
▁later	-8421
▁press	-8422
▁ئۇلار	-8423
esinden	-8424
алуйста	-8425
▁күннен	-8426
▁English	-8427
▁example	-8428
▁которого	-8429
▁insanlara	-8430
▁мероприятий	-8431
əx	-8432
aka	-8433
üld	-8434
غان	-8435
▁pa	-8436
▁Ас	-8437
asih	-8438
work	-8439
▁Bul	-8440
▁Muq	-8441
▁Tim	-8442
▁вел	-8443
▁хәл	-8444
laydi	-8445
▁fine	-8446
▁four	-8447
▁wish	-8448
▁edýär	-8449
▁ücret	-8450
▁нумай	-8451
▁одной	-8452
▁konuda	-8453
▁reason	-8454
▁brought	-8455
▁control	-8456
▁munosab	-8457
▁автомат	-8458
▁қабылда	-8459
▁қызметі	-8460
▁olduğumu	-8461
▁istediğim	-8462
mä	-8463
ena	-8464
xat	-8465
дүү	-8466
стр	-8467
▁Üç	-8468
▁İk	-8469
▁ем	-8470
lect	-8471
абот	-8472
есен	-8473
ланы	-8474
ходы	-8475
ылығ	-8476
▁Gir	-8477
▁Kat	-8478
▁Sim	-8479
▁ait	-8480
▁mit	-8481
▁Нап	-8482
▁лег	-8483
dilər	-8484
овали	-8485
▁Will	-8486
▁кала	-8487
▁мног	-8488
▁geçen	-8489
▁ready	-8490
▁Анчах	-8491
▁наказ	-8492
▁Bundan	-8493
▁barcha	-8494
▁period	-8495
▁Настоя	-8496
▁орнала	-8497
▁started	-8498
▁Başlangıç	-8499
▁қаласының	-8500
▁teşekkürler	-8501
▁желтоқсандағы	-8502
ED	-8503
өп	-8504
aps	-8505
dip	-8506
▁Ef	-8507
▁sö	-8508
▁Мұ	-8509
eşit	-8510
адыш	-8511
арга	-8512
уден	-8513
▁Бож	-8514
▁Вер	-8515
mıştı	-8516
▁Does	-8517
▁yash	-8518
▁мира	-8519
ланган	-8520
▁edilm	-8521
▁tashq	-8522
▁vazif	-8523
▁xəbər	-8524
lıyorum	-8525
▁etmeye	-8526
▁geçmiş	-8527
▁yaptım	-8528
▁Закона	-8529
▁бекіту	-8530
▁секрет	-8531
▁hareket	-8532
▁tamamen	-8533
▁yeniden	-8534
▁бірінші	-8535
▁themselves	-8536
bon	-8537
лим	-8538
унӑ	-8539
دىن	-8540
лены	-8541
▁Sch	-8542
▁imp	-8543
▁mot	-8544
▁nim	-8545
▁Иер	-8546
▁аңа	-8547
▁көң	-8548
▁руб	-8549
erial	-8550
müyor	-8551
urity	-8552
where	-8553
▁hall	-8554
▁внеш	-8555
▁крас	-8556
ленген	-8557
▁Enter	-8558
▁alone	-8559
▁chang	-8560
▁varsa	-8561
▁духов	-8562
▁кроме	-8563
malıyız	-8564
▁karşıl	-8565
▁кардәш	-8566
▁можешь	-8567
▁Председ	-8568
▁Қазақстанның	-8569
EL	-8570
bo	-8571
cum	-8572
rum	-8573
ҡан	-8574
▁Ör	-8575
ador	-8576
illi	-8577
masi	-8578
ünki	-8579
гана	-8580
▁arz	-8581
▁бұр	-8582
▁душ	-8583
cient	-8584
илген	-8585
▁Olan	-8586
▁dolu	-8587
▁псих	-8588
▁ходе	-8589
▁aptal	-8590
▁голос	-8591
▁ҫавӑн	-8592
▁өйрән	-8593
▁birşey	-8594
▁keltir	-8595
▁есепке	-8596
▁инстру	-8597
▁собран	-8598
▁address	-8599
▁çalışıyor	-8600
▁кәсіпорын	-8601
▁необходимо	-8602
go	-8603
оң	-8604
onu	-8605
яли	-8606
▁ca	-8607
▁кі	-8608
▁ми	-8609
itor	-8610
аман	-8611
▁App	-8612
▁Yan	-8613
▁huk	-8614
▁qoy	-8615
▁Bize	-8616
▁baba	-8617
▁имен	-8618
ingdom	-8619
▁asked	-8620
▁bilin	-8621
▁аймақ	-8622
▁перер	-8623
▁подле	-8624
▁помещ	-8625
▁ularni	-8626
▁доллар	-8627
▁өткізу	-8628
--------	-8629
▁yapacak	-8630
▁актілер	-8631
mm	-8632
өс	-8633
oiy	-8634
ots	-8635
воб	-8636
adık	-8637
емой	-8638
▁Dem	-8639
▁Sur	-8640
▁miq	-8641
▁çək	-8642
▁Кай	-8643
▁Син	-8644
▁жең	-8645
▁хол	-8646
▁Қор	-8647
ature	-8648
lilik	-8649
memiş	-8650
илось	-8651
ограф	-8652
▁Xudo	-8653
▁educ	-8654
▁view	-8655
▁улар	-8656
▁adamı	-8657
▁bakın	-8658
▁gelip	-8659
▁Отдел	-8660
▁Рәсәй	-8661
▁каршы	-8662
laridan	-8663
▁сделал	-8664
▁экенин	-8665
▁алынған	-8666
▁монитор	-8667
▁Muqaddas	-8668
▁республики	-8669
bed	-8670
tib	-8671
дим	-8672
▁Oy	-8673
▁км	-8674
alim	-8675
iver	-8676
үләт	-8677
ىلەر	-8678
▁Wor	-8679
▁ana	-8680
▁ket	-8681
▁kəs	-8682
▁таш	-8683
ordin	-8684
лушай	-8685
циясы	-8686
шылық	-8687
▁lost	-8688
▁priv	-8689
chilar	-8690
▁hands	-8691
▁içeri	-8692
▁rooms	-8693
▁аткар	-8694
▁имеет	-8695
▁своим	-8696
▁Yardım	-8697
▁olursa	-8698
▁orqali	-8699
▁калган	-8700
▁отдель	-8701
▁помощь	-8702
ervation	-8703
станавли	-8704
▁oluştur	-8705
▁thousand	-8706
AB	-8707
ёл	-8708
ilt	-8709
etin	-8710
едер	-8711
ӑмӑл	-8712
▁Ber	-8713
▁dom	-8714
▁mir	-8715
▁sug	-8716
▁sum	-8717
▁tot	-8718
▁рей	-8719
▁қаб	-8720
mıyor	-8721
скери	-8722
істік	-8723
▁doir	-8724
▁kalk	-8725
▁атте	-8726
▁юрат	-8727
жеттік	-8728
▁gider	-8729
▁çıktı	-8730
▁Полож	-8731
▁тағай	-8732
▁қарау	-8733
▁Өзбек	-8734
lashtir	-8735
▁ishlar	-8736
▁wonder	-8737
▁пункта	-8738
abiliriz	-8739
raw	-8740
ğun	-8741
нӑҫ	-8742
сид	-8743
так	-8744
ҙер	-8745
▁Tw	-8746
esiz	-8747
lisi	-8748
oses	-8749
ағат	-8750
тізб	-8751
▁Sel	-8752
▁Str	-8753
▁kok	-8754
▁vac	-8755
▁vic	-8756
▁кеб	-8757
▁саб	-8758
ouble	-8759
ısını	-8760
▁More	-8761
▁soon	-8762
▁Дума	-8763
▁твой	-8764
anları	-8765
ilerim	-8766
ләренә	-8767
▁ALLAH	-8768
▁ilişk	-8769
▁makin	-8770
▁знать	-8771
▁Hiçbir	-8772
▁Onlara	-8773
▁toplum	-8774
▁көшесі	-8775
ilishini	-8776
▁ilgilen	-8777
▁oldukça	-8778
▁mahsulot	-8779
ved	-8780
ışı	-8781
зам	-8782
olat	-8783
инин	-8784
разд	-8785
ызыл	-8786
▁Ste	-8787
▁adv	-8788
▁die	-8789
▁nəz	-8790
▁ola	-8791
▁мик	-8792
▁рек	-8793
iklik	-8794
ilere	-8795
▁Mart	-8796
▁harc	-8797
lardır	-8798
miştir	-8799
▁needs	-8800
▁довер	-8801
▁земле	-8802
▁оформ	-8803
ованием	-8804
▁months	-8805
▁myself	-8806
▁Просто	-8807
▁колдон	-8808
▁расчет	-8809
▁тармақ	-8810
▁perform	-8811
▁пайгамб	-8812
▁қалыпта	-8813
▁развитию	-8814
imd	-8815
▁Mu	-8816
▁Su	-8817
uyla	-8818
əyin	-8819
вают	-8820
▁Sil	-8821
▁mev	-8822
▁rap	-8823
▁təb	-8824
▁ýer	-8825
▁чар	-8826
▁Ҫак	-8827
ınday	-8828
▁ağır	-8829
▁five	-8830
▁side	-8831
▁ýaly	-8832
▁свое	-8833
istory	-8834
▁Diğer	-8835
▁запис	-8836
▁себеп	-8837
layacak	-8838
ведения	-8839
▁experi	-8840
▁иннова	-8841
▁уведом	-8842
▁parents	-8843
▁ziyaret	-8844
▁alabilir	-8845
▁onlardan	-8846
▁статисти	-8847
ЕР	-8848
ləş	-8849
май	-8850
ateg	-8851
ploy	-8852
rain	-8853
▁age	-8854
▁cal	-8855
▁maz	-8856
leyin	-8857
tures	-8858
▁mahk	-8859
▁nokt	-8860
▁şeye	-8861
▁итеү	-8862
▁стал	-8863
альным	-8864
ваются	-8865
▁Görün	-8866
▁activ	-8867
▁anyone	-8868
▁olmadan	-8869
▁алғашқы	-8870
▁Тараптар	-8871
▁контроль	-8872
▁қызметтер	-8873
ept	-8874
бет	-8875
рий	-8876
ьше	-8877
▁Оп	-8878
▁яс	-8879
emey	-8880
side	-8881
ылыш	-8882
▁Hal	-8883
▁Kay	-8884
▁Mak	-8885
▁hum	-8886
▁шул	-8887
ığımı	-8888
▁айыр	-8889
▁Hemen	-8890
▁вступ	-8891
▁повер	-8892
▁mablag	-8893
▁Шайтан	-8894
▁размещ	-8895
стоятель	-8896
▁Аппарат	-8897
▁обслужив	-8898
▁ы	-8899
oid	-8900
sün	-8901
дут	-8902
мак	-8903
нии	-8904
▁Тө	-8905
атов	-8906
▁Dad	-8907
▁Mir	-8908
▁каз	-8909
▁окт	-8910
▁Here	-8911
▁Saat	-8912
▁edər	-8913
▁teng	-8914
▁Ыйса	-8915
gement	-8916
ениями	-8917
▁мекен	-8918
▁пекех	-8919
alarına	-8920
iyordum	-8921
аларына	-8922
▁health	-8923
▁chiqish	-8924
▁тексеру	-8925
▁истечении	-8926
▁Directions	-8927
IT	-8928
bos	-8929
rif	-8930
ада	-8931
вон	-8932
әте	-8933
▁Ру	-8934
▁хо	-8935
iter	-8936
odim	-8937
sini	-8938
əndə	-8939
убуз	-8940
чный	-8941
▁Ush	-8942
▁күч	-8943
▁туп	-8944
adbir	-8945
lanan	-8946
leyse	-8947
ается	-8948
улары	-8949
▁rema	-8950
▁verm	-8951
▁öldü	-8952
▁приб	-8953
▁җыел	-8954
ically	-8955
uation	-8956
ughter	-8957
▁About	-8958
▁kaçır	-8959
▁miyiz	-8960
▁серти	-8961
▁taqdim	-8962
тізбелік	-8963
▁company	-8964
▁Китепте	-8965
▁Поэтому	-8966
▁услугод	-8967
▁dünyanın	-8968
▁countries	-8969
▁gerektiğini	-8970
зи	-8971
سى	-8972
hal	-8973
üme	-8974
кал	-8975
ясн	-8976
atij	-8977
gart	-8978
акет	-8979
ебез	-8980
▁ang	-8981
▁куп	-8982
arken	-8983
дание	-8984
ывать	-8985
яется	-8986
қимыл	-8987
▁terk	-8988
▁vaqt	-8989
▁wasn	-8990
▁бала	-8991
▁Haydi	-8992
▁bakış	-8993
▁beaut	-8994
▁trust	-8995
▁örnek	-8996
▁права	-8997
▁путем	-8998
▁cannot	-8999
▁персон	-9000
▁работе	-9001
▁nazorat	-9002
▁свидетель	-9003
▁обеспечива	-9004
▁қаулысымен	-9005
▁университет	-9006
reg	-9007
vir	-9008
жды	-9009
иев	-9010
▁Pe	-9011
▁АО	-9012
▁aşk	-9013
▁mez	-9014
▁Çık	-9015
▁Сан	-9016
▁жек	-9017
▁нау	-9018
lamış	-9019
oloji	-9020
атпӑр	-9021
▁eyes	-9022
▁less	-9023
▁line	-9024
▁mana	-9025
▁move	-9026
▁oluş	-9027
▁опас	-9028
▁пору	-9029
ichael	-9030
ключен	-9031
▁ettik	-9032
▁əvvəl	-9033
▁Орган	-9034
▁дөнья	-9035
▁тырыш	-9036
▁часть	-9037
▁taklif	-9038
▁раздел	-9039
ительные	-9040
▁express	-9041
▁söylemiş	-9042
▁институт	-9043
▁ӑ	-9044
aza	-9045
enk	-9046
eyn	-9047
ска	-9048
той	-9049
▁lo	-9050
имар	-9051
▁dad	-9052
▁tep	-9053
▁Мӗн	-9054
menin	-9055
▁Prof	-9056
▁altı	-9057
▁grow	-9058
▁seri	-9059
▁wind	-9060
▁şark	-9061
▁сына	-9062
▁тому	-9063
▁Right	-9064
▁Ushbu	-9065
▁Тогда	-9066
▁qiladi	-9067
▁помочь	-9068
▁собира	-9069
▁аппарат	-9070
▁стратег	-9071
▁Министра	-9072
▁характер	-9073
▁күнтізбелік	-9074
ros	-9075
sən	-9076
ırı	-9077
илә	-9078
наш	-9079
▁Aş	-9080
teki	-9081
ədən	-9082
унда	-9083
▁выз	-9084
▁мыс	-9085
▁нөм	-9086
ament	-9087
lagan	-9088
ықтық	-9089
▁ayrı	-9090
▁succ	-9091
▁жүкт	-9092
▁Dünya	-9093
▁eğlen	-9094
▁kaldı	-9095
▁выдел	-9096
▁замен	-9097
▁нақты	-9098
▁проти	-9099
▁ӑнлан	-9100
▁review	-9101
▁тіркел	-9102
▁экспорт	-9103
▁өнімдер	-9104
▁geliştir	-9105
▁Комитета	-9106
▁являются	-9107
▁основании	-9108
▁Yahovaning	-9109
dia	-9110
lor	-9111
now	-9112
pan	-9113
бөл	-9114
дуу	-9115
▁üy	-9116
▁ыс	-9117
read	-9118
tkaz	-9119
стың	-9120
▁Bek	-9121
▁rağ	-9122
▁sex	-9123
▁sus	-9124
▁Бол	-9125
▁еди	-9126
▁davr	-9127
▁sevg	-9128
▁sürü	-9129
▁yeri	-9130
▁ними	-9131
▁пути	-9132
alarga	-9133
aların	-9134
ләнгән	-9135
овании	-9136
▁inson	-9137
▁салын	-9138
▁хорош	-9139
▁каждый	-9140
▁тәртіп	-9141
▁davranış	-9142
▁атқарушы	-9143
▁According	-9144
▁облысының	-9145
▁обеспечение	-9146
▁предприятий	-9147
уҫ	-9148
kur	-9149
ӑра	-9150
▁dä	-9151
▁Ах	-9152
▁ээ	-9153
osta	-9154
вали	-9155
дост	-9156
имиз	-9157
ктер	-9158
ӑрах	-9159
▁Hol	-9160
▁hit	-9161
▁Кол	-9162
▁Мак	-9163
▁дау	-9164
▁най	-9165
▁үст	-9166
▁List	-9167
▁kuch	-9168
▁өнер	-9169
asidan	-9170
▁актов	-9171
▁булды	-9172
▁келті	-9173
▁fuqaro	-9174
▁билдир	-9175
▁защиты	-9176
▁created	-9177
▁Кудайга	-9178
▁аясында	-9179
▁шешіміне	-9180
▁olduğumuz	-9181
▁көрсетіледі	-9182
OM	-9183
şy	-9184
АЛ	-9185
ёр	-9186
قى	-9187
▁پ	-9188
ogr	-9189
emli	-9190
gest	-9191
ouch	-9192
▁eat	-9193
▁Май	-9194
▁кой	-9195
▁мор	-9196
▁эки	-9197
orrow	-9198
ником	-9199
хозяй	-9200
▁trav	-9201
▁изуч	-9202
▁başqa	-9203
▁nered	-9204
▁verin	-9205
▁öyrən	-9206
▁Христ	-9207
▁судеб	-9208
▁başlad	-9209
▁korxon	-9210
▁markaz	-9211
▁катего	-9212
▁решению	-9213
▁fotoğraf	-9214
▁материалов	-9215
AY	-9216
ha	-9217
ps	-9218
арь	-9219
яет	-9220
▁Ta	-9221
▁jo	-9222
anım	-9223
ases	-9224
иясы	-9225
▁ele	-9226
▁hor	-9227
▁Меж	-9228
▁сыр	-9229
▁тет	-9230
▁қоз	-9231
▁Sizi	-9232
▁able	-9233
▁hadi	-9234
▁Глав	-9235
лишком	-9236
▁cause	-9237
▁daraj	-9238
▁happy	-9239
▁hikay	-9240
▁merak	-9241
▁yönet	-9242
▁Башки	-9243
▁вечер	-9244
▁фонда	-9245
ability	-9246
ростран	-9247
▁rağmen	-9248
▁senden	-9249
▁доступ	-9250
▁икәнен	-9251
▁природ	-9252
▁қолдау	-9253
▁yolunda	-9254
▁порядок	-9255
▁жасалған	-9256
eph	-9257
мий	-9258
adir	-9259
inal	-9260
ибиз	-9261
илүү	-9262
▁akl	-9263
▁kus	-9264
▁чеч	-9265
iyati	-9266
ешься	-9267
токол	-9268
▁Isra	-9269
▁bölg	-9270
▁food	-9271
▁kart	-9272
▁konu	-9273
▁yapı	-9274
▁ника	-9275
▁одно	-9276
дардын	-9277
▁новых	-9278
▁shahar	-9279
▁Только	-9280
▁килгән	-9281
▁Michael	-9282
▁говорил	-9283
▁внутренних	-9284
КС	-9285
тӑр	-9286
ғаз	-9287
удан	-9288
▁Med	-9289
▁tor	-9290
▁кош	-9291
▁точ	-9292
emmel	-9293
▁isim	-9294
maktan	-9295
▁biler	-9296
▁girin	-9297
▁korum	-9298
▁sefer	-9299
▁stuff	-9300
▁çeşit	-9301
▁пӗтӗм	-9302
elerini	-9303
larıyla	-9304
▁United	-9305
▁различ	-9306
▁свобод	-9307
▁принима	-9308
▁hamkorlik	-9309
▁peygamber	-9310
▁регламент	-9311
▁работников	-9312
▁сақтандыру	-9313
cle	-9314
ziy	-9315
таб	-9316
імд	-9317
▁hə	-9318
▁pl	-9319
▁ıs	-9320
▁оф	-9321
▁чы	-9322
▁үр	-9323
fect	-9324
ндет	-9325
▁Off	-9326
▁buz	-9327
▁gem	-9328
▁kab	-9329
▁Çal	-9330
izyon	-9331
атура	-9332
ысына	-9333
ұлтан	-9334
▁görk	-9335
▁моей	-9336
emelen	-9337
mesine	-9338
▁close	-9339
▁degan	-9340
▁etraf	-9341
▁gotta	-9342
▁guess	-9343
▁haklı	-9344
▁sport	-9345
▁visit	-9346
▁zarur	-9347
▁commun	-9348
▁qardaş	-9349
▁repres	-9350
▁taking	-9351
▁Теперь	-9352
▁выступ	-9353
▁наимен	-9354
техничес	-9355
▁bulunan	-9356
▁ретінде	-9357
▁внимание	-9358
▁қызметін	-9359
▁seviyorum	-9360
كى	-9361
jal	-9362
nie	-9363
ury	-9364
сиз	-9365
▁Эм	-9366
▁иҫ	-9367
▁пи	-9368
usus	-9369
енча	-9370
▁ilg	-9371
▁пәй	-9372
▁сок	-9373
ilsin	-9374
получ	-9375
ілігі	-9376
▁baby	-9377
▁İsan	-9378
▁граф	-9379
▁нерс	-9380
▁преж	-9381
▁dakik	-9382
▁söyler	-9383
▁безнең	-9384
▁бұйрығ	-9385
▁yaptığı	-9386
▁арттыру	-9387
▁министрлігі	-9388
▁распростран	-9389
▁ынтымақтастық	-9390
غا	-9391
irt	-9392
rim	-9393
жно	-9394
ият	-9395
▁İb	-9396
isel	-9397
ters	-9398
инен	-9399
кент	-9400
▁Kul	-9401
▁Sig	-9402
▁edə	-9403
▁lay	-9404
▁mün	-9405
▁Исп	-9406
▁Тем	-9407
▁Хот	-9408
▁дар	-9409
▁зах	-9410
landı	-9411
laryň	-9412
oking	-9413
жащих	-9414
▁приг	-9415
▁смож	-9416
imizni	-9417
дуктан	-9418
▁class	-9419
▁muass	-9420
▁sahib	-9421
▁Пабыл	-9422
▁Халық	-9423
▁алады	-9424
▁парти	-9425
▁прояв	-9426
▁такие	-9427
meyecek	-9428
▁Burası	-9429
▁Иисуса	-9430
▁буенча	-9431
▁кӑтарт	-9432
▁пурнӑҫ	-9433
▁финанс	-9434
▁говорить	-9435
▁современ	-9436
▁определен	-9437
ýan	-9438
лор	-9439
тим	-9440
уңа	-9441
▁gi	-9442
▁əl	-9443
▁сх	-9444
meni	-9445
атар	-9446
гать	-9447
діру	-9448
езно	-9449
▁Bob	-9450
▁dig	-9451
▁kuz	-9452
▁yık	-9453
▁жүк	-9454
▁құн	-9455
inlik	-9456
терес	-9457
▁Like	-9458
▁held	-9459
▁iler	-9460
▁kuni	-9461
▁башҡ	-9462
▁тора	-9463
▁атауы	-9464
▁будем	-9465
▁помог	-9466
▁форме	-9467
▁хочет	-9468
▁қағид	-9469
mayacak	-9470
▁kelish	-9471
▁приним	-9472
дырылған	-9473
▁yapabil	-9474
ky	-9475
گە	-9476
uly	-9477
наһ	-9478
сун	-9479
шее	-9480
▁сб	-9481
ding	-9482
амет	-9483
егез	-9484
нипе	-9485
овые	-9486
одей	-9487
олық	-9488
▁Dış	-9489
▁Mor	-9490
▁Sec	-9491
▁keş	-9492
▁Рим	-9493
▁Тер	-9494
▁бак	-9495
▁оно	-9496
▁хут	-9497
еңбер	-9498
▁Agar	-9499
▁Hell	-9500
▁olup	-9501
▁карт	-9502
▁чист	-9503
dığını	-9504
▁aşağı	-9505
▁burad	-9506
▁ciddi	-9507
▁comes	-9508
▁sever	-9509
▁пулса	-9510
▁edilen	-9511
▁fiyatı	-9512
▁gördün	-9513
▁Потому	-9514
▁биргән	-9515
▁предел	-9516
▁уровня	-9517
▁ihtiyaç	-9518
▁qilingan	-9519
▁peyğəmbər	-9520
жі	-9521
ерк	-9522
зем	-9523
мый	-9524
ылу	-9525
әге	-9526
▁Ра	-9527
mağa	-9528
ынын	-9529
▁pot	-9530
▁мая	-9531
▁чей	-9532
tedir	-9533
лодар	-9534
раиль	-9535
▁akıl	-9536
▁pick	-9537
▁Банк	-9538
▁жүрө	-9539
▁ошол	-9540
tığını	-9541
▁Babam	-9542
▁hokim	-9543
▁жолдо	-9544
▁источ	-9545
anguage	-9546
аттарды	-9547
▁police	-9548
▁Министр	-9549
▁Сонымен	-9550
▁болатын	-9551
▁конкурс	-9552
▁берілген	-9553
▁органами	-9554
sc	-9555
jud	-9556
oti	-9557
rah	-9558
chil	-9559
əyir	-9560
виду	-9561
газь	-9562
скую	-9563
стой	-9564
▁үтә	-9565
neğin	-9566
siyon	-9567
мәгән	-9568
налыш	-9569
▁çift	-9570
▁Жамб	-9571
▁Свид	-9572
▁груз	-9573
▁ӗнтӗ	-9574
тарына	-9575
▁alanı	-9576
▁gizli	-9577
▁natij	-9578
▁билдә	-9579
▁кебек	-9580
▁найти	-9581
▁пайыз	-9582
▁туура	-9583
▁часов	-9584
▁Ҫавӑн	-9585
дарында	-9586
▁accept	-9587
▁living	-9588
▁husband	-9589
▁Орталық	-9590
▁немного	-9591
▁существ	-9592
▁Children	-9593
▁Xudoning	-9594
▁құжаттарды	-9595
▁использования	-9596
ıc	-9597
КО	-9598
эй	-9599
нец	-9600
уші	-9601
чей	-9602
▁OK	-9603
▁юк	-9604
icle	-9605
ites	-9606
mail	-9607
used	-9608
имся	-9609
ымда	-9610
ыркы	-9611
▁ill	-9612
▁Пом	-9613
▁хим	-9614
▁чит	-9615
▁үтк	-9616
diğim	-9617
əsini	-9618
детті	-9619
емого	-9620
идент	-9621
▁Kral	-9622
▁adım	-9623
▁özür	-9624
▁бара	-9625
▁лицо	-9626
ishloq	-9627
itting	-9628
альная	-9629
▁Kitob	-9630
▁davom	-9631
▁dönem	-9632
▁ortak	-9633
▁выход	-9634
▁ғимар	-9635
▁pretty	-9636
▁yeryüz	-9637
▁Однако	-9638
▁мәдени	-9639
▁смерти	-9640
erebilir	-9641
▁kişiler	-9642
▁worship	-9643
▁yaşayan	-9644
▁Сегодня	-9645
▁аларның	-9646
▁которое	-9647
▁благодар	-9648
▁Christian	-9649
▁iqtisodiy	-9650
▁мүмкіндік	-9651
▁Department	-9652
▁коммуналдық	-9653
▁услугодателя	-9654
ID	-9655
əni	-9656
даш	-9657
мәк	-9658
оба	-9659
▁Uh	-9660
isay	-9661
илия	-9662
орож	-9663
▁Cal	-9664
▁Yaz	-9665
▁fre	-9666
▁Зап	-9667
▁Кең	-9668
▁Маж	-9669
▁ваҡ	-9670
▁көч	-9671
leyen	-9672
▁Comp	-9673
▁gone	-9674
▁half	-9675
▁Тебе	-9676
▁одан	-9677
▁оған	-9678
▁Kendi	-9679
▁dokun	-9680
▁qarşı	-9681
▁места	-9682
▁Қаржы	-9683
▁attack	-9684
▁fırsat	-9685
▁gulluk	-9686
▁устрой	-9687
▁bunları	-9688
▁dilerim	-9689
▁маңызды	-9690
▁mamlakat	-9691
▁thinking	-9692
▁значения	-9693
▁развитие	-9694
▁структур	-9695
▁тауарлар	-9696
▁gerçekleş	-9697
▁Üniversit	-9698
▁настоящей	-9699
▁министрінің	-9700
ىر	-9701
ify	-9702
laq	-9703
ott	-9704
ҙам	-9705
lain	-9706
maly	-9707
дает	-9708
илет	-9709
конч	-9710
ресс	-9711
әлән	-9712
▁Ele	-9713
▁Jer	-9714
▁Kas	-9715
▁məq	-9716
▁ýag	-9717
▁кас	-9718
▁шот	-9719
▁эми	-9720
▁қон	-9721
adagi	-9722
arası	-9723
madım	-9724
женер	-9725
тибар	-9726
▁birg	-9727
▁sizə	-9728
▁Ауыл	-9729
▁талқ	-9730
▁Әмма	-9731
▁Russi	-9732
▁almış	-9733
▁nädip	-9734
▁story	-9735
▁yığın	-9736
▁Шулай	-9737
▁глаза	-9738
▁шетел	-9739
lerimiz	-9740
plement	-9741
ировать	-9742
▁Библии	-9743
▁правда	-9744
▁dünyada	-9745
▁himself	-9746
▁government	-9747
▁бекітілген	-9748
▁мәселелері	-9749
ША	-9750
▁ا	-9751
jek	-9752
lsa	-9753
uli	-9754
дір	-9755
иңа	-9756
лит	-9757
учы	-9758
الل	-9759
▁ər	-9760
araq	-9761
omet	-9762
ülük	-9763
лава	-9764
ящих	-9765
▁See	-9766
▁Yük	-9767
▁imz	-9768
▁мән	-9769
▁ҫук	-9770
actly	-9771
ether	-9772
▁Алек	-9773
▁kurul	-9774
▁oldum	-9775
▁telev	-9776
▁wanna	-9777
▁xodim	-9778
▁знает	-9779
ическим	-9780
▁adamın	-9781
▁Жамбыл	-9782
amıyorum	-9783
lerinizi	-9784
▁Minister	-9785
▁Павлодар	-9786
▁chiqarish	-9787
gn	-9788
ng	-9789
azy	-9790
дәт	-9791
риб	-9792
ыру	-9793
қор	-9794
▁Sm	-9795
yekt	-9796
ләне	-9797
нать	-9798
обще	-9799
олня	-9800
оряд	-9801
▁Jim	-9802
▁Mis	-9803
▁cop	-9804
▁hid	-9805
▁nis	-9806
▁rek	-9807
▁til	-9808
▁xar	-9809
▁вес	-9810
▁дов	-9811
▁дәл	-9812
▁сре	-9813
▁cong	-9814
▁июля	-9815
▁ойош	-9816
▁панӑ	-9817
▁теат	-9818
▁трех	-9819
▁االل	-9820
дается	-9821
керлік	-9822
▁Yetiş	-9823
▁price	-9824
▁около	-9825
▁return	-9826
▁вӗсене	-9827
▁шеңбер	-9828
▁җыелыш	-9829
ebiliriz	-9830
▁etilgan	-9831
▁düşündüm	-9832
▁whatever	-9833
▁органның	-9834
▁совместно	-9835
▁утверждении	-9836
Казахстанской	-9837
▁қаржыландыру	-9838
▁сотрудничества	-9839
rt	-9840
avf	-9841
ief	-9842
бой	-9843
дым	-9844
кил	-9845
роб	-9846
тӑм	-9847
чӗҫ	-9848
▁AN	-9849
олев	-9850
▁Loc	-9851
▁dun	-9852
▁tib	-9853
▁Жаң	-9854
▁йӗр	-9855
▁нен	-9856
iyasi	-9857
memiz	-9858
еттің	-9859
▁aram	-9860
▁ayak	-9861
▁işin	-9862
▁step	-9863
▁suff	-9864
ediler	-9865
ılması	-9866
▁Those	-9867
▁Yemek	-9868
▁qayta	-9869
▁Кроме	-9870
▁айтып	-9871
▁девуш	-9872
▁кешен	-9873
▁мөһим	-9874
▁оборо	-9875
▁потен	-9876
▁самом	-9877
▁среди	-9878
ilerini	-9879
▁Israel	-9880
▁Kitabı	-9881
▁barada	-9882
▁sağlam	-9883
▁Хорошо	-9884
▁апреля	-9885
▁резерв	-9886
▁документ	-9887
▁төрағасы	-9888
▁knowledge	-9889
▁отношении	-9890
▁Rezervasyon	-9891
▁foydalanish	-9892
ux	-9893
АС	-9894
тие	-9895
тін	-9896
▁bi	-9897
▁Зд	-9898
unch	-9899
аныч	-9900
мдер	-9901
өнки	-9902
▁Act	-9903
▁Mut	-9904
▁ali	-9905
▁neg	-9906
▁Бір	-9907
▁отс	-9908
dular	-9909
▁Baba	-9910
▁kısa	-9911
▁town	-9912
▁Паул	-9913
▁гана	-9914
▁ышан	-9915
▁along	-9916
▁duyur	-9917
▁geniş	-9918
▁invol	-9919
▁lives	-9920
▁булыр	-9921
▁көлік	-9922
▁невер	-9923
▁шығын	-9924
вердить	-9925
▁аларны	-9926
▁молоде	-9927
▁сказала	-9928
▁değilsin	-9929
▁Йәһвәнең	-9930
▁качества	-9931
▁приобрет	-9932
▁olacağını	-9933
▁документы	-9934
үҙ	-9935
oud	-9936
але	-9937
ард	-9938
гыш	-9939
дун	-9940
лоп	-9941
ғәт	-9942
әлә	-9943
▁Ер	-9944
andy	-9945
ткөн	-9946
▁Jap	-9947
▁Mad	-9948
▁dür	-9949
▁hur	-9950
▁pap	-9951
▁reh	-9952
▁Üst	-9953
▁Эпӗ	-9954
▁циф	-9955
ended	-9956
imden	-9957
indir	-9958
енное	-9959
аттары	-9960
▁engel	-9961
▁geçti	-9962
▁ishon	-9963
▁sebep	-9964
▁treat	-9965
▁video	-9966
▁Жалпы	-9967
▁Ладно	-9968
▁Пункт	-9969
▁караш	-9970
▁стоит	-9971
▁извест	-9972
▁muassas	-9973
▁success	-9974
▁jumladan	-9975
▁karşılaş	-9976
▁shartnom	-9977
▁strength	-9978
▁İnsanlar	-9979
▁имущества	-9980
▁настоящим	-9981
roq	-9982
ири	-9983
дәге	-9984
ылуы	-9985
▁Del	-9986
▁rin	-9987
▁ölü	-9988
▁Бюд	-9989
▁жем	-9990
▁куҫ	-9991
▁күң	-9992
▁тыш	-9993
уется	-9994
▁Alex	-9995
▁pati	-9996
▁shit	-9997
▁stor	-9998
▁круп	-9999
elerin	-10000
sizlik	-10001
ımızda	-10002
▁destr	-10003
▁phone	-10004
▁samar	-10005
▁вырӑн	-10006
▁испыт	-10007
▁қағаз	-10008
▁әйтел	-10009
терінің	-10010
▁mavjud	-10011
▁городе	-10012
abilirim	-10013
▁texnolog	-10014
▁Президенті	-10015
▁International	-10016
işi	-10017
ows	-10018
▁дө	-10019
room	-10020
чает	-10021
▁Cap	-10022
▁Ruh	-10023
▁ran	-10024
▁дис	-10025
▁нос	-10026
▁тра	-10027
▁әйт	-10028
извод	-10029
▁Dani	-10030
▁Tell	-10031
▁fall	-10032
▁авыр	-10033
▁килә	-10034
▁наши	-10035
cience	-10036
▁Qonun	-10037
▁bölüm	-10038
▁komis	-10039
▁olmay	-10040
▁techn	-10041
▁yoktu	-10042
▁анчах	-10043
▁аудар	-10044
▁любов	-10045
▁қарай	-10046
▁behind	-10047
▁dolayı	-10048
▁Федера	-10049
ственные	-10050
▁допуска	-10051
▁possible	-10052
▁трансфер	-10053
▁yapıyorsun	-10054
▁ақпараттық	-10055
▁технологий	-10056
əş	-10057
кор	-10058
ния	-10059
тас	-10060
тра	-10061
▁US	-10062
▁ov	-10063
ahim	-10064
azgy	-10065
кому	-10066
окой	-10067
▁Dan	-10068
▁Hır	-10069
▁ras	-10070
▁xoş	-10071
▁Нав	-10072
▁беҙ	-10073
▁бәй	-10074
▁люд	-10075
▁сим	-10076
▁тың	-10077
ınıza	-10078
можно	-10079
щения	-10080
▁deki	-10081
▁асыр	-10082
▁сест	-10083
ология	-10084
▁Avrup	-10085
▁Uzbek	-10086
▁относ	-10087
▁укреп	-10088
▁Merkez	-10089
▁except	-10090
▁görkez	-10091
▁indust	-10092
▁paylaş	-10093
▁xalqaro	-10094
▁объедин	-10095
▁условий	-10096
▁толықтыру	-10097
▁Республике	-10098
ъя	-10099
ami	-10100
geç	-10101
har	-10102
ogn	-10103
tuk	-10104
меч	-10105
▁Сп	-10106
▁уң	-10107
oqda	-10108
ured	-10109
лине	-10110
ыңар	-10111
▁Qur	-10112
▁etk	-10113
▁müş	-10114
▁киң	-10115
▁Өфө	-10116
дерді	-10117
▁Anne	-10118
▁Açık	-10119
▁Read	-10120
▁Shun	-10121
▁Take	-10122
▁başa	-10123
▁bomb	-10124
▁impr	-10125
▁меры	-10126
▁buluş	-10127
▁field	-10128
▁işler	-10129
▁model	-10130
▁какой	-10131
▁төлеу	-10132
ulation	-10133
▁Pekâlâ	-10134
▁düşünc	-10135
▁ikinci	-10136
▁yıldız	-10137
▁бөлімш	-10138
▁торган	-10139
▁тууган	-10140
▁случаях	-10141
▁konuşmak	-10142
▁probably	-10143
▁söylemek	-10144
▁негізінде	-10145
pe	-10146
ОН	-10147
СР	-10148
gür	-10149
lüğ	-10150
дап	-10151
сят	-10152
ччӗ	-10153
ілу	-10154
▁ha	-10155
▁Ад	-10156
ties	-10157
адле	-10158
лась	-10159
лось	-10160
▁Val	-10161
▁dəy	-10162
▁inn	-10163
▁Дол	-10164
▁Жол	-10165
▁аша	-10166
▁бри	-10167
▁кәс	-10168
▁ста	-10169
▁тий	-10170
▁қою	-10171
ganda	-10172
лекет	-10173
▁door	-10174
▁grup	-10175
▁safe	-10176
▁terc	-10177
▁мире	-10178
▁фото	-10179
▁dogan	-10180
▁enjoy	-10181
▁отсут	-10182
▁ярҙам	-10183
▁ҫапла	-10184
▁Padşah	-10185
▁edildi	-10186
▁majbur	-10187
▁yanada	-10188
▁Астаны	-10189
▁налого	-10190
▁ғылыми	-10191
▁әскери	-10192
▁Arkadaş	-10193
▁sürekli	-10194
▁tartibda	-10195
▁байланыс	-10196
▁беріледі	-10197
▁внесении	-10198
▁пайгамбар	-10199
▁получения	-10200
▁устанавли	-10201
▁хабарлады	-10202
▁оборудования	-10203
▁строительства	-10204
IL	-10205
дц	-10206
рыт	-10207
тән	-10208
▁Ax	-10209
▁fo	-10210
▁ic	-10211
ming	-10212
olar	-10213
хожд	-10214
үлөр	-10215
әсәк	-10216
▁god	-10217
▁mik	-10218
▁tip	-10219
▁yuq	-10220
чылар	-10221
шілер	-10222
▁Emma	-10223
▁çarp	-10224
▁Ошон	-10225
▁вами	-10226
▁изил	-10227
▁прев	-10228
▁твор	-10229
etleri	-10230
ğinden	-10231
▁arada	-10232
▁etmel	-10233
▁taken	-10234
▁вӗрен	-10235
дерінің	-10236
▁eğitim	-10237
▁moment	-10238
▁береді	-10239
▁Әділет	-10240
▁дейінгі	-10241
▁консуль	-10242
▁Yetişkin	-10243
▁particip	-10244
▁Çocuklar	-10245
▁transport	-10246
▁приложению	-10247
üň	-10248
зя	-10249
tak	-10250
uel	-10251
ече	-10252
сах	-10253
▁ев	-10254
▁пр	-10255
obil	-10256
▁Böl	-10257
▁Law	-10258
▁Reg	-10259
emaat	-10260
lardı	-10261
tural	-10262
▁hair	-10263
▁uyar	-10264
▁yola	-10265
▁əməl	-10266
▁Спас	-10267
▁жашо	-10268
▁Bırak	-10269
▁keçir	-10270
▁освоб	-10271
▁силер	-10272
▁тарих	-10273
▁ҫинче	-10274
ecektir	-10275
иратель	-10276
▁bahsed	-10277
▁modern	-10278
▁индуст	-10279
▁итәргә	-10280
alarning	-10281
▁Стороны	-10282
▁жолдооч	-10283
▁образом	-10284
▁consider	-10285
▁ihtiyacı	-10286
▁students	-10287
▁политики	-10288
▁қазақстан	-10289
▁совершенств	-10290
II	-10291
нә	-10292
див	-10293
көн	-10294
тав	-10295
▁İz	-10296
unan	-10297
▁Dar	-10298
▁Hoş	-10299
▁Mah	-10300
▁occ	-10301
▁çiz	-10302
▁виз	-10303
▁заг	-10304
▁чир	-10305
▁ҡат	-10306
ейтін	-10307
майды	-10308
▁Yazı	-10309
▁ilet	-10310
▁post	-10311
▁team	-10312
▁umum	-10313
▁Йәһү	-10314
▁Пере	-10315
▁знач	-10316
▁поня	-10317
▁слож	-10318
▁филь	-10319
▁цель	-10320
▁babam	-10321
▁После	-10322
▁Onunla	-10323
▁olamaz	-10324
▁toward	-10325
▁коммер	-10326
▁первый	-10327
изирован	-10328
▁Charlie	-10329
▁olanlar	-10330
▁слишком	-10331
ушылардың	-10332
▁düşündüğ	-10333
▁services	-10334
▁взаимодей	-10335
▁органдары	-10336
▁обеспечить	-10337
AD	-10338
ru	-10339
пи	-10340
دا	-10341
ING	-10342
дағ	-10343
сӑр	-10344
таш	-10345
▁öw	-10346
cial	-10347
ptal	-10348
▁Mod	-10349
▁гра	-10350
▁мәм	-10351
▁нее	-10352
▁отп	-10353
▁үйр	-10354
riend	-10355
тергә	-10356
▁deep	-10357
▁unto	-10358
▁yana	-10359
▁Анын	-10360
▁ачык	-10361
▁бөлі	-10362
▁нече	-10363
▁спис	-10364
▁учур	-10365
сұлтан	-10366
▁State	-10367
▁aldım	-10368
▁party	-10369
▁relig	-10370
▁дерев	-10371
▁метод	-10372
▁подоб	-10373
▁түсін	-10374
▁тӑван	-10375
ecekler	-10376
▁cooper	-10377
▁olurdu	-10378
▁verdik	-10379
▁vermiş	-10380
▁спорта	-10381
▁minlash	-10382
abilirsin	-10383
▁берушінің	-10384
▁некоторые	-10385
▁د	-10386
gen	-10387
qat	-10388
ücü	-10389
абы	-10390
ают	-10391
сал	-10392
▁Sü	-10393
▁аэ	-10394
аган	-10395
еком	-10396
шысы	-10397
▁Far	-10398
▁ara	-10399
▁İbr	-10400
▁қыл	-10401
dunuz	-10402
iktir	-10403
ейнет	-10404
ланды	-10405
ылсын	-10406
▁Aynı	-10407
▁kere	-10408
▁Богу	-10409
▁выяв	-10410
▁надз	-10411
▁салы	-10412
▁pract	-10413
▁sabab	-10414
▁sevin	-10415
▁Ýazgy	-10416
▁видел	-10417
▁тұтын	-10418
ический	-10419
▁beradi	-10420
▁inside	-10421
▁вәгазь	-10422
▁реттеу	-10423
▁dışında	-10424
▁istedim	-10425
▁tomorrow	-10426
▁Президен	-10427
▁міндетті	-10428
▁Olanaklar	-10429
▁implement	-10430
▁Нұрсұлтан	-10431
▁республика	-10432
▁шаруашылық	-10433
▁иностранных	-10434
IM	-10435
IR	-10436
һе	-10437
геҙ	-10438
деп	-10439
рәк	-10440
шир	-10441
ekin	-10442
omon	-10443
rash	-10444
басы	-10445
кажи	-10446
▁dağ	-10447
▁köt	-10448
▁sot	-10449
▁ted	-10450
▁Нур	-10451
▁тӑн	-10452
▁bebe	-10453
▁died	-10454
▁kech	-10455
▁qorx	-10456
▁şidd	-10457
▁бере	-10458
▁питӗ	-10459
▁студ	-10460
diğini	-10461
▁First	-10462
▁etdik	-10463
▁katta	-10464
▁soliq	-10465
▁негиз	-10466
▁қамту	-10467
▁durdur	-10468
▁беруші	-10469
▁жатқан	-10470
▁мӗншӗн	-10471
▁соверш	-10472
▁Йәһвәгә	-10473
▁everyone	-10474
▁Правитель	-10475
▁жүргізіледі	-10476
ЕТ	-10477
еҫ	-10478
лө	-10479
нд	-10480
aff	-10481
аус	-10482
сар	-10483
чат	-10484
щие	-10485
ясь	-10486
▁TO	-10487
▁pi	-10488
▁бі	-10489
▁оз	-10490
ehir	-10491
taki	-10492
дігі	-10493
лесе	-10494
▁huh	-10495
▁vas	-10496
▁зад	-10497
▁кеч	-10498
▁маг	-10499
▁нан	-10500
▁пыр	-10501
▁улы	-10502
ansız	-10503
▁alış	-10504
▁disp	-10505
▁fell	-10506
▁hava	-10507
▁hurt	-10508
▁iste	-10509
▁phot	-10510
▁Муса	-10511
imizda	-10512
isinde	-10513
щество	-10514
▁imkan	-10515
▁içine	-10516
▁kömek	-10517
▁sleep	-10518
▁thank	-10519
▁домой	-10520
▁канди	-10521
▁моего	-10522
▁снова	-10523
▁author	-10524
▁couple	-10525
▁gitmek	-10526
▁issues	-10527
▁sahibi	-10528
▁teklif	-10529
▁России	-10530
▁деньги	-10531
▁занято	-10532
▁nazarda	-10533
▁saqlash	-10534
▁beautiful	-10535
▁kendilerine	-10536
bə	-10537
АТ	-10538
adə	-10539
cer	-10540
hur	-10541
omp	-10542
алп	-10543
лег	-10544
мәс	-10545
наб	-10546
үче	-10547
▁Öl	-10548
▁чи	-10549
ilip	-10550
▁Yıl	-10551
▁Сат	-10552
▁бур	-10553
▁йыв	-10554
▁той	-10555
əsinə	-10556
атели	-10557
ткени	-10558
ымдар	-10559
▁xavf	-10560
▁близ	-10561
▁менш	-10562
▁умер	-10563
lished	-10564
дердің	-10565
▁Could	-10566
▁works	-10567
▁yurit	-10568
▁празд	-10569
▁тауар	-10570
инского	-10571
▁mahall	-10572
▁İsanın	-10573
▁маңызы	-10574
▁учетом	-10575
alarının	-10576
itnesses	-10577
▁asosida	-10578
▁nereden	-10579
▁process	-10580
▁инженер	-10581
▁которым	-10582
▁National	-10583
▁процессе	-10584
▁faoliyatini	-10585
öw	-10586
hat	-10587
luğ	-10588
пан	-10589
▁ih	-10590
▁ры	-10591
uhaf	-10592
ктуу	-10593
ӑннӑ	-10594
▁Sah	-10595
▁Sol	-10596
▁biç	-10597
▁ism	-10598
▁pic	-10599
▁söý	-10600
▁şər	-10601
tığım	-10602
▁elde	-10603
▁peki	-10604
▁yxat	-10605
▁появ	-10606
▁пять	-10607
▁сора	-10608
▁өнім	-10609
imizde	-10610
unları	-10611
ствами	-10612
▁Pavel	-10613
▁World	-10614
▁study	-10615
▁tabii	-10616
▁yapan	-10617
▁адрес	-10618
▁калаҫ	-10619
▁кварт	-10620
▁товар	-10621
▁Avrupa	-10622
▁yapmış	-10623
▁женщин	-10624
▁мындай	-10625
▁привле	-10626
▁соблюд	-10627
▁Amerika	-10628
▁Kingdom	-10629
▁Seninle	-10630
▁verdiği	-10631
▁наличии	-10632
▁останов	-10633
▁отметил	-10634
▁пәйгамб	-10635
▁стороны	-10636
▁энергия	-10637
▁personal	-10638
▁общества	-10639
▁organlari	-10640
▁предприяти	-10641
▁департамент	-10642
▁қазақстандық	-10643
iň	-10644
эм	-10645
sir	-10646
▁EN	-10647
▁Ha	-10648
▁Вс	-10649
▁кӳ	-10650
anlı	-10651
ones	-10652
oyat	-10653
аһит	-10654
куро	-10655
уляр	-10656
▁Tem	-10657
▁cut	-10658
▁net	-10659
▁енг	-10660
▁пам	-10661
▁тул	-10662
alara	-10663
ender	-10664
стағы	-10665
▁ikki	-10666
▁kapı	-10667
▁pers	-10668
▁Гайс	-10669
▁вход	-10670
▁әлем	-10671
timoiy	-10672
аточно	-10673
▁Demek	-10674
▁Frank	-10675
▁chora	-10676
▁hedef	-10677
▁Иерус	-10678
▁алуға	-10679
▁бизге	-10680
mıyorum	-10681
▁Hizmet	-10682
▁future	-10683
▁hoşlan	-10684
ственный	-10685
▁Böylece	-10686
▁respons	-10687
▁yapmaya	-10688
▁культур	-10689
ebilirsin	-10690
▁quyidagi	-10691
▁договора	-10692
▁represent	-10693
▁Аллаһының	-10694
▁kesinlikle	-10695
▁выполнения	-10696
▁Reservation	-10697
acy	-10698
eal	-10699
ela	-10700
oub	-10701
мес	-10702
▁Эк	-10703
▁кә	-10704
▁ну	-10705
▁әл	-10706
ared	-10707
ınca	-10708
енче	-10709
ҫҫӑн	-10710
▁hom	-10711
▁nji	-10712
▁qəb	-10713
▁six	-10714
▁Где	-10715
▁Тим	-10716
▁жаг	-10717
▁кад	-10718
▁кеп	-10719
▁рус	-10720
▁сни	-10721
manız	-10722
мотри	-10723
ыннан	-10724
▁Düny	-10725
▁ship	-10726
▁брат	-10727
▁ерек	-10728
▁рухи	-10729
▁көңүл	-10730
▁тариф	-10731
▁учета	-10732
мотреть	-10733
▁gelmiş	-10734
▁murder	-10735
▁birinin	-10736
▁üzgünüm	-10737
▁Ыйсанын	-10738
▁zorunday	-10739
▁әкімшілік	-10740
▁Uzbekistan	-10741
ck	-10742
eyr	-10743
tab	-10744
ләп	-10745
нат	-10746
▁ga	-10747
▁op	-10748
▁ww	-10749
eyle	-10750
hili	-10751
дишь	-10752
едел	-10753
олож	-10754
▁ple	-10755
▁raq	-10756
▁Бат	-10757
▁аты	-10758
▁дос	-10759
▁улу	-10760
▁фик	-10761
▁шик	-10762
amadı	-10763
ished	-10764
lığın	-10765
ларны	-10766
▁Geri	-10767
▁aile	-10768
▁desc	-10769
▁evil	-10770
▁прям	-10771
▁Konuş	-10772
▁begin	-10773
▁istey	-10774
▁known	-10775
▁болды	-10776
▁возра	-10777
▁жилищ	-10778
▁искус	-10779
▁стали	-10780
▁этому	-10781
▁memnun	-10782
▁rahbar	-10783
▁strong	-10784
▁yaxshi	-10785
▁встрет	-10786
▁начала	-10787
▁yapılan	-10788
▁поговор	-10789
▁получен	-10790
▁сельско	-10791
▁Жахабага	-10792
▁конферен	-10793
▁international	-10794
tuğ	-10795
ült	-10796
▁ip	-10797
▁ду	-10798
fort	-10799
oyev	-10800
reen	-10801
ович	-10802
▁liq	-10803
▁təl	-10804
▁www	-10805
▁Чер	-10806
▁кис	-10807
▁төҙ	-10808
▁фар	-10809
▁әді	-10810
ımıza	-10811
ısına	-10812
ример	-10813
троль	-10814
ющими	-10815
▁Rest	-10816
▁ayar	-10817
▁dark	-10818
▁okuy	-10819
▁onuň	-10820
▁абза	-10821
▁алаң	-10822
▁жазб	-10823
▁озна	-10824
ılıyor	-10825
▁bebek	-10826
▁benef	-10827
▁peace	-10828
▁групп	-10829
▁лайӑх	-10830
▁прямо	-10831
alardan	-10832
osition	-10833
ларының	-10834
▁geldim	-10835
ительный	-10836
▁алардын	-10837
▁пенсион	-10838
▁relation	-10839
▁орналасқан	-10840
▁Министерством	-10841
İN	-10842
taq	-10843
деш	-10844
есу	-10845
пал	-10846
ток	-10847
уть	-10848
▁Va	-10849
▁Су	-10850
ises	-10851
itch	-10852
ries	-10853
udur	-10854
uter	-10855
ınıf	-10856
евой	-10857
ктын	-10858
ڭلار	-10859
▁Der	-10860
▁Kol	-10861
▁Sak	-10862
▁Sür	-10863
▁Yal	-10864
▁cul	-10865
▁kov	-10866
▁lan	-10867
▁Соб	-10868
▁коп	-10869
▁нот	-10870
essed	-10871
ельзя	-10872
никам	-10873
▁Hast	-10874
▁port	-10875
▁глуб	-10876
уралуу	-10877
▁South	-10878
▁avail	-10879
▁kimin	-10880
▁yatak	-10881
▁астам	-10882
▁кайсы	-10883
▁семьи	-10884
▁собой	-10885
lərinin	-10886
▁System	-10887
▁olaraq	-10888
▁жылдан	-10889
▁нашего	-10890
▁соглаш	-10891
▁сооруж	-10892
asındaki	-10893
▁düşünür	-10894
▁birinchi	-10895
▁material	-10896
▁тууралуу	-10897
▁положения	-10898
▁областного	-10899
EF	-10900
Sh	-10901
kz	-10902
aur	-10903
eds	-10904
ino	-10905
ira	-10906
быр	-10907
күй	-10908
▁uş	-10909
▁əh	-10910
▁тю	-10911
orij	-10912
тагы	-10913
▁Kaf	-10914
▁Mac	-10915
▁вся	-10916
▁вӑр	-10917
▁зур	-10918
▁ике	-10919
▁нұс	-10920
▁чӗр	-10921
▁шәк	-10922
аткан	-10923
итесь	-10924
ующие	-10925
▁hökm	-10926
▁ауру	-10927
▁прид	-10928
▁удов	-10929
ларына	-10930
структ	-10931
▁Güven	-10932
▁canlı	-10933
▁düzel	-10934
▁düşür	-10935
▁hudud	-10936
▁жетек	-10937
▁патне	-10938
▁перев	-10939
▁побед	-10940
pportun	-10941
констру	-10942
▁Course	-10943
▁təbliğ	-10944
▁Сейчас	-10945
▁значит	-10946
▁котору	-10947
▁приход	-10948
▁филиал	-10949
▁қатысу	-10950
достовер	-10951
елерінің	-10952
▁Програм	-10953
▁әзірлеу	-10954
struction	-10955
▁жыйналыш	-10956
▁электрондық	-10957
▁согласованию	-10958
▁Государственное	-10959
ИН	-10960
jan	-10961
olf	-10962
qət	-10963
sim	-10964
ydı	-10965
уны	-10966
усу	-10967
▁Eğ	-10968
▁Lo	-10969
▁Mo	-10970
▁og	-10971
▁Бұ	-10972
▁өй	-10973
airs	-10974
pert	-10975
исти	-10976
▁Has	-10977
▁Jan	-10978
▁Kaç	-10979
▁cür	-10980
▁jar	-10981
▁vaq	-10982
▁Біз	-10983
▁зав	-10984
▁ини	-10985
▁кот	-10986
▁пух	-10987
▁сүр	-10988
▁ыра	-10989
batta	-10990
▁Spec	-10991
▁risk	-10992
▁авгу	-10993
▁туда	-10994
▁lanet	-10995
▁shakl	-10996
▁Çalış	-10997
▁Также	-10998
▁бекем	-10999
▁месте	-11000
▁могли	-11001
▁награ	-11002
▁рухий	-11003
meliyiz	-11004
▁nereye	-11005
▁nähili	-11006
▁social	-11007
▁знаете	-11008
▁edilmiş	-11009
▁Öyleyse	-11010
▁institut	-11011
▁должност	-11012
▁жауапкер	-11013
▁качестве	-11014
▁olmayacak	-11015
▁Facilities	-11016
▁объектілер	-11017
▁учреждений	-11018
▁возможность	-11019
▁образователь	-11020
dyr	-11021
iet	-11022
ior	-11023
rem	-11024
▁gt	-11025
edia	-11026
ging	-11027
obal	-11028
rgan	-11029
орда	-11030
ором	-11031
▁Beb	-11032
▁Giz	-11033
▁Ham	-11034
▁gül	-11035
▁nuq	-11036
▁Ата	-11037
▁Нар	-11038
▁вак	-11039
▁пис	-11040
▁сав	-11041
▁тӑв	-11042
▁фон	-11043
essiz	-11044
▁Petr	-11045
▁fire	-11046
▁kids	-11047
▁meas	-11048
▁yeah	-11049
▁Пров	-11050
▁пост	-11051
duğunu	-11052
ısında	-11053
ологии	-11054
▁davet	-11055
▁herif	-11056
▁yürüy	-11057
▁Между	-11058
▁әкімі	-11059
▁yetkaz	-11060
▁объект	-11061
▁партия	-11062
▁İngiliz	-11063
▁месяцев	-11064
▁предмет	-11065
▁addition	-11066
▁Конститу	-11067
▁education	-11068
▁бюджеттік	-11069
▁пәйгамбәр	-11070
▁басқармасы	-11071
ze	-11072
мит	-11073
ята	-11074
▁жү	-11075
amış	-11076
ills	-11077
ubor	-11078
▁Cor	-11079
▁Gar	-11080
▁Haz	-11081
▁Mel	-11082
▁cav	-11083
▁ink	-11084
▁Или	-11085
▁Мир	-11086
▁аял	-11087
▁ряд	-11088
irlər	-11089
арива	-11090
яются	-11091
▁Coun	-11092
▁Mana	-11093
▁инди	-11094
▁сана	-11095
▁тәрт	-11096
ilmesi	-11097
▁Lakin	-11098
▁Yoksa	-11099
▁contr	-11100
▁seven	-11101
▁брать	-11102
▁долго	-11103
▁туриз	-11104
ическое	-11105
▁Sigara	-11106
▁answer	-11107
▁birine	-11108
▁indeed	-11109
▁пӗлтер	-11110
▁расшир	-11111
▁реформ	-11112
▁саясат	-11113
lararası	-11114
▁Turkish	-11115
▁married	-11116
▁message	-11117
▁project	-11118
▁кажется	-11119
▁правиль	-11120
▁problems	-11121
▁ағымдағы	-11122
▁действий	-11123
▁комплекс	-11124
▁нравится	-11125
▁занятости	-11126
▁пайдалануға	-11127
EM	-11128
gu	-11129
ân	-11130
era	-11131
uty	-11132
жол	-11133
нок	-11134
▁uc	-11135
▁ən	-11136
▁шт	-11137
duct	-11138
vest	-11139
жива	-11140
▁Kam	-11141
▁Kel	-11142
▁Oda	-11143
▁qis	-11144
▁quv	-11145
▁win	-11146
▁ölç	-11147
▁ýyg	-11148
▁Вас	-11149
▁Жұм	-11150
▁всп	-11151
▁жил	-11152
▁сти	-11153
▁хис	-11154
▁ҫеҫ	-11155
lerdi	-11156
talya	-11157
истри	-11158
▁Eski	-11159
▁Kork	-11160
▁Miss	-11161
▁onda	-11162
▁çoğu	-11163
▁Кара	-11164
▁алма	-11165
▁жерт	-11166
▁кооп	-11167
▁терӗ	-11168
believ	-11169
tadbir	-11170
ателем	-11171
▁Anlaş	-11172
▁Paris	-11173
▁bolsa	-11174
▁ifade	-11175
▁istif	-11176
▁joriy	-11177
▁olgan	-11178
▁sanki	-11179
▁беріл	-11180
▁чейин	-11181
▁bilmek	-11182
▁chance	-11183
▁tushun	-11184
▁карата	-11185
▁малень	-11186
▁окружа	-11187
▁прекрас	-11188
▁следует	-11189
▁шаралар	-11190
▁участников	-11191
▁международных	-11192
ЕЛ	-11193
аю	-11194
iol	-11195
iti	-11196
row	-11197
няя	-11198
▁Sw	-11199
▁Ту	-11200
▁мн	-11201
abar	-11202
үгүн	-11203
▁Shu	-11204
▁act	-11205
▁kop	-11206
▁kuv	-11207
▁map	-11208
▁nit	-11209
▁Мис	-11210
▁Сар	-11211
▁кое	-11212
incip	-11213
ланып	-11214
ыңғай	-11215
▁Cont	-11216
▁agre	-11217
▁prev	-11218
▁redd	-11219
▁tark	-11220
▁ыйык	-11221
ademic	-11222
atives	-11223
мыстық	-11224
ческие	-11225
▁Thank	-11226
▁hatta	-11227
▁yasak	-11228
▁Давай	-11229
ersiniz	-11230
▁Domain	-11231
▁Иегове	-11232
▁command	-11233
▁insanın	-11234
▁kendine	-11235
▁seyahat	-11236
▁возвращ	-11237
▁тәртібі	-11238
▁электро	-11239
▁toplantı	-11240
▁сентября	-11241
▁сертифик	-11242
▁arkadaşım	-11243
▁казахстан	-11244
▁мекемесінің	-11245
mə	-11246
құ	-11247
qar	-11248
rey	-11249
вящ	-11250
гыр	-11251
енд	-11252
мыс	-11253
қыш	-11254
▁Po	-11255
▁Тә	-11256
haps	-11257
ican	-11258
layı	-11259
çisi	-11260
евых	-11261
▁Aff	-11262
▁Doc	-11263
▁Koc	-11264
▁Sup	-11265
▁cam	-11266
▁cir	-11267
▁däl	-11268
▁fig	-11269
▁fur	-11270
▁kem	-11271
▁rav	-11272
▁игъ	-11273
▁құр	-11274
acağı	-11275
ersiz	-11276
ышкан	-11277
ғанды	-11278
▁Aman	-11279
▁Home	-11280
▁Kötü	-11281
▁Tash	-11282
▁goes	-11283
▁prop	-11284
▁soul	-11285
▁июня	-11286
▁смог	-11287
liklar	-11288
ləndir	-11289
▁basit	-11290
▁derin	-11291
▁ehtiy	-11292
▁hakik	-11293
▁текущ	-11294
ference	-11295
▁Birkaç	-11296
▁energy	-11297
▁әрекет	-11298
alarında	-11299
ebilirim	-11300
larınızı	-11301
▁perfect	-11302
▁protect	-11303
▁Спасибо	-11304
▁haqqında	-11305
▁отношения	-11306
abilirsiniz	-11307
▁представля	-11308
▁направления	-11309
бі	-11310
ەي	-11311
gal	-11312
ünə	-11313
лот	-11314
үнү	-11315
▁Bl	-11316
▁Лу	-11317
erve	-11318
lığa	-11319
іргі	-11320
▁Ana	-11321
▁Bağ	-11322
▁swe	-11323
▁Гер	-11324
▁Наш	-11325
▁фев	-11326
▁хӑв	-11327
anlık	-11328
aring	-11329
▁Bank	-11330
▁inte	-11331
▁Стан	-11332
▁сбор	-11333
▁Zaman	-11334
▁jalik	-11335
▁koruy	-11336
▁nəzər	-11337
▁sınır	-11338
▁булса	-11339
▁выбор	-11340
▁George	-11341
▁became	-11342
▁bulmak	-11343
▁jamoat	-11344
▁miqdor	-11345
▁tatlım	-11346
▁yaptın	-11347
▁округі	-11348
▁пункте	-11349
▁уверен	-11350
▁институ	-11351
▁поэтому	-11352
▁продолж	-11353
▁тұрақты	-11354
▁Узбекистана	-11355
эт	-11356
cut	-11357
esh	-11358
сет	-11359
чӑк	-11360
ҙан	-11361
▁Эл	-11362
▁қу	-11363
tiği	-11364
гыла	-11365
ость	-11366
слов	-11367
чных	-11368
▁gow	-11369
▁США	-11370
▁бүт	-11371
▁дош	-11372
▁йыш	-11373
▁нис	-11374
▁пла	-11375
тарса	-11376
▁tabi	-11377
▁бире	-11378
▁газа	-11379
lərdən	-11380
изация	-11381
ствует	-11382
қосымш	-11383
▁belli	-11384
▁buyur	-11385
▁garip	-11386
▁gerçe	-11387
▁short	-11388
▁yayın	-11389
▁Догов	-11390
▁ваҡыт	-11391
▁пулас	-11392
▁халыҡ	-11393
amazsın	-11394
leriyle	-11395
Министр	-11396
▁office	-11397
▁sonsuz	-11398
▁thanks	-11399
▁диплом	-11400
▁шығару	-11401
▁members	-11402
▁serious	-11403
▁yılında	-11404
▁аркылуу	-11405
▁планиру	-11406
▁Ministry	-11407
▁olmasını	-11408
▁opportun	-11409
▁rahatsız	-11410
▁Комиссия	-11411
▁областей	-11412
▁Өзбекстан	-11413
▁настоящему	-11414
EC	-11415
äp	-11416
اي	-11417
jet	-11418
ume	-11419
син	-11420
сӗр	-11421
▁ri	-11422
▁үм	-11423
ağıt	-11424
ford	-11425
мент	-11426
لىرى	-11427
▁Sən	-11428
▁esc	-11429
▁obs	-11430
▁yah	-11431
▁yaq	-11432
▁çyk	-11433
▁зай	-11434
▁кос	-11435
ehenn	-11436
itted	-11437
гелек	-11438
ларға	-11439
▁Most	-11440
▁alar	-11441
▁hous	-11442
▁thou	-11443
▁vers	-11444
▁маус	-11445
ishini	-11446
ционно	-11447
▁berdi	-11448
▁etmem	-11449
▁touch	-11450
▁Совет	-11451
▁внедр	-11452
▁лекар	-11453
▁kaynak	-11454
▁nisbat	-11455
▁sağlık	-11456
▁tartış	-11457
▁екінші	-11458
▁инвест	-11459
▁катары	-11460
▁коллек	-11461
əqiqətən	-11462
▁product	-11463
▁tonight	-11464
▁Христос	-11465
▁асырады	-11466
▁размере	-11467
▁Иерусалим	-11468
▁рассматри	-11469
▁удостовер	-11470
▁сельскохозяй	-11471
ӳл	-11472
▁щ	-11473
nik	-11474
ota	-11475
доб	-11476
жым	-11477
рее	-11478
улу	-11479
▁ış	-11480
▁яһ	-11481
ileş	-11482
ymyz	-11483
лігі	-11484
▁Düz	-11485
▁ard	-11486
▁gür	-11487
▁mel	-11488
▁och	-11489
▁tug	-11490
▁Вам	-11491
enler	-11492
▁впер	-11493
itions	-11494
risida	-11495
unuyor	-11496
çileri	-11497
ителям	-11498
▁ajrat	-11499
▁araba	-11500
▁enter	-11501
▁favor	-11502
▁keyin	-11503
▁qarat	-11504
▁resim	-11505
▁tuman	-11506
▁Машая	-11507
▁доказ	-11508
▁напис	-11509
▁насел	-11510
▁ресім	-11511
▁таких	-11512
▁улица	-11513
▁құқығ	-11514
▁teslim	-11515
▁оценки	-11516
▁правил	-11517
▁темпер	-11518
▁бекітіл	-11519
▁yaklaşık	-11520
▁hujjatlari	-11521
▁relationship	-11522
dər	-11523
yap	-11524
übh	-11525
жыр	-11526
мос	-11527
▁äh	-11528
▁Бө	-11529
▁үҫ	-11530
▁әк	-11531
ardy	-11532
ners	-11533
zgar	-11534
əhət	-11535
дача	-11536
ливо	-11537
мағы	-11538
мени	-11539
▁Ass	-11540
▁Boy	-11541
▁Den	-11542
▁jud	-11543
▁şük	-11544
▁Дан	-11545
▁Көр	-11546
▁пыт	-11547
▁сою	-11548
▁тяж	-11549
▁тік	-11550
▁тәс	-11551
▁өст	-11552
arden	-11553
seniz	-11554
зации	-11555
ионер	-11556
▁City	-11557
▁Shoh	-11558
▁borç	-11559
▁fail	-11560
▁посе	-11561
▁прог	-11562
▁цвет	-11563
▁Kimse	-11564
▁clean	-11565
▁savdo	-11566
▁yaşad	-11567
▁yaşay	-11568
▁yaşlı	-11569
▁Тарап	-11570
▁денег	-11571
▁пӗрле	-11572
alariga	-11573
▁Amerik	-11574
▁buldum	-11575
▁mehnat	-11576
▁məhəbb	-11577
▁olmadı	-11578
▁record	-11579
▁surely	-11580
▁wouldn	-11581
▁районе	-11582
▁реглам	-11583
▁хыҫҫӑн	-11584
▁қозғал	-11585
▁kendimi	-11586
▁корпора	-11587
▁мероприятия	-11588
нш	-11589
tüm	-11590
ığa	-11591
ىلى	-11592
▁РБ	-11593
▁кӗ	-11594
▁һә	-11595
arət	-11596
cing	-11597
reci	-11598
екті	-11599
ница	-11600
әрәк	-11601
▁EUR	-11602
▁Seç	-11603
▁Tod	-11604
▁War	-11605
▁typ	-11606
▁бит	-11607
▁пыс	-11608
▁фер	-11609
ladın	-11610
likni	-11611
▁Word	-11612
▁анда	-11613
▁вице	-11614
▁жить	-11615
▁ошиб	-11616
▁ішкі	-11617
asıyla	-11618
ograph	-11619
ләндер	-11620
талады	-11621
▁Alman	-11622
▁Angel	-11623
▁Lanet	-11624
▁haven	-11625
▁sakın	-11626
▁взгля	-11627
▁добро	-11628
▁друга	-11629
▁инфра	-11630
▁прода	-11631
▁diffic	-11632
▁dollar	-11633
▁duydum	-11634
▁olacaq	-11635
▁сайлау	-11636
▁членов	-11637
▁bağlantı	-11638
▁принадле	-11639
▁neredeyse	-11640
▁реконстру	-11641
▁olduğundan	-11642
▁исполнения	-11643
▁Башкортостана	-11644
ST	-11645
dr	-11646
ۇر	-11647
ano	-11648
dev	-11649
nan	-11650
üsü	-11651
ӑшӗ	-11652
atik	-11653
ense	-11654
mamı	-11655
onda	-11656
терд	-11657
ӗмӗр	-11658
▁Haf	-11659
▁Tat	-11660
▁naf	-11661
▁вӑй	-11662
▁дес	-11663
▁мүд	-11664
▁тай	-11665
▁шақ	-11666
alash	-11667
meyen	-11668
баева	-11669
нулся	-11670
▁Isan	-11671
▁Part	-11672
▁hech	-11673
▁leav	-11674
▁save	-11675
▁Эгер	-11676
▁вели	-11677
▁госп	-11678
▁илсе	-11679
friend	-11680
▁Küçük	-11681
▁sevgi	-11682
▁издел	-11683
▁спрос	-11684
▁точно	-11685
ционный	-11686
ываются	-11687
▁Kardeş	-11688
▁turned	-11689
▁önünde	-11690
▁воспит	-11691
▁другим	-11692
▁мистер	-11693
▁анықтау	-11694
▁есептел	-11695
▁отырған	-11696
▁Yehovaya	-11697
▁располож	-11698
▁қоғамдық	-11699
▁biliyoruz	-11700
▁составляет	-11701
▁Üniversitesi	-11702
▁действительно	-11703
ape	-11704
rof	-11705
unç	-11706
vat	-11707
иян	-11708
лся	-11709
▁өр	-11710
anny	-11711
come	-11712
ingi	-11713
ivil	-11714
uvar	-11715
ейді	-11716
куда	-11717
меть	-11718
чили	-11719
▁Exc	-11720
▁Mag	-11721
▁ban	-11722
▁Каз	-11723
▁гид	-11724
▁мәр	-11725
▁сид	-11726
▁қыс	-11727
ional	-11728
дарга	-11729
▁Name	-11730
▁Wait	-11731
▁hang	-11732
▁ming	-11733
▁Есть	-11734
▁Комп	-11735
▁куәл	-11736
▁нако	-11737
▁тапш	-11738
▁тара	-11739
inizin	-11740
lığına	-11741
siyasi	-11742
елеген	-11743
▁gener	-11744
▁görül	-11745
▁total	-11746
▁tərəf	-11747
▁vakit	-11748
▁Şahit	-11749
▁Падыш	-11750
▁келет	-11751
▁көрүн	-11752
▁миним	-11753
▁радио	-11754
▁семей	-11755
▁Father	-11756
▁alacak	-11757
▁bergan	-11758
▁edebil	-11759
▁saniye	-11760
▁sister	-11761
▁выстав	-11762
▁зейнет	-11763
▁стране	-11764
▁чувств	-11765
▁exactly	-11766
▁hayatta	-11767
▁Örneğin	-11768
▁İbrahim	-11769
▁область	-11770
▁порядка	-11771
▁қолдану	-11772
▁Үкіметі	-11773
▁daughter	-11774
▁security	-11775
▁söyledim	-11776
▁Кабинета	-11777
▁Контроль	-11778
▁нерселер	-11779
▁расходов	-11780
▁эксперти	-11781
▁процентов	-11782
▁министрлігінің	-11783
şa	-11784
ИК	-11785
мд	-11786
фе	-11787
▁ў	-11788
taj	-11789
виж	-11790
щий	-11791
▁mö	-11792
▁Ең	-11793
▁юр	-11794
ürüz	-11795
идем	-11796
маны	-11797
▁Art	-11798
▁Dik	-11799
▁Sub	-11800
▁boğ	-11801
▁Бағ	-11802
▁биб	-11803
▁вул	-11804
▁жәр	-11805
▁сиз	-11806
▁хаҡ	-11807
engin	-11808
остол	-11809
спорт	-11810
▁Give	-11811
▁Mill	-11812
▁alıp	-11813
▁жиын	-11814
▁мана	-11815
▁мисс	-11816
▁твоя	-11817
дыктан	-11818
▁Düşün	-11819
▁Kesin	-11820
▁Sence	-11821
▁Would	-11822
▁evlat	-11823
▁noted	-11824
▁oğlum	-11825
▁quick	-11826
▁wagyz	-11827
▁Чтобы	-11828
▁важно	-11829
▁никто	-11830
▁переч	-11831
▁сезгә	-11832
▁design	-11833
▁etməyə	-11834
▁market	-11835
▁single	-11836
▁субсид	-11837
▁ҫынсем	-11838
▁böylece	-11839
▁котором	-11840
▁projects	-11841
▁including	-11842
▁следующей	-11843
▁транспорта	-11844
är	-11845
raý	-11846
кәр	-11847
мын	-11848
пад	-11849
һын	-11850
▁кы	-11851
ader	-11852
alıy	-11853
rian	-11854
имых	-11855
ланӑ	-11856
лери	-11857
▁Beş	-11858
▁Gök	-11859
▁Mrs	-11860
▁THE	-11861
▁Yor	-11862
▁gap	-11863
▁gay	-11864
▁nüm	-11865
▁Çek	-11866
▁мои	-11867
▁пан	-11868
▁туй	-11869
▁чӑн	-11870
дайды	-11871
лаған	-11872
щение	-11873
▁Inde	-11874
▁chor	-11875
▁fayd	-11876
▁insp	-11877
▁mist	-11878
▁pain	-11879
▁весь	-11880
▁воды	-11881
▁диаг	-11882
▁друз	-11883
▁нами	-11884
▁порт	-11885
▁Söyle	-11886
▁appro	-11887
▁bayan	-11888
▁dahil	-11889
▁often	-11890
▁qəbul	-11891
▁sakin	-11892
▁xorij	-11893
▁yubor	-11894
▁банка	-11895
▁бұрын	-11896
▁делам	-11897
▁завис	-11898
овершен	-11899
стардың	-11900
▁Harika	-11901
▁банков	-11902
▁башкар	-11903
▁жүктел	-11904
▁жауапты	-11905
▁anlamına	-11906
▁индивиду	-11907
▁маанилүү	-11908
▁қалыптастыру	-11909
къ	-11910
кү	-11911
aca	-11912
лаў	-11913
ләй	-11914
мол	-11915
тук	-11916
ург	-11917
▁vo	-11918
▁ПО	-11919
ardi	-11920
elli	-11921
ündə	-11922
▁Fak	-11923
▁Тең	-11924
▁Хам	-11925
▁соп	-11926
▁тәу	-11927
mayan	-11928
rafik	-11929
дерін	-11930
▁Bilm	-11931
▁unga	-11932
▁üzər	-11933
▁Боль	-11934
▁влия	-11935
▁күрһ	-11936
▁тәжі	-11937
▁элем	-11938
ending	-11939
imizga	-11940
▁Krall	-11941
▁estab	-11942
▁imkon	-11943
▁kalan	-11944
▁lumot	-11945
▁Глава	-11946
▁вправ	-11947
▁кабин	-11948
▁кеңеш	-11949
▁кирлӗ	-11950
▁людям	-11951
▁марта	-11952
▁тӗрӗс	-11953
mission	-11954
▁Center	-11955
▁Public	-11956
▁burası	-11957
▁maslah	-11958
▁ularga	-11959
▁группы	-11960
▁дәүләт	-11961
uşturucu	-11962
▁Benimle	-11963
▁bilərik	-11964
▁topshir	-11965
▁yaşında	-11966
▁Üzgünüm	-11967
▁партнер	-11968
▁спортив	-11969
▁ijtimoiy	-11970
▁Аллаһыга	-11971
▁аумақтық	-11972
▁денсаулық	-11973
▁требований	-11974
▁инфраструкт	-11975
▁строительство	-11976
IV	-11977
▁і	-11978
mir	-11979
olo	-11980
ülü	-11981
дек	-11982
заб	-11983
зан	-11984
ица	-11985
тек	-11986
тон	-11987
▁IN	-11988
▁ez	-11989
▁sə	-11990
Name	-11991
tida	-11992
▁Sab	-11993
▁açı	-11994
▁bok	-11995
▁pan	-11996
▁vir	-11997
▁vüc	-11998
▁ýet	-11999
▁Сал	-12000
▁зер	-12001
▁кӗт	-12002
▁мөр	-12003
▁хур	-12004
▁Қос	-12005
▁ұза	-12006
opark	-12007
ующим	-12008
▁doct	-12009
▁game	-12010
▁intr	-12011
▁itir	-12012
▁qism	-12013
▁отец	-12014
abancı	-12015
▁artır	-12016
▁bolup	-12017
▁dream	-12018
▁etmez	-12019
▁learn	-12020
▁lozim	-12021
▁tuhaf	-12022
▁вӗсен	-12023
▁наших	-12024
▁оконч	-12025
▁ретте	-12026
▁содей	-12027
▁школы	-12028
ospital	-12029
▁German	-12030
▁forget	-12031
▁günler	-12032
▁milliy	-12033
▁tercih	-12034
▁массов	-12035
▁ноября	-12036
▁уголов	-12037
▁allowed	-12038
▁перспек	-12039
▁European	-12040
▁директор	-12041
▁available	-12042
▁following	-12043
▁questions	-12044
▁Регламент	-12045
▁бюджетных	-12046
▁енгізілді	-12047
▁texnologiy	-12048
▁мәсихчеләр	-12049
▁Министерству	-12050
ýa	-12051
mes	-12052
ulu	-12053
зыр	-12054
сий	-12055
чки	-12056
ъем	-12057
ұлы	-12058
▁др	-12059
enek	-12060
inda	-12061
емый	-12062
нама	-12063
ырып	-12064
өнаһ	-12065
▁ABD	-12066
▁Bal	-12067
▁Eve	-12068
▁Ros	-12069
▁Yür	-12070
▁diz	-12071
▁ful	-12072
▁pas	-12073
▁rej	-12074
▁Каж	-12075
▁Күб	-12076
▁Мой	-12077
▁лик	-12078
ultan	-12079
ýändi	-12080
ьютер	-12081
ғылар	-12082
▁Lond	-12083
▁Ulus	-12084
▁easy	-12085
▁eşit	-12086
▁shut	-12087
▁sıra	-12088
▁бума	-12089
▁гына	-12090
▁тізб	-12091
лардан	-12092
▁Kadın	-12093
▁Rooms	-12094
▁Sorun	-12095
▁level	-12096
▁mesih	-12097
▁tayin	-12098
▁Элект	-12099
▁задач	-12100
▁заним	-12101
▁нарко	-12102
▁почти	-12103
▁пресс	-12104
▁сүйүү	-12105
▁құрай	-12106
ционные	-12107
▁haberi	-12108
▁tahmin	-12109
▁можете	-12110
▁прежде	-12111
▁sonraki	-12112
▁булырга	-12113
▁доходов	-12114
▁подготовки	-12115
▁проводится	-12116
cə	-12117
dek	-12118
lom	-12119
гаш	-12120
ово	-12121
уір	-12122
ьми	-12123
▁bö	-12124
▁Еу	-12125
ashi	-12126
başı	-12127
oran	-12128
term	-12129
ıpkı	-12130
леме	-12131
лена	-12132
әләр	-12133
▁Des	-12134
▁tum	-12135
▁vəz	-12136
▁пил	-12137
▁тро	-12138
▁хөк	-12139
▁Kong	-12140
▁cost	-12141
▁self	-12142
▁shot	-12143
▁Önce	-12144
▁орны	-12145
▁event	-12146
▁tutuk	-12147
▁vacib	-12148
▁Аудан	-12149
▁айрым	-12150
▁бөтен	-12151
▁микро	-12152
▁мисал	-12153
▁равно	-12154
▁слово	-12155
▁тесен	-12156
ibility	-12157
▁kaybol	-12158
▁аракет	-12159
▁булған	-12160
▁бұйрық	-12161
▁научно	-12162
▁поклон	-12163
▁проход	-12164
▁сессия	-12165
▁Kitabın	-12166
▁duruyor	-12167
▁kişinin	-12168
▁білікті	-12169
▁жүйесін	-12170
▁письмен	-12171
▁противо	-12172
▁пунктом	-12173
▁provided	-12174
▁Гайсәнең	-12175
▁орталығы	-12176
▁получить	-12177
▁boshqaruv	-12178
▁yaptığını	-12179
▁қаулысына	-12180
▁уполномоченного	-12181
gü	-12182
зд	-12183
org	-12184
ray	-12185
rel	-12186
yıl	-12187
гар	-12188
сим	-12189
өст	-12190
▁Yo	-12191
▁ýa	-12192
▁Лю	-12193
▁си	-12194
▁ық	-12195
▁يە	-12196
etik	-12197
pend	-12198
rict	-12199
ерни	-12200
ющая	-12201
▁Ask	-12202
▁müh	-12203
▁məl	-12204
▁opt	-12205
▁tax	-12206
▁бог	-12207
▁гый	-12208
▁куә	-12209
▁тир	-12210
▁яки	-12211
istik	-12212
мелле	-12213
пасөз	-12214
тарда	-12215
ғында	-12216
▁Keng	-12217
▁dosy	-12218
▁plac	-12219
▁ters	-12220
▁жооп	-12221
▁жұмы	-12222
▁идар	-12223
▁убий	-12224
▁Қара	-12225
others	-12226
othing	-12227
чилось	-12228
▁Savaş	-12229
▁bitti	-12230
▁veril	-12231
▁мұнай	-12232
▁палат	-12233
▁таким	-12234
▁тарат	-12235
malısın	-12236
▁Daniel	-12237
▁alacağ	-12238
▁employ	-12239
▁millet	-12240
▁будешь	-12241
▁жерлер	-12242
▁оларға	-12243
▁қатына	-12244
▁өзүнүн	-12245
atlarini	-12246
aytirish	-12247
▁cinayet	-12248
▁destroy	-12249
▁Конечно	-12250
▁sifatida	-12251
▁Национального	-12252
ЕС	-12253
amb	-12254
die	-12255
ebi	-12256
lil	-12257
unt	-12258
yle	-12259
иғи	-12260
щей	-12261
▁TR	-12262
▁öp	-12263
▁öň	-12264
▁Оң	-12265
▁әу	-12266
arch	-12267
üstü	-12268
анов	-12269
ечен	-12270
отив	-12271
урыз	-12272
▁Mol	-12273
▁Qor	-12274
▁Taş	-12275
▁enc	-12276
▁oda	-12277
▁tək	-12278
▁Рез	-12279
▁выш	-12280
▁сиг	-12281
▁сыв	-12282
aydın	-12283
андық	-12284
дерге	-12285
ованы	-12286
райыл	-12287
▁Mari	-12288
▁dans	-12289
▁data	-12290
▁felt	-12291
▁знал	-12292
▁патш	-12293
▁elect	-12294
▁guruh	-12295
▁tried	-12296
▁şaşır	-12297
▁алушы	-12298
▁кичер	-12299
▁күңел	-12300
▁кӑмӑл	-12301
▁округ	-12302
▁пособ	-12303
▁өңдеу	-12304
siyalar	-12305
tığımız	-12306
▁almost	-12307
▁asosiy	-12308
▁işleri	-12309
▁secret	-12310
▁охраны	-12311
▁outside	-12312
▁независ	-12313
▁октября	-12314
▁регулир	-12315
▁maqsadida	-12316
▁экономика	-12317
▁Christians	-12318
▁проведение	-12319
▁cooperation	-12320
▁производится	-12321
OV	-12322
ier	-12323
osi	-12324
rol	-12325
sha	-12326
апа	-12327
сең	-12328
фор	-12329
імі	-12330
▁Уз	-12331
▁жу	-12332
▁Үз	-12333
more	-12334
rent	-12335
алай	-12336
лата	-12337
▁Bah	-12338
▁Kos	-12339
▁Mom	-12340
▁Pey	-12341
▁kıl	-12342
▁yla	-12343
▁Тех	-12344
▁бро	-12345
▁вил	-12346
▁кӑш	-12347
axsus	-12348
gilar	-12349
osyal	-12350
редел	-12351
ӗнчен	-12352
▁Cons	-12353
▁camp	-12354
▁olma	-12355
▁radi	-12356
▁слуш	-12357
▁тонн	-12358
▁чрез	-12359
▁якын	-12360
ленные	-12361
тамасы	-12362
▁Harit	-12363
▁işlem	-12364
▁kelib	-12365
▁veren	-12366
▁сағат	-12367
▁birisi	-12368
▁kutsal	-12369
▁punish	-12370
▁недост	-12371
▁продук	-12372
▁совсем	-12373
▁Elbette	-12374
▁However	-12375
▁onlarla	-12376
▁waiting	-12377
▁городов	-12378
стырылған	-12379
▁investit	-12380
▁standart	-12381
▁интернет	-12382
▁собственности	-12383
ua	-12384
ңг	-12385
kəm	-12386
nes	-12387
дүр	-12388
кун	-12389
уля	-12390
دۇر	-12391
▁Im	-12392
▁ep	-12393
▁вд	-12394
izik	-12395
авап	-12396
ақты	-12397
летт	-12398
▁Değ	-12399
▁rob	-12400
▁sac	-12401
▁sax	-12402
▁səh	-12403
▁təş	-12404
▁Нал	-12405
▁Нич	-12406
▁бла	-12407
▁кӗр	-12408
▁маз	-12409
▁тат	-12410
▁чоң	-12411
▁шын	-12412
▁эмн	-12413
anger	-12414
ental	-12415
lishi	-12416
ələri	-12417
мейді	-12418
опров	-12419
ордин	-12420
очной	-12421
ывают	-12422
▁mach	-12423
▁ümid	-12424
▁Şüph	-12425
▁авар	-12426
▁жиль	-12427
▁мать	-12428
▁музы	-12429
▁нему	-12430
▁серь	-12431
▁Hangi	-12432
▁Yarın	-12433
▁areas	-12434
▁docum	-12435
▁yaxın	-12436
▁özgür	-12437
▁Ләкин	-12438
▁ауылы	-12439
▁дайын	-12440
▁көрсө	-12441
▁состо	-12442
▁среды	-12443
▁Yalnız	-12444
▁oradan	-12445
▁verdim	-12446
▁кездес	-12447
▁первой	-12448
▁сыртқы	-12449
▁parçası	-12450
▁promise	-12451
▁өзгерту	-12452
▁qilishga	-12453
▁саласында	-12454
▁башкаларга	-12455
▁государств	-12456
▁количество	-12457
▁ответственность	-12458
ror	-12459
vur	-12460
оты	-12461
фат	-12462
әһе	-12463
amet	-12464
eyir	-12465
eşem	-12466
gyny	-12467
ring	-12468
ules	-12469
ulty	-12470
umda	-12471
щика	-12472
▁Nav	-12473
▁che	-12474
▁hüc	-12475
▁ila	-12476
▁qey	-12477
▁бед	-12478
▁жою	-12479
▁отв	-12480
likka	-12481
riage	-12482
даний	-12483
дарда	-12484
еннән	-12485
жегод	-12486
ителю	-12487
өрмәт	-12488
▁Dost	-12489
▁ball	-12490
▁cell	-12491
▁drop	-12492
▁gets	-12493
▁late	-12494
▁mulk	-12495
▁reve	-12496
▁üret	-12497
▁İnan	-12498
▁əsas	-12499
▁волн	-12500
▁выше	-12501
▁куда	-12502
▁пози	-12503
▁село	-12504
isayar	-12505
▁Annem	-12506
▁adına	-12507
▁heyec	-12508
▁uğraş	-12509
▁worth	-12510
▁çünki	-12511
▁дүйнө	-12512
▁етеді	-12513
▁заказ	-12514
▁скоро	-12515
▁Listen	-12516
▁başlay	-12517
▁itibar	-12518
▁tibbiy	-12519
▁travel	-12520
▁varmış	-12521
▁yanına	-12522
▁деклар	-12523
▁сомасы	-12524
▁феврал	-12525
abilecek	-12526
▁çalışan	-12527
▁Руковод	-12528
▁каждого	-12529
▁evidence	-12530
▁hayatını	-12531
▁mükemmel	-12532
▁zamanlar	-12533
▁возможно	-12534
▁жылдарға	-12535
▁местного	-12536
▁условиях	-12537
▁experience	-12538
▁постановление	-12539
mı	-12540
ыў	-12541
эф	-12542
don	-12543
işe	-12544
дия	-12545
чив	-12546
aqat	-12547
cısı	-12548
eous	-12549
gili	-12550
gine	-12551
idik	-12552
itiz	-12553
memi	-12554
ross	-12555
енсә	-12556
иниң	-12557
нику	-12558
стат	-12559
▁Duy	-12560
▁Ray	-12561
▁ауы	-12562
▁кра	-12563
▁оде	-12564
▁сет	-12565
▁тый	-12566
▁ырӑ	-12567
aster	-12568
enger	-12569
itude	-12570
çinin	-12571
дігін	-12572
▁Muht	-12573
▁band	-12574
▁mart	-12575
▁nars	-12576
▁oğul	-12577
▁ışık	-12578
▁кӑна	-12579
▁маль	-12580
▁онда	-12581
▁преп	-12582
▁путь	-12583
▁ӗнен	-12584
ources	-12585
ствуют	-12586
тармағ	-12587
▁Geçen	-12588
▁Hatta	-12589
▁beyaz	-12590
▁colle	-12591
▁front	-12592
▁ihtim	-12593
▁olmaq	-12594
▁rapor	-12595
▁share	-12596
▁table	-12597
▁takım	-12598
▁weeks	-12599
▁whose	-12600
▁yapma	-12601
▁Разве	-12602
▁асман	-12603
▁безне	-12604
▁жүйес	-12605
▁иници	-12606
▁көтер	-12607
▁миров	-12608
ığından	-12609
▁bunday	-12610
▁cemaat	-12611
▁düzgün	-12612
▁olmaya	-12613
▁çıkart	-12614
▁академ	-12615
▁момент	-12616
▁пионер	-12617
▁подчер	-12618
▁случай	-12619
▁congreg	-12620
▁harakat	-12621
▁history	-12622
▁которую	-12623
ıyorsunuz	-12624
▁elektron	-12625
▁nisbatan	-12626
▁торговли	-12627
▁konuşuyor	-12628
▁настоящее	-12629
▁назначения	-12630
▁результате	-12631
▁специалистов	-12632
▁инвестициялық	-12633
LER	-12634
alp	-12635
erg	-12636
osu	-12637
sik	-12638
zem	-12639
быв	-12640
еті	-12641
рот	-12642
fast	-12643
irim	-12644
umlu	-12645
нары	-12646
тран	-12647
чина	-12648
әтта	-12649
▁Bus	-12650
▁Joe	-12651
▁fer	-12652
▁lav	-12653
▁meş	-12654
▁ЭКС	-12655
▁вит	-12656
▁кру	-12657
▁күб	-12658
▁мөн	-12659
▁сас	-12660
▁ҫыв	-12661
avkat	-12662
bayev	-12663
ismon	-12664
нерго	-12665
▁Hala	-12666
▁hale	-12667
▁Шуңа	-12668
▁баян	-12669
▁двер	-12670
▁рели	-12671
▁قىلى	-12672
▁becer	-12673
▁bulur	-12674
▁drive	-12675
▁local	-12676
▁sınıf	-12677
▁запре	-12678
▁иметь	-12679
▁отраж	-12680
chester	-12681
miyorum	-12682
▁Mirziy	-12683
▁Thanks	-12684
▁heaven	-12685
▁minute	-12686
▁вӗрент	-12687
▁каласа	-12688
▁кодекс	-12689
▁қайтар	-12690
▁өндіру	-12691
▁Bununla	-12692
▁trouble	-12693
▁включая	-12694
▁словами	-12695
alarining	-12696
▁байланыш	-12697
▁конкурса	-12698
▁Biliyorum	-12699
▁faoliyati	-12700
▁заявления	-12701
▁Prezidenti	-12702
▁düşünüyorum	-12703
▁орналастыру	-12704
▁требованиям	-12705
▁Қазақстанда	-12706
▁соответствующих	-12707
LE	-12708
лд	-12709
мұ	-12710
ңа	-12711
eff	-12712
evk	-12713
çak	-12714
гог	-12715
гъа	-12716
кӑн	-12717
ону	-12718
пай	-12719
пор	-12720
рыв	-12721
тең	-12722
▁IS	-12723
aket	-12724
aled	-12725
иден	-12726
инчи	-12727
олор	-12728
соци	-12729
сток	-12730
әсәб	-12731
▁fak	-12732
▁pro	-12733
▁xil	-12734
▁вок	-12735
▁мәғ	-12736
▁неб	-12737
ordan	-12738
▁Head	-12739
▁bath	-12740
▁kral	-12741
▁maks	-12742
▁sənə	-12743
▁text	-12744
▁öner	-12745
▁тӑра	-12746
▁Әгәр	-12747
lamaya	-12748
minist	-12749
▁bence	-12750
▁deniz	-12751
▁deter	-12752
▁havuz	-12753
▁işini	-12754
▁yarış	-12755
▁валют	-12756
▁жалға	-12757
▁небес	-12758
▁пӑхса	-12759
▁турат	-12760
▁үткәр	-12761
ication	-12762
интерес	-12763
ландыру	-12764
нования	-12765
темелер	-12766
▁compet	-12767
▁minist	-12768
▁needed	-12769
▁вообще	-12770
▁көргөн	-12771
▁народа	-12772
▁пулать	-12773
▁isteyen	-12774
▁процент	-12775
▁баспасөз	-12776
▁протокол	-12777
▁аумағында	-12778
▁жағдайлар	-12779
▁стоимости	-12780
▁facilities	-12781
▁исключением	-12782
▁Министерство	-12783
ЛЫ	-12784
dem	-12785
lid	-12786
rop	-12787
unk	-12788
ənn	-12789
ниң	-12790
чка	-12791
▁Ov	-12792
▁еш	-12793
▁ль	-12794
asib	-12795
esis	-12796
izom	-12797
əlik	-12798
гына	-12799
инга	-12800
улук	-12801
ятно	-12802
▁Wal	-12803
▁kör	-12804
▁tin	-12805
▁Цар	-12806
▁аса	-12807
▁тив	-12808
▁шағ	-12809
allar	-12810
gacha	-12811
right	-12812
вычай	-12813
дорож	-12814
інген	-12815
▁Brit	-12816
▁View	-12817
▁fast	-12818
▁kabi	-12819
▁знам	-12820
▁ылай	-12821
нуться	-12822
рабаты	-12823
сенчен	-12824
ындагы	-12825
▁Fiyat	-12826
▁Hepsi	-12827
▁yetir	-12828
▁баары	-12829
▁думал	-12830
▁завед	-12831
▁тытса	-12832
ecially	-12833
▁States	-12834
▁access	-12835
▁düşman	-12836
▁either	-12837
▁ibadət	-12838
▁prepar	-12839
▁кадров	-12840
▁предуп	-12841
▁appreci	-12842
▁olduğun	-12843
▁olsaydı	-12844
▁sistemi	-12845
▁Келісім	-12846
▁мөнәсәб	-12847
▁ребенка	-12848
▁Istanbul	-12849
▁birgalik	-12850
▁supposed	-12851
▁лицензии	-12852
▁механизм	-12853
▁attention	-12854
▁spiritual	-12855
▁говорится	-12856
▁кешеләргә	-12857
▁поддержки	-12858
▁Teşekkürler	-12859
▁предусматри	-12860
▁национальной	-12861
ЕМ	-12862
məy	-12863
tem	-12864
yer	-12865
дий	-12866
ека	-12867
ӗне	-12868
▁fl	-12869
ейту	-12870
екел	-12871
▁Cum	-12872
▁Lou	-12873
▁soğ	-12874
▁tık	-12875
▁вын	-12876
▁илт	-12877
▁мощ	-12878
▁рәх	-12879
▁туг	-12880
▁шәһ	-12881
liyor	-12882
ohida	-12883
ports	-12884
tiniz	-12885
usunu	-12886
valtı	-12887
ыйзам	-12888
▁clos	-12889
▁purp	-12890
▁soci	-12891
▁воск	-12892
▁дога	-12893
▁иных	-12894
▁пыта	-12895
▁ужас	-12896
sızlık	-12897
▁gördü	-12898
▁miydi	-12899
▁sense	-12900
▁shoot	-12901
▁Здесь	-12902
▁Скажи	-12903
▁ЭКСПО	-12904
▁жедел	-12905
▁китеп	-12906
▁мүлік	-12907
▁халӑх	-12908
▁өнерк	-12909
alandır	-12910
ismoniy	-12911
ителями	-12912
▁edəcək	-12913
▁görmüş	-12914
▁regard	-12915
▁öldüre	-12916
▁Сторон	-12917
▁жөндеу	-12918
▁коллед	-12919
▁куллан	-12920
▁көлемі	-12921
▁местах	-12922
▁парень	-12923
larımızı	-12924
mektedir	-12925
▁Shavkat	-12926
▁қаражат	-12927
▁ravishda	-12928
▁yalnızca	-12929
▁лицензия	-12930
▁министрі	-12931
▁қызметкер	-12932
▁Mirziyoyev	-12933
▁Соглашения	-12934
▁предложения	-12935
▁hissediyorum	-12936
▁предусмотренных	-12937
io	-12938
zo	-12939
ОР	-12940
ву	-12941
тя	-12942
ەل	-12943
duc	-12944
gie	-12945
бин	-12946
еты	-12947
ипе	-12948
ӑрт	-12949
▁Je	-12950
▁Ба	-12951
atör	-12952
dakı	-12953
ukat	-12954
upid	-12955
ətli	-12956
дачи	-12957
▁Bin	-12958
▁Luc	-12959
▁Yen	-12960
▁bos	-12961
▁esp	-12962
▁hot	-12963
▁maç	-12964
▁tec	-12965
▁дра	-12966
▁тақ	-12967
▁тей	-12968
▁төз	-12969
▁цар	-12970
meyin	-12971
ulmuş	-12972
yndan	-12973
▁Hakk	-12974
▁Hava	-12975
▁amac	-12976
▁aray	-12977
▁araç	-12978
▁drug	-12979
▁evde	-12980
▁flow	-12981
▁kayn	-12982
▁mekt	-12983
▁yeme	-12984
▁yurt	-12985
▁Эпир	-12986
▁айту	-12987
▁ауди	-12988
▁база	-12989
▁бирә	-12990
▁пяти	-12991
▁ident	-12992
▁looks	-12993
▁takes	-12994
▁takom	-12995
▁yavaş	-12996
▁şarkı	-12997
▁Жұмыс	-12998
▁кеңес	-12999
▁пулин	-13000
▁созда	-13001
▁счета	-13002
▁Isanyň	-13003
▁Street	-13004
▁temsil	-13005
▁umumiy	-13006
▁власти	-13007
▁вправе	-13008
▁любовь	-13009
▁позвон	-13010
▁такого	-13011
▁чыккан	-13012
▁respect	-13013
▁sözleri	-13014
▁tkazish	-13015
▁подпись	-13016
▁учаскес	-13017
▁building	-13018
▁property	-13019
▁somebody	-13020
▁долларов	-13021
▁according	-13022
▁мекемелер	-13023
▁қызметінің	-13024
▁государственное	-13025
âh	-13026
adu	-13027
cad	-13028
vid	-13029
üğü	-13030
быҙ	-13031
иат	-13032
нач	-13033
цеп	-13034
яла	-13035
ӗнӗ	-13036
әкъ	-13037
▁qü	-13038
▁БР	-13039
▁Ий	-13040
▁Ио	-13041
asız	-13042
ayıf	-13043
ecut	-13044
maga	-13045
resi	-13046
евид	-13047
ечат	-13048
иләр	-13049
овед	-13050
омет	-13051
тесь	-13052
ылат	-13053
▁Baz	-13054
▁Mem	-13055
▁boj	-13056
▁büt	-13057
▁jin	-13058
▁möh	-13059
▁nes	-13060
▁oku	-13061
▁rad	-13062
▁squ	-13063
▁Всё	-13064
▁ожи	-13065
▁төш	-13066
▁шіл	-13067
▁ҫир	-13068
lenen	-13069
medin	-13070
ствии	-13071
▁King	-13072
▁cenn	-13073
▁feet	-13074
▁ismi	-13075
▁king	-13076
▁okum	-13077
▁road	-13078
▁sort	-13079
▁viol	-13080
▁арал	-13081
▁егер	-13082
▁моно	-13083
▁штат	-13084
eceğin	-13085
▁Masih	-13086
▁adını	-13087
▁məsəl	-13088
▁suçlu	-13089
▁балан	-13090
▁берип	-13091
▁лабор	-13092
▁переп	-13093
▁перес	-13094
▁тӑрӑх	-13095
▁center	-13096
▁prices	-13097
▁result	-13098
▁yıldır	-13099
▁Исанын	-13100
▁аларды	-13101
▁застав	-13102
▁отдела	-13103
▁реализ	-13104
▁станет	-13105
▁сүзләр	-13106
▁уничто	-13107
▁уровне	-13108
▁услуго	-13109
министра	-13110
▁Telefon	-13111
▁mention	-13112
▁nedenle	-13113
▁provide	-13114
▁xorijiy	-13115
▁Ошондой	-13116
▁другими	-13117
▁прокуро	-13118
▁професс	-13119
▁takomill	-13120
▁ведомств	-13121
▁изложить	-13122
▁комитета	-13123
▁министрл	-13124
техникалық	-13125
▁situation	-13126
▁yapacağım	-13127
▁Солтүстік	-13128
▁düşünüyorsun	-13129
▁Prezidentining	-13130
▁Правительством	-13131
AH	-13132
әз	-13133
lap	-13134
дит	-13135
пӗр	-13136
роз	-13137
сад	-13138
сей	-13139
топ	-13140
▁Ib	-13141
ginç	-13142
üsus	-13143
алог	-13144
хана	-13145
▁Erk	-13146
▁Sir	-13147
▁Wil	-13148
▁box	-13149
▁ken	-13150
▁rom	-13151
▁zul	-13152
▁Ваш	-13153
▁бух	-13154
▁всю	-13155
▁гру	-13156
▁ног	-13157
▁уба	-13158
▁хып	-13159
▁шег	-13160
asing	-13161
ounds	-13162
алган	-13163
атады	-13164
бадәт	-13165
селәр	-13166
филак	-13167
▁hayv	-13168
▁обещ	-13169
▁проч	-13170
▁широ	-13171
сторон	-13172
▁China	-13173
▁Satan	-13174
▁barış	-13175
▁finan	-13176
▁grand	-13177
▁mesaf	-13178
▁nümun	-13179
▁sıcak	-13180
▁yapıl	-13181
▁артық	-13182
▁барып	-13183
▁бериш	-13184
▁білді	-13185
▁тӑрӑш	-13186
▁People	-13187
▁Umarım	-13188
▁altına	-13189
▁belong	-13190
▁detail	-13191
▁doldur	-13192
▁gündür	-13193
▁maxsus	-13194
▁говорю	-13195
▁послан	-13196
▁ремонт	-13197
▁хөрмәт	-13198
ительным	-13199
▁account	-13200
▁kalacak	-13201
▁mısınız	-13202
▁veriyor	-13203
▁жазбаша	-13204
▁момента	-13205
▁произош	-13206
▁процесс	-13207
▁құрылыс	-13208
▁Yahovaga	-13209
▁increase	-13210
▁karşılık	-13211
▁есебінен	-13212
▁принятия	-13213
▁сведения	-13214
▁құрылысы	-13215
▁Allohning	-13216
▁certainly	-13217
▁табылатын	-13218
▁tayyorlash	-13219
▁Международ	-13220
▁исполнением	-13221
▁қауіпсіздік	-13222
ây	-13223
пл	-13224
fet	-13225
hip	-13226
lue	-13227
rab	-13228
sey	-13229
umb	-13230
üşe	-13231
бат	-13232
гач	-13233
▁tä	-13234
▁Қо	-13235
enny	-13236
илди	-13237
мола	-13238
▁Lab	-13239
▁Pal	-13240
▁Reb	-13241
▁dör	-13242
▁hen	-13243
▁Мол	-13244
▁губ	-13245
▁даң	-13246
▁иди	-13247
▁шам	-13248
▁ҫур	-13249
dınız	-13250
elere	-13251
istiy	-13252
еверо	-13253
очных	-13254
▁chet	-13255
▁eriş	-13256
▁ikna	-13257
▁ruhi	-13258
▁Божь	-13259
▁Сред	-13260
▁инде	-13261
▁прис	-13262
▁смыс	-13263
▁стра	-13264
▁узна	-13265
▁ытти	-13266
циялау	-13267
▁James	-13268
▁Sorry	-13269
▁Yönet	-13270
▁asker	-13271
▁aydın	-13272
▁dəyiş	-13273
▁etdir	-13274
▁бергә	-13275
▁генер	-13276
▁гөнаһ	-13277
▁иштер	-13278
▁кайнӑ	-13279
▁огром	-13280
▁құзыр	-13281
▁compan	-13282
▁doğrul	-13283
▁Önemli	-13284
▁çocuğu	-13285
▁второй	-13286
▁нельзя	-13287
amayacak	-13288
▁kendisi	-13289
▁princip	-13290
▁Господа	-13291
▁Господь	-13292
▁аталған	-13293
▁прекращ	-13294
▁энергет	-13295
▁Actually	-13296
▁Allahdan	-13297
▁асыратын	-13298
▁дайындау	-13299
▁проблемы	-13300
▁Witnesses	-13301
▁азаматтық	-13302
▁указанных	-13303
▁birgalikda	-13304
▁edilebilir	-13305
▁gösteriyor	-13306
▁шеңберінде	-13307
▁квалификации	-13308
▁наименование	-13309
NA	-13310
bət	-13311
iba	-13312
los	-13313
лой	-13314
щих	-13315
▁AR	-13316
▁PR	-13317
daky	-13318
idge	-13319
licy	-13320
ısız	-13321
крет	-13322
▁Cam	-13323
▁diq	-13324
▁jih	-13325
▁Том	-13326
▁гер	-13327
▁сыя	-13328
▁төп	-13329
ahtar	-13330
ektif	-13331
форма	-13332
▁Rich	-13333
▁ifad	-13334
▁imag	-13335
▁ваши	-13336
▁держ	-13337
▁дети	-13338
▁оруж	-13339
▁тенӗ	-13340
▁тест	-13341
▁тунӑ	-13342
▁четы	-13343
ashing	-13344
ucture	-13345
галтер	-13346
кредит	-13347
▁Which	-13348
▁angel	-13349
▁girls	-13350
▁haqda	-13351
▁inkar	-13352
▁sinir	-13353
▁somet	-13354
▁Думаю	-13355
▁Кодек	-13356
▁йывӑр	-13357
▁облыс	-13358
ованных	-13359
тарында	-13360
▁qarshi	-13361
▁worked	-13362
▁Свидет	-13363
▁Совета	-13364
▁именно	-13365
▁further	-13366
▁августа	-13367
▁өзгеріс	-13368
▁istifadə	-13369
▁аппарата	-13370
▁шығыстар	-13371
▁следующего	-13372
▁ihtiyacımız	-13373
▁таможенного	-13374
▁председатель	-13375
АЗ	-13376
рю	-13377
mağ	-13378
quv	-13379
rev	-13380
бүз	-13381
гай	-13382
кир	-13383
ске	-13384
▁ci	-13385
▁çö	-13386
▁йә	-13387
mana	-13388
гъан	-13389
▁Mez	-13390
▁Vic	-13391
▁fel	-13392
▁flo	-13393
▁hır	-13394
▁Тво	-13395
ğinin	-13396
валид	-13397
тарга	-13398
тауға	-13399
чного	-13400
▁Niye	-13401
▁Port	-13402
▁born	-13403
▁fund	-13404
▁kalb	-13405
▁site	-13406
▁yedi	-13407
▁ürün	-13408
▁Ибра	-13409
▁Олий	-13410
▁ауыр	-13411
▁срав	-13412
▁степ	-13413
▁таас	-13414
izmeti	-13415
malari	-13416
mıştım	-13417
▁bolar	-13418
▁cover	-13419
▁dolaş	-13420
▁ilmiy	-13421
▁xusus	-13422
▁Основ	-13423
▁бірге	-13424
▁конца	-13425
▁отлич	-13426
▁помож	-13427
▁тарап	-13428
▁формы	-13429
▁хамӑр	-13430
▁шағын	-13431
▁سىلەر	-13432
eceğimi	-13433
lashgan	-13434
melisin	-13435
филакти	-13436
▁action	-13437
▁associ	-13438
▁tarmoq	-13439
▁ететін	-13440
▁нотари	-13441
▁чындык	-13442
▁happens	-13443
▁yeterli	-13444
▁Государ	-13445
▁Hıristiy	-13446
▁оператор	-13447
▁пределах	-13448
▁political	-13449
▁özellikle	-13450
▁пожалуйста	-13451
▁допускается	-13452
▁органдарының	-13453
▁необходимости	-13454
▁финансирования	-13455
AP	-13456
dä	-13457
кө	-13458
app	-13459
dam	-13460
kid	-13461
дно	-13462
дор	-13463
шет	-13464
▁Ур	-13465
▁Хо	-13466
atga	-13467
lant	-13468
mäge	-13469
quot	-13470
rect	-13471
road	-13472
usun	-13473
етов	-13474
улан	-13475
▁Cla	-13476
▁Hon	-13477
▁avt	-13478
▁duş	-13479
▁təh	-13480
▁vol	-13481
▁Пож	-13482
▁две	-13483
▁меч	-13484
еләре	-13485
шение	-13486
шылык	-13487
▁başq	-13488
▁cust	-13489
▁doim	-13490
▁kızı	-13491
▁Аның	-13492
▁всей	-13493
▁туры	-13494
▁убак	-13495
▁улуч	-13496
▁өмүр	-13497
▁ahlak	-13498
▁bazen	-13499
▁ettin	-13500
▁kelim	-13501
▁Карак	-13502
▁какие	-13503
▁пасса	-13504
▁халык	-13505
▁hastan	-13506
▁yerinə	-13507
▁yolcul	-13508
▁Знаешь	-13509
▁бардык	-13510
▁жәрдем	-13511
▁налога	-13512
▁хотела	-13513
▁elbette	-13514
▁witness	-13515
▁çalışır	-13516
▁Экономи	-13517
▁economic	-13518
▁faithful	-13519
▁мәмлекет	-13520
▁тәртібін	-13521
▁утвержда	-13522
▁функцион	-13523
▁yuzasidan	-13524
▁Настоящее	-13525
▁Утвердить	-13526
▁отношений	-13527
▁Everything	-13528
▁Казахстане	-13529
▁дополнений	-13530
▁инвестиций	-13531
▁Республикан	-13532
▁бағдарламасы	-13533
▁Государственной	-13534
fi	-13535
fə	-13536
ko	-13537
mür	-13538
ses	-13539
web	-13540
жар	-13541
лев	-13542
нил	-13543
осы	-13544
риў	-13545
ңар	-13546
▁Ba	-13547
▁Ec	-13548
ftiz	-13549
odir	-13550
делі	-13551
ерин	-13552
ндай	-13553
шает	-13554
шему	-13555
▁Ail	-13556
▁Sin	-13557
▁miy	-13558
▁müj	-13559
▁pen	-13560
▁tik	-13561
▁təm	-13562
▁çoğ	-13563
▁ýyl	-13564
▁Ден	-13565
▁Сот	-13566
▁яңа	-13567
lanma	-13568
нения	-13569
теген	-13570
▁Free	-13571
▁Olar	-13572
▁adlı	-13573
▁anim	-13574
▁corr	-13575
▁defa	-13576
▁fore	-13577
▁haft	-13578
▁nəyə	-13579
▁phys	-13580
▁əzab	-13581
▁болу	-13582
▁клуб	-13583
▁отме	-13584
▁өмір	-13585
ımızın	-13586
усылар	-13587
▁Konum	-13588
▁Moses	-13589
▁Since	-13590
▁agent	-13591
▁gazet	-13592
▁gözəl	-13593
▁quite	-13594
▁tanık	-13595
▁vakil	-13596
▁выгля	-13597
▁нужна	-13598
▁пожар	-13599
▁треть	-13600
▁alıyor	-13601
▁expect	-13602
▁iyilik	-13603
▁scient	-13604
▁yerini	-13605
▁Сондай	-13606
▁келтір	-13607
eceğimiz	-13608
▁kişisel	-13609
▁konuşur	-13610
▁qishloq	-13611
▁жөнінде	-13612
▁məhəbbət	-13613
▁particular	-13614
▁промышленности	-13615
▁государственным	-13616
ls	-13617
oo	-13618
ام	-13619
ədi	-13620
вещ	-13621
иси	-13622
▁OF	-13623
▁мя	-13624
▁эң	-13625
anan	-13626
eyiz	-13627
ffee	-13628
irik	-13629
лого	-13630
ччен	-13631
өлік	-13632
▁Bet	-13633
▁təq	-13634
▁çət	-13635
▁Рес	-13636
▁Реш	-13637
▁мою	-13638
▁хир	-13639
▁қыр	-13640
ified	-13641
▁Find	-13642
▁aloq	-13643
▁doub	-13644
▁edib	-13645
▁luck	-13646
▁onay	-13647
▁Меня	-13648
▁байқ	-13649
▁таны	-13650
▁ушын	-13651
▁эсир	-13652
chalik	-13653
mekten	-13654
ендәге	-13655
ждение	-13656
▁Ondan	-13657
▁black	-13658
▁harek	-13659
▁muhof	-13660
▁sanat	-13661
▁using	-13662
▁Мажли	-13663
▁включ	-13664
▁навер	-13665
▁орман	-13666
▁пулма	-13667
▁тұлға	-13668
▁җавап	-13669
▁қаулы	-13670
alarida	-13671
▁Dikkat	-13672
▁Tekrar	-13673
▁barədə	-13674
▁meydan	-13675
▁prison	-13676
▁tarkib	-13677
▁yukarı	-13678
▁Ақмола	-13679
▁анализ	-13680
▁жүргөн	-13681
▁общего	-13682
▁получа	-13683
▁dediler	-13684
▁heavens	-13685
▁думаешь	-13686
езнодорож	-13687
▁starting	-13688
▁Башкирии	-13689
▁берилген	-13690
▁игътибар	-13691
▁оператив	-13692
▁тұлғалар	-13693
▁everybody	-13694
▁ақпаратты	-13695
▁лаборатор	-13696
▁ресурстар	-13697
▁случилось	-13698
▁sanıyordum	-13699
▁құрылымдық	-13700
▁осуществления	-13701
▁информационных	-13702
ИЯ	-13703
җә	-13704
azi	-13705
uki	-13706
əcə	-13707
гиз	-13708
еры	-13709
сек	-13710
хов	-13711
▁зр	-13712
▁мм	-13713
▁مۇ	-13714
erim	-13715
oute	-13716
oved	-13717
атӑп	-13718
тиру	-13719
чено	-13720
чной	-13721
▁Jac	-13722
▁Pan	-13723
▁kül	-13724
▁mek	-13725
▁sem	-13726
▁ýol	-13727
▁муд	-13728
▁тӗп	-13729
▁بىل	-13730
ektor	-13731
lanır	-13732
лыкка	-13733
ногда	-13734
ребез	-13735
скому	-13736
тереү	-13737
үлгөн	-13738
▁Jess	-13739
▁Mike	-13740
▁bast	-13741
▁büyü	-13742
▁ibod	-13743
▁idor	-13744
▁orig	-13745
▁изге	-13746
▁ночь	-13747
▁руки	-13748
▁села	-13749
▁суро	-13750
▁يەنى	-13751
асынан	-13752
едение	-13753
ляться	-13754
орядок	-13755
▁Japan	-13756
▁ancaq	-13757
▁araya	-13758
▁dedik	-13759
▁etdiy	-13760
▁ettir	-13761
▁kunda	-13762
▁türlü	-13763
▁wrote	-13764
▁yaqin	-13765
▁жерге	-13766
▁обмен	-13767
▁прият	-13768
▁прост	-13769
▁қараж	-13770
▁әрбір	-13771
inizden	-13772
likleri	-13773
▁Invest	-13774
▁assist	-13775
▁maktab	-13776
▁takdir	-13777
▁şeyden	-13778
▁Конвен	-13779
▁данные	-13780
▁здания	-13781
▁понять	-13782
▁тиклем	-13783
ological	-13784
хождения	-13785
▁olduğum	-13786
▁private	-13787
▁receive	-13788
▁servisi	-13789
▁station	-13790
▁сказали	-13791
▁электри	-13792
▁kardeşim	-13793
▁Правилам	-13794
▁среднего	-13795
▁apartment	-13796
▁аркасында	-13797
▁заседания	-13798
▁қаласында	-13799
▁Управление	-13800
▁медицинской	-13801
оф	-13802
эп	-13803
kın	-13804
ере	-13805
әре	-13806
▁Wr	-13807
▁öv	-13808
▁İl	-13809
cent	-13810
ərək	-13811
əsiz	-13812
вода	-13813
▁Luk	-13814
▁lie	-13815
▁mər	-13816
▁poz	-13817
▁Кам	-13818
▁Кеш	-13819
lerce	-13820
лерди	-13821
ләрдә	-13822
ултан	-13823
▁Hong	-13824
▁Only	-13825
▁Sing	-13826
▁conn	-13827
▁foot	-13828
▁ijro	-13829
▁jalb	-13830
▁Этот	-13831
▁меди	-13832
ыстағы	-13833
▁Evcil	-13834
▁Mesaj	-13835
▁Polis	-13836
▁Yunan	-13837
▁above	-13838
▁ahead	-13839
▁alive	-13840
▁crazy	-13841
▁early	-13842
▁hakim	-13843
▁xüsus	-13844
▁çabuk	-13845
▁бизди	-13846
▁келиш	-13847
▁новый	-13848
▁пысӑк	-13849
▁себеб	-13850
▁твоей	-13851
▁ұстау	-13852
министр	-13853
▁across	-13854
▁yüzyıl	-13855
▁Бюджет	-13856
▁мастер	-13857
аларында	-13858
▁alohida	-13859
▁appoint	-13860
▁cesaret	-13861
▁foreign	-13862
▁görüntü	-13863
▁results	-13864
▁конечно	-13865
▁language	-13866
▁training	-13867
▁condition	-13868
▁восстанов	-13869
▁компьютер	-13870
▁социально	-13871
▁поговорить	-13872
▁содержания	-13873
▁социальных	-13874
▁тасымалдау	-13875
▁кәсіпкерлік	-13876
▁обязанности	-13877
▁эксплуатации	-13878
▁уполномоченным	-13879
gs	-13880
ja	-13881
▁ن	-13882
gas	-13883
nam	-13884
бей	-13885
вам	-13886
шек	-13887
▁Дө	-13888
▁ПР	-13889
▁вп	-13890
▁ыв	-13891
best	-13892
enti	-13893
ilib	-13894
laim	-13895
гает	-13896
евич	-13897
▁Dec	-13898
▁Det	-13899
▁Nuh	-13900
▁düğ	-13901
▁qər	-13902
▁səb	-13903
▁tit	-13904
▁Аты	-13905
▁Жак	-13906
▁Мон	-13907
▁Рай	-13908
▁Сем	-13909
▁Соң	-13910
▁аер	-13911
▁кою	-13912
▁мах	-13913
▁сэр	-13914
gungi	-13915
icial	-13916
ising	-13917
ladık	-13918
obody	-13919
▁Hall	-13920
▁ways	-13921
▁şart	-13922
▁Стро	-13923
▁Указ	-13924
▁авиа	-13925
▁хотя	-13926
bosari	-13927
erview	-13928
sından	-13929
undred	-13930
чество	-13931
▁demək	-13932
▁Генер	-13933
▁абзац	-13934
▁айтты	-13935
▁закуп	-13936
▁китап	-13937
▁минем	-13938
▁фести	-13939
▁целью	-13940
▁яктан	-13941
▁Birleş	-13942
▁appear	-13943
▁ayələr	-13944
▁bahset	-13945
▁başlam	-13946
▁cehenn	-13947
▁dürüst	-13948
▁tarifi	-13949
▁жазган	-13950
▁жобасы	-13951
▁занима	-13952
▁тикшер	-13953
▁эколог	-13954
▁қандай	-13955
▁America	-13956
▁transfer	-13957
▁заменить	-13958
▁проверки	-13959
▁Қостанай	-13960
▁sırasında	-13961
▁Язмаларда	-13962
▁субъектов	-13963
▁чрезвычай	-13964
▁басшысының	-13965
▁перспектив	-13966
▁толықтырыл	-13967
▁заместитель	-13968
▁нормативтік	-13969
▁congregation	-13970
BI	-13971
кл	-13972
фа	-13973
ыҡ	-13974
cin	-13975
ump	-13976
vey	-13977
дии	-13978
учу	-13979
чал	-13980
ъяв	-13981
▁Da	-13982
▁EC	-13983
▁Gl	-13984
▁Ye	-13985
▁om	-13986
▁Пу	-13987
▁Тұ	-13988
▁як	-13989
ICEF	-13990
ires	-13991
абул	-13992
вида	-13993
лиги	-13994
рата	-13995
ыныч	-13996
▁Bor	-13997
▁Dön	-13998
▁Ish	-13999
▁Ted	-14000
▁dök	-14001
▁elə	-14002
▁vah	-14003
▁Ему	-14004
▁Жан	-14005
▁Поз	-14006
▁буд	-14007
▁зол	-14008
▁кен	-14009
▁кре	-14010
ebook	-14011
ories	-14012
▁hate	-14013
▁ilaç	-14014
▁kayd	-14015
▁mant	-14016
▁ufak	-14017
▁wall	-14018
▁киши	-14019
▁роль	-14020
▁труб	-14021
▁тынч	-14022
atural	-14023
larımı	-14024
raight	-14025
дырган	-14026
елерін	-14027
▁deyir	-14028
▁hesab	-14029
▁kanun	-14030
▁resul	-14031
▁seems	-14032
▁xeyir	-14033
▁денеж	-14034
▁кабыл	-14035
▁нужен	-14036
▁срока	-14037
▁сәйке	-14038
▁қарыз	-14039
▁үлкен	-14040
ediğini	-14041
ilmoqda	-14042
▁benzer	-14043
▁derler	-14044
▁kuvvet	-14045
▁saylov	-14046
▁threat	-14047
▁zengin	-14048
▁призна	-14049
▁станов	-14050
▁Merkezi	-14051
▁general	-14052
▁hizmeti	-14053
▁Кабинет	-14054
▁капитал	-14055
▁принять	-14056
▁American	-14057
▁berilgan	-14058
▁Возможно	-14059
▁Патшалык	-14060
▁difficult	-14061
▁olacaktır	-14062
▁директоры	-14063
▁заинтерес	-14064
▁мөнәсәбәт	-14065
▁arasındaki	-14066
▁возможности	-14067
▁изменениями	-14068
▁железнодорож	-14069
▁Правительство	-14070
ЫН	-14071
dıq	-14072
sol	-14073
uit	-14074
üle	-14075
меш	-14076
хоз	-14077
шыу	-14078
ғыр	-14079
asiz	-14080
ayon	-14081
lery	-14082
yňyz	-14083
дығы	-14084
пион	-14085
шарт	-14086
▁Add	-14087
▁Boş	-14088
▁RAB	-14089
▁dax	-14090
▁ixt	-14091
▁pil	-14092
▁pub	-14093
▁taý	-14094
▁кес	-14095
▁кут	-14096
▁ува	-14097
▁фат	-14098
▁ыйт	-14099
▁өзг	-14100
iliği	-14101
tibor	-14102
енная	-14103
орган	-14104
тория	-14105
ғаның	-14106
▁Biri	-14107
▁Call	-14108
▁hata	-14109
▁mash	-14110
▁mənə	-14111
▁прик	-14112
▁сети	-14113
▁учит	-14114
▁Giriş	-14115
▁Great	-14116
▁Hello	-14117
▁Henry	-14118
▁Today	-14119
▁Yorum	-14120
▁bende	-14121
▁cavab	-14122
▁diýip	-14123
▁erish	-14124
▁giden	-14125
▁henüz	-14126
▁moliy	-14127
▁mıydı	-14128
▁proph	-14129
▁saygı	-14130
▁tatlı	-14131
▁yours	-14132
▁Ücret	-14133
▁айтуу	-14134
▁белем	-14135
▁платы	-14136
emezsin	-14137
webterm	-14138
егистри	-14139
▁Yüksek	-14140
▁ayrıca	-14141
▁korkut	-14142
▁mitasi	-14143
▁yapmam	-14144
▁Парлам	-14145
▁Слушай	-14146
▁воздуш	-14147
▁отсюда	-14148
▁сердце	-14149
▁түскен	-14150
▁contact	-14151
▁korkunç	-14152
▁regular	-14153
▁viloyat	-14154
▁говорят	-14155
iyorsunuz	-14156
▁hatırlat	-14157
▁söyledik	-14158
▁айтылган	-14159
▁жазылган	-14160
▁жұмыспен	-14161
▁бұзушылық	-14162
▁зейнетақы	-14163
▁Халықаралық	-14164
▁определяется	-14165
AC	-14166
oda	-14167
ops	-14168
каж	-14169
кай	-14170
рап	-14171
түр	-14172
▁ип	-14173
▁ло	-14174
▁лә	-14175
▁Үк	-14176
atli	-14177
etli	-14178
iyon	-14179
ябрь	-14180
үнөн	-14181
▁Keş	-14182
▁Sav	-14183
▁göm	-14184
▁mob	-14185
▁non	-14186
▁wel	-14187
▁Çev	-14188
▁şək	-14189
▁Сез	-14190
▁Хри	-14191
▁гек	-14192
▁зор	-14193
▁стр	-14194
▁һүҙ	-14195
aqalp	-14196
ethod	-14197
ursuz	-14198
алпак	-14199
лығын	-14200
меген	-14201
▁Başk	-14202
▁Walk	-14203
▁asıl	-14204
▁exam	-14205
▁foiz	-14206
▁kamp	-14207
▁mine	-14208
▁sözü	-14209
▁валю	-14210
▁крит	-14211
▁паци	-14212
▁пулӗ	-14213
▁удал	-14214
▁қамт	-14215
amaşır	-14216
ential	-14217
ийской	-14218
оритет	-14219
эффици	-14220
▁Davud	-14221
▁balık	-14222
▁based	-14223
▁gurur	-14224
▁katil	-14225
▁write	-14226
▁Шаһит	-14227
▁архит	-14228
▁дорог	-14229
▁кайра	-14230
▁текст	-14231
▁ғылым	-14232
▁құбыр	-14233
▁өйрәт	-14234
ындайды	-14235
ынчылык	-14236
▁Petrus	-14237
▁discip	-14238
▁ettiği	-14239
▁rather	-14240
▁sessiz	-14241
▁yuqori	-14242
▁совета	-14243
▁тарату	-14244
▁центра	-14245
▁үзенең	-14246
lərindən	-14247
ствующих	-14248
▁bununla	-14249
▁ettiler	-14250
▁gidelim	-14251
▁individ	-14252
▁running	-14253
▁конкрет	-14254
▁констру	-14255
▁отрасли	-14256
▁Перечень	-14257
▁животных	-14258
▁mustahkam	-14259
▁verebilir	-14260
▁тәртіппен	-14261
▁televizyon	-14262
▁определения	-14263
▁юридических	-14264
▁толықтырулар	-14265
qq	-14266
ОО	-14267
ION	-14268
evi	-14269
гой	-14270
обр	-14271
рәт	-14272
уру	-14273
әнә	-14274
▁Qo	-14275
▁Ма	-14276
ayət	-14277
ders	-14278
ulan	-14279
uldu	-14280
алӑх	-14281
езда	-14282
ктен	-14283
разу	-14284
үмәт	-14285
▁Bat	-14286
▁Dam	-14287
▁Dis	-14288
▁Dol	-14289
▁Jun	-14290
▁Paw	-14291
▁Rah	-14292
▁Sat	-14293
▁fix	-14294
▁rib	-14295
▁wed	-14296
▁xot	-14297
▁zek	-14298
▁çay	-14299
▁Хӑй	-14300
▁баб	-14301
▁кри	-14302
▁отб	-14303
▁сор	-14304
▁хай	-14305
▁өту	-14306
aroit	-14307
iding	-14308
tılar	-14309
беков	-14310
торов	-14311
▁News	-14312
▁eğit	-14313
▁host	-14314
▁kish	-14315
▁seek	-14316
▁мәкт	-14317
▁скаж	-14318
▁тӑнӑ	-14319
▁төле	-14320
liğini	-14321
meleri	-14322
mıştır	-14323
ически	-14324
кольку	-14325
летвор	-14326
сыздан	-14327
устрой	-14328
▁Bazen	-14329
▁sadık	-14330
▁seçim	-14331
▁spend	-14332
▁temel	-14333
▁zayıf	-14334
▁депоз	-14335
▁завод	-14336
▁сумма	-14337
▁сәуір	-14338
▁числа	-14339
▁қадағ	-14340
евремен	-14341
▁Senden	-14342
▁hearts	-14343
▁recogn	-14344
▁Исраил	-14345
▁билгел	-14346
▁быстро	-14347
▁ежегод	-14348
▁компет	-14349
▁месяца	-14350
▁нового	-14351
▁своими	-14352
циясының	-14353
▁Central	-14354
▁introdu	-14355
▁şunları	-14356
▁Порядок	-14357
▁модерни	-14358
▁olanları	-14359
▁движения	-14360
▁Həqiqətən	-14361
▁дополнить	-14362
▁кешеләрнең	-14363
▁подтвержда	-14364
▁kendilerini	-14365
▁çalışıyorum	-14366
▁органдардың	-14367
▁подразделений	-14368
RK	-14369
lev	-14370
ola	-14371
бол	-14372
леш	-14373
ыль	-14374
әли	-14375
ədiy	-14376
асаҡ	-14377
овая	-14378
овым	-14379
того	-14380
▁Dub	-14381
▁Inn	-14382
▁Yat	-14383
▁cat	-14384
▁cov	-14385
▁çıl	-14386
▁ақш	-14387
▁клю	-14388
▁сия	-14389
▁ҡул	-14390
▁һуң	-14391
axass	-14392
iklet	-14393
illər	-14394
идеми	-14395
лекен	-14396
ытуға	-14397
▁Arch	-14398
▁Sist	-14399
▁aşağ	-14400
▁jour	-14401
▁niye	-14402
▁ruhy	-14403
▁seks	-14404
▁sell	-14405
▁sona	-14406
▁soni	-14407
▁tour	-14408
▁yüre	-14409
▁Азия	-14410
▁Итак	-14411
▁звон	-14412
▁эсеп	-14413
дықтан	-14414
рашива	-14415
▁Dinle	-14416
▁Grand	-14417
▁Nazar	-14418
▁Uning	-14419
▁began	-14420
▁bozor	-14421
▁deney	-14422
▁doğum	-14423
▁makal	-14424
▁mücad	-14425
▁taşın	-14426
▁worry	-14427
▁Салық	-14428
▁вспом	-14429
▁дәреж	-14430
▁етуге	-14431
▁попро	-14432
▁самое	-14433
▁семья	-14434
▁тради	-14435
▁ҫирӗп	-14436
▁couldn	-14437
▁danger	-14438
▁hikmet	-14439
▁Басқар	-14440
▁Привет	-14441
▁сектор	-14442
▁словам	-14443
▁хотите	-14444
▁шәкерт	-14445
▁gecelik	-14446
▁hayatım	-14447
▁olingan	-14448
▁sıkıntı	-14449
▁univers	-14450
▁Стандар	-14451
▁подчерк	-14452
▁понимаю	-14453
▁ұйымдар	-14454
▁güvenlik	-14455
▁maksimum	-14456
▁shaxslar	-14457
▁жазылсын	-14458
▁полностью	-14459
▁тасымалда	-14460
▁қатысушылар	-14461
▁Департамента	-14462
zu	-14463
сү	-14464
ҫӑ	-14465
öne	-14466
алу	-14467
дақ	-14468
жыл	-14469
ноз	-14470
ноп	-14471
тый	-14472
ӗре	-14473
▁eý	-14474
▁Ир	-14475
▁еж	-14476
adiq	-14477
iven	-14478
luğu	-14479
oken	-14480
raid	-14481
ıydı	-14482
ытай	-14483
▁III	-14484
▁Kuz	-14485
▁daş	-14486
▁sog	-14487
▁soň	-14488
▁tır	-14489
▁Çoc	-14490
▁глу	-14491
▁нат	-14492
▁обо	-14493
▁таз	-14494
▁хуп	-14495
▁яшь	-14496
▁һич	-14497
ledik	-14498
ledim	-14499
madın	-14500
olash	-14501
viron	-14502
бәттә	-14503
таган	-14504
▁muam	-14505
▁teki	-14506
▁Влад	-14507
▁Моис	-14508
▁айып	-14509
▁дать	-14510
▁кадр	-14511
▁опис	-14512
rashuv	-14513
ушілер	-14514
▁Danny	-14515
▁adama	-14516
▁bless	-14517
▁dates	-14518
▁dunyo	-14519
▁haqiq	-14520
▁itaat	-14521
▁karış	-14522
▁Йәһүә	-14523
▁болез	-14524
▁закры	-14525
▁истин	-14526
▁науки	-14527
▁непос	-14528
▁смотр	-14529
▁хӑйне	-14530
▁чөнки	-14531
▁шекте	-14532
амастан	-14533
▁Adults	-14534
▁belirt	-14535
▁derece	-14536
▁dersin	-14537
▁dinlem	-14538
▁direct	-14539
▁düzelt	-14540
▁işaret	-14541
▁ruhani	-14542
▁Туррӑн	-14543
▁кайбер	-14544
▁меншік	-14545
▁начина	-14546
▁предна	-14547
▁қараша	-14548
ственное	-14549
▁biriyle	-14550
▁changed	-14551
▁getirdi	-14552
▁yerinde	-14553
▁предпол	-14554
▁сколько	-14555
▁Qoraqalp	-14556
▁arkadaşı	-14557
▁received	-14558
▁research	-14559
▁вопросов	-14560
▁приказом	-14561
▁субсидия	-14562
▁талаптарына	-14563
▁Председатель	-14564
▁руководитель	-14565
än	-14566
ДА	-14567
ИТ	-14568
erc	-14569
lek	-14570
ряз	-14571
сас	-14572
трӗ	-14573
▁ge	-14574
▁öt	-14575
▁Ил	-14576
▁Им	-14577
▁эз	-14578
▁ұл	-14579
osil	-14580
sana	-14581
ware	-14582
алым	-14583
аплӑ	-14584
верг	-14585
емым	-14586
лено	-14587
ляют	-14588
чика	-14589
ятой	-14590
▁Fer	-14591
▁low	-14592
▁nak	-14593
▁Гри	-14594
▁Мил	-14595
▁Оку	-14596
▁даа	-14597
▁йый	-14598
▁пес	-14599
▁сад	-14600
▁уст	-14601
encer	-14602
lenme	-14603
▁Elec	-14604
▁Ular	-14605
▁Uzun	-14606
▁chek	-14607
▁kalp	-14608
▁ndan	-14609
▁rock	-14610
▁yazı	-14611
▁Боже	-14612
▁Крас	-14613
▁Оның	-14614
▁Фран	-14615
▁конф	-14616
change	-14617
▁Silah	-14618
▁beden	-14619
▁dinle	-14620
▁mesel	-14621
▁neigh	-14622
▁palat	-14623
▁yemin	-14624
▁бирок	-14625
▁добав	-14626
▁кабул	-14627
▁табыс	-14628
meliyim	-14629
▁Excuse	-14630
▁geldin	-14631
▁iyileş	-14632
▁möhkəm	-14633
▁obyekt	-14634
▁önceki	-14635
▁беруге	-14636
▁делега	-14637
▁наурыз	-14638
▁таасир	-14639
▁құқығы	-14640
ическими	-14641
цияларды	-14642
▁billion	-14643
▁decided	-14644
▁встречи	-14645
▁техники	-14646
▁Overview	-14647
▁national	-14648
▁гыйбадәт	-14649
▁хранения	-14650
▁бухгалтер	-14651
▁стоимость	-14652
▁хабарлама	-14653
▁Қарағанды	-14654
▁directions	-14655
▁məsihçilər	-14656
▁инвестиция	-14657
▁бағытталған	-14658
▁заместителя	-14659
▁қолданыстағы	-14660
▁постановлению	-14661
Ch	-14662
UN	-14663
kən	-14664
sis	-14665
сия	-14666
улі	-14667
anyo	-14668
atni	-14669
lied	-14670
oğul	-14671
алып	-14672
ктов	-14673
либо	-14674
опро	-14675
▁Jew	-14676
▁Saç	-14677
▁ağr	-14678
▁göy	-14679
▁Ага	-14680
▁Зат	-14681
▁Мал	-14682
▁Мух	-14683
▁дни	-14684
▁ими	-14685
▁усӑ	-14686
▁эсӗ	-14687
▁җиң	-14688
▁өрт	-14689
ektör	-14690
illed	-14691
lendi	-14692
urlar	-14693
думал	-14694
инчен	-14695
наруж	-14696
▁Emin	-14697
▁Kore	-14698
▁deyə	-14699
▁narx	-14700
▁rahb	-14701
▁şimd	-14702
▁Ведь	-14703
▁агро	-14704
▁виду	-14705
▁педа	-14706
▁элек	-14707
action	-14708
ләрнең	-14709
ыйкать	-14710
▁avoid	-14711
▁komik	-14712
▁music	-14713
▁Ескер	-14714
▁люблю	-14715
▁посел	-14716
▁пӑрах	-14717
▁рынка	-14718
isinden	-14719
letişim	-14720
▁Benden	-14721
▁Hudaýa	-14722
▁School	-14723
▁Tarifi	-14724
▁almaya	-14725
▁gördük	-14726
▁vazgeç	-14727
▁достав	-14728
▁привед	-14729
▁ылайык	-14730
ineering	-14731
▁ekanini	-14732
▁hundred	-14733
▁münasib	-14734
▁yuridik	-14735
▁Правила	-14736
▁инвалид	-14737
▁февраля	-14738
▁язылган	-14739
▁Everyone	-14740
▁başarılı	-14741
▁benziyor	-14742
▁bunların	-14743
▁continue	-14744
▁marriage	-14745
▁müqəddəs	-14746
▁министер	-14747
▁обучения	-14748
▁Transport	-14749
▁imkanları	-14750
▁должности	-14751
▁тіркелген	-14752
▁muhtemelen	-14753
▁Каракалпак	-14754
▁достаточно	-14755
▁окружающей	-14756
▁жағдайларда	-14757
IK	-14758
شى	-14759
kun	-14760
zar	-14761
əst	-14762
ниц	-14763
тир	-14764
▁Iş	-14765
▁İm	-14766
▁Бо	-14767
▁вк	-14768
raft	-14769
ələn	-14770
деді	-14771
оран	-14772
▁Bəs	-14773
▁fan	-14774
▁həl	-14775
▁çap	-14776
▁Аны	-14777
▁Ере	-14778
▁Кат	-14779
▁Мас	-14780
▁Нас	-14781
▁Соз	-14782
▁бий	-14783
▁див	-14784
▁түп	-14785
▁һаҡ	-14786
lumot	-14787
лерге	-14788
ольно	-14789
урган	-14790
уются	-14791
▁Ders	-14792
▁artı	-14793
▁funk	-14794
▁oğlu	-14795
▁poor	-14796
▁qiym	-14797
▁zevk	-14798
▁şehr	-14799
▁Коръ	-14800
▁Петр	-14801
▁бөтә	-14802
▁есте	-14803
▁игра	-14804
▁йорт	-14805
▁кест	-14806
▁мере	-14807
▁удив	-14808
▁яшәү	-14809
▁ҡала	-14810
asyonu	-14811
atlary	-14812
isiniz	-14813
lantir	-14814
▁almas	-14815
▁bizga	-14816
▁court	-14817
▁erken	-14818
▁fizik	-14819
▁geçer	-14820
▁giriş	-14821
▁gives	-14822
▁large	-14823
▁müzik	-14824
▁nazar	-14825
▁sende	-14826
▁tovar	-14827
▁басым	-14828
▁видов	-14829
▁перег	-14830
▁сирӗн	-14831
▁қазақ	-14832
ountain	-14833
▁UNICEF	-14834
▁coffee	-14835
▁common	-14836
▁necess	-14837
▁remind	-14838
▁sayısı	-14839
▁sürece	-14840
▁yüksel	-14841
▁Ташкен	-14842
▁выпуск	-14843
▁кеткен	-14844
▁тӑрать	-14845
▁merkezi	-14846
▁whether	-14847
▁Мәсәлән	-14848
▁мерзімі	-14849
▁приказа	-14850
▁студент	-14851
▁Services	-14852
▁mahalliy	-14853
▁работать	-14854
▁қаржылық	-14855
▁doirasida	-14856
▁yerleştir	-14857
▁возложить	-14858
▁предназна	-14859
▁шешімімен	-14860
▁қойылатын	-14861
▁Kesinlikle	-14862
▁Qoraqalpog	-14863
▁oshiriladi	-14864
▁Договарива	-14865
▁городского	-14866
▁кыйынчылык	-14867
▁руководителя	-14868
▁организациями	-14869
po	-14870
ҚО	-14871
edu	-14872
ləy	-14873
mar	-14874
дая	-14875
зат	-14876
кту	-14877
лоб	-14878
тем	-14879
шли	-14880
ңер	-14881
ӑпа	-14882
әсә	-14883
▁Eş	-14884
▁mə	-14885
▁Аг	-14886
▁зы	-14887
ened	-14888
iziq	-14889
üyle	-14890
миру	-14891
ікте	-14892
іңіз	-14893
ұрыл	-14894
▁Cid	-14895
▁Def	-14896
▁Huk	-14897
▁Zor	-14898
▁cli	-14899
▁diş	-14900
▁muc	-14901
▁nav	-14902
▁sla	-14903
▁yut	-14904
▁Хоч	-14905
dığım	-14906
деген	-14907
комен	-14908
▁Genç	-14909
▁West	-14910
▁açıl	-14911
▁grub	-14912
▁katı	-14913
▁pros	-14914
▁sonu	-14915
▁uşaq	-14916
▁çevr	-14917
▁öğüt	-14918
▁итәр	-14919
▁кому	-14920
▁мине	-14921
▁радо	-14922
▁Әкім	-14923
aurant	-14924
▁citiz	-14925
▁dünýä	-14926
▁exist	-14927
▁track	-14928
▁zgart	-14929
▁Бүгін	-14930
▁Турра	-14931
▁албай	-14932
▁дорож	-14933
▁дәлел	-14934
▁жаман	-14935
▁имеют	-14936
▁мазмұ	-14937
▁устав	-14938
▁хәтта	-14939
ığımızı	-14940
▁Pawlus	-14941
▁amaliy	-14942
▁bulduk	-14943
▁durumu	-14944
▁müşter	-14945
▁stupid	-14946
▁texnik	-14947
▁Коръән	-14948
▁заттар	-14949
▁итогам	-14950
▁многие	-14951
▁посред	-14952
▁убакыт	-14953
▁anymore	-14954
▁bizimle	-14955
▁conduct	-14956
▁several	-14957
▁Күбөлөр	-14958
▁беретін	-14959
▁жетілді	-14960
▁парамет	-14961
▁Location	-14962
▁jismoniy	-14963
▁Оңтүстік	-14964
▁адамдарды	-14965
▁консульта	-14966
▁постоянно	-14967
▁республике	-14968
▁обязательств	-14969
▁Башҡортостанда	-14970
▁Каракалпакстан	-14971
.-	-14972
DA	-14973
je	-14974
pi	-14975
ىز	-14976
ald	-14977
hib	-14978
rom	-14979
аси	-14980
бит	-14981
вит	-14982
дөө	-14983
емә	-14984
зин	-14985
ике	-14986
оту	-14987
рил	-14988
усы	-14989
▁şä	-14990
▁ək	-14991
▁үн	-14992
abet	-14993
gies	-14994
mızı	-14995
ustr	-14996
üllü	-14997
əliy	-14998
еген	-14999
ницу	-15000
тәре	-15001
цент	-15002
▁Doğ	-15003
▁Mur	-15004
▁YOU	-15005
▁mos	-15006
▁tre	-15007
▁Рух	-15008
▁Шығ	-15009
▁Эти	-15010
▁икӗ	-15011
▁қыз	-15012
▁үлг	-15013
atish	-15014
ester	-15015
igher	-15016
isyon	-15017
iting	-15018
onlar	-15019
▁Clar	-15020
▁dear	-15021
▁draw	-15022
▁holy	-15023
▁lose	-15024
▁manf	-15025
▁орай	-15026
▁цели	-15027
▁әйтә	-15028
ladığı	-15029
альную	-15030
истине	-15031
қорлық	-15032
▁bekle	-15033
▁etadi	-15034
▁ikisi	-15035
▁muhok	-15036
▁sokak	-15037
▁turli	-15038
▁value	-15039
▁корре	-15040
▁көшір	-15041
▁судов	-15042
▁форум	-15043
imizden	-15044
енности	-15045
ләребез	-15046
▁kredit	-15047
▁kurban	-15048
▁looked	-15049
▁mevcut	-15050
▁olaryň	-15051
▁sözler	-15052
▁Астане	-15053
▁Атырау	-15054
▁белдер	-15055
▁күрһәт	-15056
▁распор	-15057
▁тұрған	-15058
imizning	-15059
▁concern	-15060
▁konuşma	-15061
▁uygulam	-15062
▁üstünde	-15063
▁аттеста	-15064
▁бизнеса	-15065
▁встреча	-15066
▁предвар	-15067
▁olacağım	-15068
▁ресурсов	-15069
▁sometimes	-15070
▁Агентства	-15071
▁последние	-15072
▁тураһында	-15073
▁указанием	-15074
▁Çocukların	-15075
▁информацию	-15076
▁opportunity	-15077
▁указывается	-15078
▁ответственности	-15079
DE	-15080
рг	-15081
эк	-15082
▁ش	-15083
can	-15084
udu	-15085
лах	-15086
оре	-15087
сом	-15088
▁Ob	-15089
▁ST	-15090
ceed	-15091
elle	-15092
ğren	-15093
айся	-15094
имов	-15095
инче	-15096
ония	-15097
руге	-15098
өнүн	-15099
▁Cle	-15100
▁Dil	-15101
▁Jos	-15102
▁Var	-15103
▁due	-15104
▁elb	-15105
▁mağ	-15106
▁ned	-15107
▁piş	-15108
▁şiş	-15109
▁Наз	-15110
▁гал	-15111
▁гам	-15112
▁кач	-15113
▁ток	-15114
indim	-15115
nific	-15116
posta	-15117
арына	-15118
гында	-15119
ынады	-15120
▁cool	-15121
▁fazl	-15122
▁rele	-15123
▁uyum	-15124
▁yanı	-15125
▁аким	-15126
▁булы	-15127
▁бөлу	-15128
▁жолу	-15129
▁оста	-15130
▁рост	-15131
▁свер	-15132
▁әҙер	-15133
layıcı	-15134
lığını	-15135
ğimizi	-15136
▁Tarih	-15137
▁Under	-15138
▁satın	-15139
▁sebäp	-15140
▁super	-15141
▁tasar	-15142
▁trade	-15143
▁килӗш	-15144
▁молит	-15145
▁соның	-15146
▁хирӗҫ	-15147
atlarni	-15148
axassis	-15149
duğumuz	-15150
igation	-15151
ination	-15152
платель	-15153
▁Indeed	-15154
▁longer	-15155
▁mazkur	-15156
▁street	-15157
▁taqdir	-15158
▁Выдача	-15159
▁видеть	-15160
▁достиг	-15161
▁китерә	-15162
▁күшіне	-15163
▁повтор	-15164
▁работо	-15165
▁сторон	-15166
▁уақыты	-15167
▁қосымш	-15168
▁Araştır	-15169
▁Develop	-15170
▁Nothing	-15171
▁bileris	-15172
▁dünyaya	-15173
▁gelince	-15174
▁güvenli	-15175
▁vaziyat	-15176
▁Ташкент	-15177
▁Утвержд	-15178
▁заболев	-15179
▁субъект	-15180
▁approach	-15181
▁muhofaza	-15182
▁zamandır	-15183
▁компании	-15184
▁коэффици	-15185
▁ситуация	-15186
▁создание	-15187
▁sayesinde	-15188
▁көрсөткөн	-15189
▁проведении	-15190
егистрирован	-15191
▁değerlendir	-15192
▁использовать	-15193
dit	-15194
ils	-15195
mos	-15196
say	-15197
vik	-15198
луж	-15199
шру	-15200
ғыс	-15201
өлә	-15202
▁Дә	-15203
▁Те	-15204
▁ір	-15205
ayıs	-15206
ende	-15207
imli	-15208
lies	-15209
tgan	-15210
гъни	-15211
едек	-15212
стин	-15213
▁Ken	-15214
▁Kir	-15215
▁Rab	-15216
▁Red	-15217
▁Sun	-15218
▁beg	-15219
▁bür	-15220
▁nde	-15221
▁oğl	-15222
▁rüy	-15223
▁sep	-15224
▁tük	-15225
▁şur	-15226
▁Сто	-15227
▁бап	-15228
▁көл	-15229
▁төб	-15230
▁укы	-15231
▁Ҫӳл	-15232
emeye	-15233
luluğ	-15234
дырып	-15235
естер	-15236
леләр	-15237
һының	-15238
▁Keep	-15239
▁Prot	-15240
▁alak	-15241
▁appr	-15242
▁shim	-15243
▁жары	-15244
▁ихты	-15245
▁пара	-15246
▁стен	-15247
▁House	-15248
▁kısmı	-15249
▁legal	-15250
▁namoy	-15251
▁neyse	-15252
▁sadiq	-15253
▁third	-15254
▁çekil	-15255
▁Очень	-15256
▁жинау	-15257
▁подар	-15258
▁язган	-15259
acağımı	-15260
оваться	-15261
▁Dışarı	-15262
▁choice	-15263
▁entire	-15264
▁kitabı	-15265
▁reward	-15266
▁возник	-15267
▁высоко	-15268
▁келеді	-15269
▁орталы	-15270
▁раньше	-15271
▁своему	-15272
ализации	-15273
▁istemiş	-15274
▁parking	-15275
▁Инвести	-15276
▁изготов	-15277
▁күрсәтә	-15278
▁мақсаты	-15279
▁правила	-15280
▁пулнине	-15281
▁тікелей	-15282
believers	-15283
▁аккредит	-15284
▁бюджетной	-15285
▁кешеләрне	-15286
▁приоритет	-15287
▁бекітілсін	-15288
▁бұйрығымен	-15289
▁мәліметтер	-15290
▁применения	-15291
▁заңнамасына	-15292
▁құжаттардың	-15293
▁департаменті	-15294
▁обслуживания	-15295
▁взаимодействия	-15296
IA	-15297
US	-15298
au	-15299
myz	-15300
еки	-15301
оск	-15302
фей	-15303
яют	-15304
▁Bi	-15305
▁эн	-15306
ends	-15307
just	-15308
rial	-15309
umat	-15310
ечес	-15311
▁Cer	-15312
▁Cur	-15313
▁Was	-15314
▁dük	-15315
▁esk	-15316
▁lis	-15317
▁nal	-15318
▁töv	-15319
▁Önc	-15320
▁Жоғ	-15321
▁Сай	-15322
▁анг	-15323
▁нав	-15324
▁пти	-15325
▁пят	-15326
▁ірі	-15327
▁һум	-15328
ardon	-15329
dılar	-15330
eless	-15331
ideyn	-15332
illik	-15333
елсіз	-15334
ущего	-15335
▁Nick	-15336
▁Room	-15337
▁amel	-15338
▁dəfə	-15339
▁fair	-15340
▁kept	-15341
▁page	-15342
▁path	-15343
▁sick	-15344
▁Özür	-15345
▁Даже	-15346
▁Джон	-15347
▁борь	-15348
▁грех	-15349
▁кире	-15350
▁отца	-15351
▁сала	-15352
▁таза	-15353
▁әсер	-15354
amadım	-15355
üyorum	-15356
алатын	-15357
теріне	-15358
▁Süley	-15359
▁Watch	-15360
▁bağım	-15361
▁force	-15362
▁forth	-15363
▁ileri	-15364
▁kalır	-15365
▁ortiq	-15366
▁savun	-15367
▁siyos	-15368
▁tapın	-15369
▁будто	-15370
▁бәйле	-15371
▁дәвам	-15372
▁молод	-15373
▁нерсе	-15374
▁новые	-15375
▁секун	-15376
▁сумму	-15377
▁тилен	-15378
ilerine	-15379
stitute	-15380
ләренең	-15381
▁booked	-15382
▁create	-15383
▁haline	-15384
▁helped	-15385
▁qiymat	-15386
▁sigara	-15387
▁бірлес	-15388
▁друзья	-15389
▁карточ	-15390
▁сессии	-15391
▁Faculty	-15392
▁değerli	-15393
▁medical	-15394
▁suggest	-15395
▁агентті	-15396
▁апостол	-15397
▁булачак	-15398
▁монопол	-15399
▁объекта	-15400
▁уровень	-15401
▁участия	-15402
▁энергии	-15403
▁hospital	-15404
▁olmasına	-15405
▁yetiştir	-15406
▁ücretsiz	-15407
▁Астанада	-15408
▁конкурен	-15409
▁қойылған	-15410
▁Fiyatları	-15411
▁Мемлекетт	-15412
▁жауапкерш	-15413
▁строитель	-15414
▁uyuşturucu	-15415
▁происходит	-15416
▁разрешения	-15417
▁сооружений	-15418
▁комитетінің	-15419
▁предприятие	-15420
▁специальных	-15421
▁услугополуч	-15422
▁осуществляет	-15423
▁транспортных	-15424
▁государственном	-15425
pa	-15426
sm	-15427
əv	-15428
СК	-15429
чө	-15430
өү	-15431
his	-15432
iki	-15433
luq	-15434
tiy	-15435
вые	-15436
дег	-15437
ені	-15438
инф	-15439
оля	-15440
оры	-15441
цов	-15442
щем	-15443
ыше	-15444
ышы	-15445
▁Іш	-15446
▁бю	-15447
aval	-15448
eliň	-15449
lini	-15450
ıklı	-15451
ılıq	-15452
илип	-15453
шись	-15454
▁Eli	-15455
▁FBI	-15456
▁Gaz	-15457
▁Maz	-15458
▁Out	-15459
▁Web	-15460
▁bəz	-15461
▁deg	-15462
▁rəh	-15463
▁Мед	-15464
▁Сүз	-15465
▁Сөз	-15466
▁каш	-15467
▁мус	-15468
▁мәк	-15469
▁сәб	-15470
▁тая	-15471
▁худ	-15472
athan	-15473
ilari	-15474
тенше	-15475
ілері	-15476
▁Educ	-15477
▁Eric	-15478
▁Konu	-15479
▁Otur	-15480
▁Xalq	-15481
▁gowy	-15482
▁günd	-15483
▁içki	-15484
▁rich	-15485
▁weap	-15486
▁Прин	-15487
▁биле	-15488
▁илчӗ	-15489
▁ишен	-15490
▁разг	-15491
elerde	-15492
lashga	-15493
though	-15494
uyoruz	-15495
аларда	-15496
литель	-15497
▁Devam	-15498
▁Scrip	-15499
▁Times	-15500
▁Yeter	-15501
▁altın	-15502
▁davam	-15503
▁edýän	-15504
▁indic	-15505
▁kilit	-15506
▁oldin	-15507
▁qadın	-15508
▁shahr	-15509
▁surpr	-15510
▁yaxsh	-15511
▁şüphe	-15512
▁Банка	-15513
▁абдан	-15514
▁алтын	-15515
▁выраж	-15516
▁елдер	-15517
▁орнат	-15518
▁поезд	-15519
▁стало	-15520
▁суммы	-15521
▁счаст	-15522
▁түрлі	-15523
▁Қызыл	-15524
eceğine	-15525
▁Before	-15526
▁etdiyi	-15527
▁geldik	-15528
▁guests	-15529
▁qolgan	-15530
▁yemeği	-15531
▁üstüne	-15532
▁Albatta	-15533
▁edenler	-15534
▁feeling	-15535
▁ihtimal	-15536
▁instead	-15537
▁olmalıy	-15538
▁Заңының	-15539
▁ликвида	-15540
▁помощью	-15541
▁рекомен	-15542
▁системе	-15543
▁управля	-15544
vironment	-15545
▁bilmiyor	-15546
▁involved	-15547
▁servants	-15548
▁кедендік	-15549
▁непосред	-15550
▁endişelen	-15551
▁ihtiyacın	-15552
▁заседании	-15553
▁переработ	-15554
▁программа	-15555
▁қадағалау	-15556
ebilirsiniz	-15557
▁activities	-15558
экономикалық	-15559
▁байланыштуу	-15560
▁самостоятель	-15561
▁налогоплатель	-15562
юм	-15563
ёз	-15564
әв	-15565
que	-15566
акт	-15567
гах	-15568
гиб	-15569
гом	-15570
жеб	-15571
ино	-15572
лаб	-15573
мек	-15574
чүл	-15575
ющи	-15576
ғыҙ	-15577
ҙән	-15578
▁кр	-15579
▁ят	-15580
▁із	-15581
▁ҡы	-15582
▁ӳк	-15583
adak	-15584
astr	-15585
gina	-15586
mama	-15587
megi	-15588
uyum	-15589
айын	-15590
анды	-15591
арӑм	-15592
каны	-15593
ылым	-15594
▁Non	-15595
▁hop	-15596
▁ikk	-15597
▁müs	-15598
▁Кур	-15599
▁Пӗр	-15600
▁Тал	-15601
▁ген	-15602
▁каҫ	-15603
▁тим	-15604
▁хуж	-15605
▁өнд	-15606
useum	-15607
чении	-15608
▁Chin	-15609
▁Fren	-15610
▁shax	-15611
▁star	-15612
▁yili	-15613
▁Жаңа	-15614
▁Стар	-15615
▁алыр	-15616
▁арна	-15617
▁боло	-15618
▁бірі	-15619
▁жоба	-15620
▁идти	-15621
▁итте	-15622
▁твои	-15623
▁уның	-15624
▁уход	-15625
▁халқ	-15626
▁әзер	-15627
▁әмел	-15628
ligiga	-15629
▁Italy	-15630
▁catch	-15631
▁cross	-15632
▁güneş	-15633
▁hasta	-15634
▁həmin	-15635
▁kahve	-15636
▁major	-15637
▁posit	-15638
▁знаем	-15639
▁кӑлар	-15640
▁лицом	-15641
▁ненав	-15642
▁объяв	-15643
▁пошли	-15644
▁содер	-15645
▁услыш	-15646
▁учаск	-15647
▁фикер	-15648
ingizni	-15649
iyatini	-15650
рақұрыл	-15651
▁Nerede	-15652
▁dinner	-15653
▁ederek	-15654
▁minnet	-15655
▁pislik	-15656
▁qaytar	-15657
▁sizden	-15658
▁yolunu	-15659
▁şeytan	-15660
▁арттыр	-15661
▁команд	-15662
▁нөмірі	-15663
▁устран	-15664
▁қондыр	-15665
idagilar	-15666
▁Contact	-15667
▁Message	-15668
▁attract	-15669
▁bojxona	-15670
▁gerçeği	-15671
▁organiz	-15672
▁yapmayı	-15673
▁önceden	-15674
▁алғанда	-15675
▁выполня	-15676
▁местных	-15677
▁решений	-15678
▁құрайды	-15679
meyeceğim	-15680
▁bekliyor	-15681
▁ettiğini	-15682
▁herkesin	-15683
▁söyledin	-15684
▁tashqari	-15685
▁кірістер	-15686
▁процедур	-15687
▁решением	-15688
тармағында	-15689
▁Mahkamasi	-15690
▁жоспарлау	-15691
▁лауазымды	-15692
▁bulunmaktadır	-15693
OT	-15694
jy	-15695
sü	-15696
ҫт	-15697
akt	-15698
set	-15699
teş	-15700
yar	-15701
zer	-15702
тсе	-15703
үрө	-15704
әти	-15705
▁Eg	-15706
▁Hi	-15707
▁sn	-15708
▁öf	-15709
▁шы	-15710
ames	-15711
hour	-15712
illa	-15713
sraý	-15714
unki	-15715
аҫҫӗ	-15716
воль	-15717
илен	-15718
индә	-15719
маса	-15720
нала	-15721
нить	-15722
тады	-15723
ушка	-15724
▁Big	-15725
▁Pay	-15726
▁Put	-15727
▁Söy	-15728
▁Zeb	-15729
▁ada	-15730
▁Аза	-15731
▁Луч	-15732
▁Мер	-15733
▁Таб	-15734
▁Хан	-15735
▁лож	-15736
▁сығ	-15737
▁сӑв	-15738
▁һөй	-15739
acter	-15740
dadır	-15741
duğum	-15742
landi	-15743
lərlə	-15744
аются	-15745
▁Juli	-15746
▁Stop	-15747
▁etib	-15748
▁juda	-15749
▁qatn	-15750
▁rate	-15751
▁sene	-15752
▁trip	-15753
▁Иоан	-15754
▁добр	-15755
▁древ	-15756
▁идет	-15757
▁конг	-15758
▁күті	-15759
▁одну	-15760
▁таст	-15761
▁хоро	-15762
ілігін	-15763
▁Otele	-15764
▁bolan	-15765
▁final	-15766
▁kitob	-15767
▁kural	-15768
▁olduq	-15769
▁yarın	-15770
▁zamon	-15771
▁Зачем	-15772
▁алмас	-15773
▁былай	-15774
▁келіс	-15775
▁лицам	-15776
▁тонна	-15777
▁җитәк	-15778
▁өлкән	-15779
lanishi	-15780
▁beklem	-15781
▁birden	-15782
▁integr	-15783
▁біздің	-15784
▁жүйесі	-15785
▁метров	-15786
▁неправ	-15787
▁партии	-15788
▁посвящ	-15789
▁қорған	-15790
▁құрады	-15791
▁istemez	-15792
▁keyingi	-15793
▁tartibi	-15794
▁Законом	-15795
▁беренче	-15796
▁большой	-15797
▁есептеу	-15798
▁заработ	-15799
▁hastalık	-15800
▁internet	-15801
▁дипломат	-15802
▁righteous	-15803
▁ишенимдеш	-15804
▁хакыйкать	-15805
▁адамдардын	-15806
▁заключения	-15807
▁орындалуын	-15808
▁Президентінің	-15809
EK	-15810
qi	-15811
АО	-15812
РА	-15813
дж	-15814
еһ	-15815
сӗ	-15816
сө	-15817
үд	-15818
ldi	-15819
oon	-15820
ste	-15821
uru	-15822
üni	-15823
əld	-15824
гая	-15825
лӑн	-15826
фин	-15827
▁AT	-15828
▁IV	-15829
amad	-15830
itar	-15831
lier	-15832
liyi	-15833
едом	-15834
иков	-15835
стің	-15836
тегі	-15837
ӑрса	-15838
▁Got	-15839
▁Num	-15840
▁Tav	-15841
▁beğ	-15842
▁dip	-15843
▁pyg	-15844
▁sik	-15845
▁Çin	-15846
▁çen	-15847
▁şar	-15848
▁Гал	-15849
▁бәс	-15850
▁вӗҫ	-15851
▁ква	-15852
▁күй	-15853
▁низ	-15854
▁чаг	-15855
ented	-15856
imler	-15857
атуры	-15858
лично	-15859
сторо	-15860
▁Bilg	-15861
▁High	-15862
▁Para	-15863
▁Work	-15864
▁agar	-15865
▁amaç	-15866
▁farz	-15867
▁odak	-15868
▁renk	-15869
▁ähli	-15870
▁ödül	-15871
▁Şunu	-15872
▁Амер	-15873
▁Олар	-15874
▁Рабб	-15875
▁болб	-15876
▁боюн	-15877
▁влад	-15878
▁дагы	-15879
▁жаса	-15880
▁защи	-15881
▁край	-15882
▁кред	-15883
▁тили	-15884
▁туса	-15885
▁үлгү	-15886
asınız	-15887
сионер	-15888
үгедек	-15889
▁Keşke	-15890
▁Muham	-15891
▁Nered	-15892
▁aldık	-15893
▁becom	-15894
▁carry	-15895
▁daxil	-15896
▁etgan	-15897
▁extra	-15898
▁serve	-15899
▁tanrı	-15900
▁Білім	-15901
▁бирге	-15902
▁мамыр	-15903
▁мекте	-15904
▁месяц	-15905
▁ночью	-15906
▁обвин	-15907
▁переж	-15908
▁посет	-15909
▁проро	-15910
▁публи	-15911
▁такая	-15912
▁терең	-15913
▁часто	-15914
▁ұсыну	-15915
ishimiz	-15916
malıyım	-15917
▁Dersin	-15918
▁afraid	-15919
▁toprak	-15920
▁исправ	-15921
▁металл	-15922
▁наслед	-15923
▁пассаж	-15924
▁постро	-15925
▁разгов	-15926
▁твоего	-15927
▁тысячи	-15928
▁қалдық	-15929
▁Airport	-15930
▁hisobga	-15931
▁laborat	-15932
▁lavozim	-15933
▁purpose	-15934
▁ведения	-15935
▁женщина	-15936
▁кубаныч	-15937
▁очередь	-15938
▁позднее	-15939
▁пунктов	-15940
▁district	-15941
▁position	-15942
▁vəziyyət	-15943
▁алушының	-15944
▁работает	-15945
▁Apartment	-15946
▁управление	-15947
▁коммуникаций	-15948
▁использование	-15949
----------------	-15950
ns	-15951
ЕД	-15952
ощ	-15953
sör	-15954
уде	-15955
ула	-15956
▁Са	-15957
▁кг	-15958
▁Әл	-15959
ille	-15960
iyer	-15961
urch	-15962
далы	-15963
исси	-15964
ните	-15965
саты	-15966
стре	-15967
▁Ali	-15968
▁aks	-15969
▁ens	-15970
▁goý	-15971
▁kum	-15972
▁nik	-15973
▁Кап	-15974
▁Нач	-15975
▁Нес	-15976
▁Шул	-15977
▁оор	-15978
▁сир	-15979
▁түй	-15980
achel	-15981
dilar	-15982
lərdə	-15983
енном	-15984
малли	-15985
сятся	-15986
өстәм	-15987
▁Noel	-15988
▁cold	-15989
▁Пока	-15990
▁Расс	-15991
▁Слов	-15992
▁базы	-15993
▁нары	-15994
▁плох	-15995
▁трав	-15996
▁фонд	-15997
▁үлем	-15998
amıyor	-15999
асымен	-16000
елерді	-16001
мотрим	-16002
способ	-16003
ющиеся	-16004
▁Zaten	-16005
▁aldın	-16006
▁bitch	-16007
▁butun	-16008
▁digər	-16009
▁faqat	-16010
▁konum	-16011
▁olanı	-16012
▁uydur	-16013
▁villa	-16014
▁çıkan	-16015
▁Интер	-16016
▁Кеден	-16017
▁Можно	-16018
▁вашей	-16019
▁кораб	-16020
▁подоз	-16021
▁призн	-16022
▁тәрби	-16023
▁төрле	-16024
▁шәһәр	-16025
ательно	-16026
ическая	-16027
ременно	-16028
▁adamım	-16029
▁başlat	-16030
▁inform	-16031
▁nation	-16032
[...]
